{
  "version": "1.0",
  "truncation": null,
  "padding": null,
  "added_tokens": [
    {
      "id": 0,
      "content": "[UNK]",
      "single_word": false,
      "lstrip": false,
      "rstrip": false,
      "normalized": false,
      "special": true
    },
    {
      "id": 1,
      "content": "[PAD]",
      "single_word": false,
      "lstrip": false,
      "rstrip": false,
      "normalized": false,
      "special": true
    },
    {
      "id": 2,
      "content": "[EOS]",
      "single_word": false,
      "lstrip": false,
      "rstrip": false,
      "normalized": false,
      "special": true
    },
    {
      "id": 3,
      "content": "[EN]",
      "single_word": false,
      "lstrip": false,
      "rstrip": false,
      "normalized": false,
      "special": true
    },
    {
      "id": 4,
      "content": "[NE]",
      "single_word": false,
      "lstrip": false,
      "rstrip": false,
      "normalized": false,
      "special": true
    }
  ],
  "normalizer": null,
  "pre_tokenizer": {
    "type": "Whitespace"
  },
  "post_processor": null,
  "decoder": null,
  "model": {
    "type": "BPE",
    "dropout": null,
    "unk_token": "[UNK]",
    "continuing_subword_prefix": null,
    "end_of_word_suffix": null,
    "fuse_unk": false,
    "byte_fallback": false,
    "ignore_merges": false,
    "vocab": {
      "[UNK]": 0,
      "[PAD]": 1,
      "[EOS]": 2,
      "[EN]": 3,
      "[NE]": 4,
      "!": 5,
      "\"": 6,
      "#": 7,
      "$": 8,
      "%": 9,
      "&": 10,
      "'": 11,
      "(": 12,
      ")": 13,
      "*": 14,
      "+": 15,
      ",": 16,
      "-": 17,
      ".": 18,
      "/": 19,
      "0": 20,
      "1": 21,
      "2": 22,
      "3": 23,
      "4": 24,
      "5": 25,
      "6": 26,
      "7": 27,
      "8": 28,
      "9": 29,
      ":": 30,
      ";": 31,
      "<": 32,
      "=": 33,
      ">": 34,
      "?": 35,
      "@": 36,
      "A": 37,
      "B": 38,
      "C": 39,
      "D": 40,
      "E": 41,
      "F": 42,
      "G": 43,
      "H": 44,
      "I": 45,
      "J": 46,
      "K": 47,
      "L": 48,
      "M": 49,
      "N": 50,
      "O": 51,
      "P": 52,
      "Q": 53,
      "R": 54,
      "S": 55,
      "T": 56,
      "U": 57,
      "V": 58,
      "W": 59,
      "X": 60,
      "Y": 61,
      "Z": 62,
      "[": 63,
      "\\": 64,
      "]": 65,
      "^": 66,
      "_": 67,
      "`": 68,
      "a": 69,
      "b": 70,
      "c": 71,
      "d": 72,
      "e": 73,
      "f": 74,
      "g": 75,
      "h": 76,
      "i": 77,
      "j": 78,
      "k": 79,
      "l": 80,
      "m": 81,
      "n": 82,
      "o": 83,
      "p": 84,
      "q": 85,
      "r": 86,
      "s": 87,
      "t": 88,
      "u": 89,
      "v": 90,
      "w": 91,
      "x": 92,
      "y": 93,
      "z": 94,
      "{": 95,
      "|": 96,
      "}": 97,
      "~": 98,
      "": 99,
      "": 100,
      "": 101,
      "¡": 102,
      "¢": 103,
      "£": 104,
      "¤": 105,
      "¥": 106,
      "¦": 107,
      "¨": 108,
      "©": 109,
      "ª": 110,
      "«": 111,
      "¬": 112,
      "­": 113,
      "®": 114,
      "°": 115,
      "±": 116,
      "²": 117,
      "³": 118,
      "´": 119,
      "µ": 120,
      "¶": 121,
      "·": 122,
      "¸": 123,
      "¹": 124,
      "º": 125,
      "»": 126,
      "¼": 127,
      "½": 128,
      "¾": 129,
      "¿": 130,
      "À": 131,
      "Á": 132,
      "Â": 133,
      "Ã": 134,
      "Ä": 135,
      "Å": 136,
      "Æ": 137,
      "Ç": 138,
      "È": 139,
      "É": 140,
      "Ê": 141,
      "Ë": 142,
      "Ì": 143,
      "Í": 144,
      "Î": 145,
      "Ï": 146,
      "Ð": 147,
      "Ñ": 148,
      "Ò": 149,
      "Ó": 150,
      "Ô": 151,
      "Õ": 152,
      "Ö": 153,
      "×": 154,
      "Ø": 155,
      "Ù": 156,
      "Ú": 157,
      "Û": 158,
      "Ü": 159,
      "Ý": 160,
      "Þ": 161,
      "ß": 162,
      "à": 163,
      "á": 164,
      "â": 165,
      "ã": 166,
      "ä": 167,
      "å": 168,
      "æ": 169,
      "ç": 170,
      "è": 171,
      "é": 172,
      "ê": 173,
      "ë": 174,
      "ì": 175,
      "í": 176,
      "î": 177,
      "ï": 178,
      "ð": 179,
      "ñ": 180,
      "ò": 181,
      "ó": 182,
      "ô": 183,
      "õ": 184,
      "ö": 185,
      "÷": 186,
      "ø": 187,
      "ù": 188,
      "ú": 189,
      "û": 190,
      "ü": 191,
      "ý": 192,
      "þ": 193,
      "ÿ": 194,
      "ā": 195,
      "Ă": 196,
      "ă": 197,
      "č": 198,
      "ğ": 199,
      "ī": 200,
      "ł": 201,
      "ō": 202,
      "ŏ": 203,
      "Œ": 204,
      "œ": 205,
      "ś": 206,
      "Ş": 207,
      "ş": 208,
      "š": 209,
      "Ţ": 210,
      "ţ": 211,
      "ū": 212,
      "ž": 213,
      "ǎ": 214,
      "ǒ": 215,
      "ǔ": 216,
      "ǧ": 217,
      "ˆ": 218,
      "ː": 219,
      "˗": 220,
      "˚": 221,
      "́": 222,
      "̈": 223,
      "̊": 224,
      "̧": 225,
      "Β": 226,
      "Η": 227,
      "Μ": 228,
      "ά": 229,
      "έ": 230,
      "ή": 231,
      "ί": 232,
      "α": 233,
      "β": 234,
      "γ": 235,
      "δ": 236,
      "ε": 237,
      "ζ": 238,
      "η": 239,
      "θ": 240,
      "ι": 241,
      "κ": 242,
      "λ": 243,
      "μ": 244,
      "ν": 245,
      "ξ": 246,
      "ο": 247,
      "π": 248,
      "ρ": 249,
      "ς": 250,
      "σ": 251,
      "τ": 252,
      "υ": 253,
      "φ": 254,
      "χ": 255,
      "ό": 256,
      "ύ": 257,
      "М": 258,
      "а": 259,
      "б": 260,
      "в": 261,
      "г": 262,
      "д": 263,
      "е": 264,
      "з": 265,
      "и": 266,
      "й": 267,
      "к": 268,
      "л": 269,
      "м": 270,
      "н": 271,
      "о": 272,
      "п": 273,
      "р": 274,
      "с": 275,
      "т": 276,
      "у": 277,
      "ф": 278,
      "х": 279,
      "ц": 280,
      "ч": 281,
      "ш": 282,
      "щ": 283,
      "ы": 284,
      "ю": 285,
      "א": 286,
      "ב": 287,
      "ג": 288,
      "ו": 289,
      "ח": 290,
      "ט": 291,
      "י": 292,
      "ל": 293,
      "מ": 294,
      "ן": 295,
      "נ": 296,
      "ע": 297,
      "פ": 298,
      "ק": 299,
      "ר": 300,
      "ש": 301,
      "ת": 302,
      "ؘ": 303,
      "ء": 304,
      "أ": 305,
      "ا": 306,
      "ب": 307,
      "ة": 308,
      "ت": 309,
      "ج": 310,
      "ح": 311,
      "خ": 312,
      "د": 313,
      "ر": 314,
      "ز": 315,
      "س": 316,
      "ش": 317,
      "ص": 318,
      "ع": 319,
      "غ": 320,
      "ف": 321,
      "ق": 322,
      "ك": 323,
      "ل": 324,
      "م": 325,
      "ن": 326,
      "ه": 327,
      "و": 328,
      "ى": 329,
      "ي": 330,
      "ٹ": 331,
      "پ": 332,
      "ښ": 333,
      "ک": 334,
      "گ": 335,
      "ھ": 336,
      "ہ": 337,
      "ی": 338,
      "ې": 339,
      "ے": 340,
      "۞": 341,
      "ހ": 342,
      "ދ": 343,
      "ތ": 344,
      "ަ": 345,
      "ި": 346,
      "ޫ": 347,
      "ँ": 348,
      "ं": 349,
      "ः": 350,
      "अ": 351,
      "आ": 352,
      "इ": 353,
      "ई": 354,
      "उ": 355,
      "ऊ": 356,
      "ऋ": 357,
      "ऌ": 358,
      "ऍ": 359,
      "ऎ": 360,
      "ए": 361,
      "ऐ": 362,
      "ऑ": 363,
      "ऒ": 364,
      "ओ": 365,
      "औ": 366,
      "क": 367,
      "ख": 368,
      "ग": 369,
      "घ": 370,
      "ङ": 371,
      "च": 372,
      "छ": 373,
      "ज": 374,
      "झ": 375,
      "ञ": 376,
      "ट": 377,
      "ठ": 378,
      "ड": 379,
      "ढ": 380,
      "ण": 381,
      "त": 382,
      "थ": 383,
      "द": 384,
      "ध": 385,
      "न": 386,
      "ऩ": 387,
      "प": 388,
      "फ": 389,
      "ब": 390,
      "भ": 391,
      "म": 392,
      "य": 393,
      "र": 394,
      "ऱ": 395,
      "ल": 396,
      "ळ": 397,
      "व": 398,
      "श": 399,
      "ष": 400,
      "स": 401,
      "ह": 402,
      "़": 403,
      "ऽ": 404,
      "ा": 405,
      "ि": 406,
      "ी": 407,
      "ु": 408,
      "ू": 409,
      "ृ": 410,
      "ॄ": 411,
      "ॅ": 412,
      "ॆ": 413,
      "े": 414,
      "ै": 415,
      "ॉ": 416,
      "ॊ": 417,
      "ो": 418,
      "ौ": 419,
      "्": 420,
      "ॐ": 421,
      "॑": 422,
      "॒": 423,
      "॔": 424,
      "ड़": 425,
      "ॠ": 426,
      "।": 427,
      "॥": 428,
      "०": 429,
      "१": 430,
      "२": 431,
      "३": 432,
      "४": 433,
      "५": 434,
      "६": 435,
      "७": 436,
      "८": 437,
      "९": 438,
      "॰": 439,
      "ॱ": 440,
      "ঁ": 441,
      "ং": 442,
      "আ": 443,
      "ই": 444,
      "ও": 445,
      "ক": 446,
      "গ": 447,
      "ঙ": 448,
      "চ": 449,
      "ছ": 450,
      "জ": 451,
      "ঞ": 452,
      "ট": 453,
      "ড": 454,
      "ত": 455,
      "দ": 456,
      "ধ": 457,
      "ন": 458,
      "প": 459,
      "ফ": 460,
      "ব": 461,
      "ম": 462,
      "য": 463,
      "র": 464,
      "ল": 465,
      "শ": 466,
      "ষ": 467,
      "স": 468,
      "হ": 469,
      "়": 470,
      "া": 471,
      "ি": 472,
      "ী": 473,
      "ু": 474,
      "ে": 475,
      "ো": 476,
      "্": 477,
      "১": 478,
      "ৰ": 479,
      "ৱ": 480,
      "৷": 481,
      "ਗ": 482,
      "ਘ": 483,
      "ਜ": 484,
      "ਤ": 485,
      "ਦ": 486,
      "ਧ": 487,
      "ਨ": 488,
      "ਬ": 489,
      "ਮ": 490,
      "ਰ": 491,
      "ਲ": 492,
      "ਸ": 493,
      "ਹ": 494,
      "ਿ": 495,
      "ੀ": 496,
      "ੇ": 497,
      "ੋ": 498,
      "ੰ": 499,
      "ક": 500,
      "જ": 501,
      "ઞ": 502,
      "ષ": 503,
      "િ": 504,
      "ે": 505,
      "્": 506,
      "க": 507,
      "ச": 508,
      "த": 509,
      "ன": 510,
      "ப": 511,
      "ய": 512,
      "ர": 513,
      "ற": 514,
      "ள": 515,
      "ழ": 516,
      "வ": 517,
      "ஸ": 518,
      "ா": 519,
      "ி": 520,
      "ீ": 521,
      "ு": 522,
      "ே": 523,
      "்": 524,
      "గ": 525,
      "త": 526,
      "థ": 527,
      "న": 528,
      "మ": 529,
      "ర": 530,
      "శ": 531,
      "హ": 532,
      "ా": 533,
      "ి": 534,
      "ు": 535,
      "ొ": 536,
      "్": 537,
      "അ": 538,
      "ഖ": 539,
      "ജ": 540,
      "ഞ": 541,
      "ന": 542,
      "ബ": 543,
      "യ": 544,
      "ര": 545,
      "റ": 546,
      "സ": 547,
      "ാ": 548,
      "ി": 549,
      "ു": 550,
      "ോ": 551,
      "്": 552,
      "ක": 553,
      "ග": 554,
      "ත": 555,
      "ද": 556,
      "න": 557,
      "ම": 558,
      "ය": 559,
      "ර": 560,
      "ල": 561,
      "ෂ": 562,
      "ස": 563,
      "්": 564,
      "ා": 565,
      "ි": 566,
      "ු": 567,
      "ේ": 568,
      "ก": 569,
      "ข": 570,
      "ค": 571,
      "ง": 572,
      "ช": 573,
      "ญ": 574,
      "ฐ": 575,
      "ณ": 576,
      "ต": 577,
      "ท": 578,
      "น": 579,
      "บ": 580,
      "ป": 581,
      "พ": 582,
      "ฟ": 583,
      "ม": 584,
      "ย": 585,
      "ร": 586,
      "ล": 587,
      "ส": 588,
      "อ": 589,
      "ะ": 590,
      "ั": 591,
      "า": 592,
      "ี": 593,
      "ุ": 594,
      "เ": 595,
      "โ": 596,
      "ไ": 597,
      "้": 598,
      "ํ": 599,
      "ງ": 600,
      "ນ": 601,
      "ບ": 602,
      "ຟ": 603,
      "ັ": 604,
      "ຸ": 605,
      "ໄ": 606,
      "້": 607,
      "་": 608,
      "ཎ": 609,
      "ད": 610,
      "པ": 611,
      "མ": 612,
      "ཧ": 613,
      "ཨ": 614,
      "ི": 615,
      "ུ": 616,
      "ེ": 617,
      "ོ": 618,
      "ཾ": 619,
      "ྃ": 620,
      "ྨ": 621,
      "ᅳ": 622,
      "ṛ": 623,
      "ễ": 624,
      "ἀ": 625,
      "ἅ": 626,
      "ὰ": 627,
      "‌": 628,
      "‍": 629,
      "‎": 630,
      "‐": 631,
      "–": 632,
      "—": 633,
      "―": 634,
      "‘": 635,
      "’": 636,
      "‚": 637,
      "“": 638,
      "”": 639,
      "„": 640,
      "†": 641,
      "•": 642,
      "…": 643,
      "‪": 644,
      "‬": 645,
      "‰": 646,
      "′": 647,
      "‹": 648,
      "›": 649,
      "⁄": 650,
      "⁇": 651,
      "₪": 652,
      "₫": 653,
      "€": 654,
      "₹": 655,
      "™": 656,
      "→": 657,
      "∈": 658,
      "−": 659,
      "∕": 660,
      "∙": 661,
      "∞": 662,
      "≈": 663,
      "≠": 664,
      "■": 665,
      "□": 666,
      "▽": 667,
      "☺": 668,
      "♂": 669,
      "♏": 670,
      "♫": 671,
      "⚡": 672,
      "✄": 673,
      "✨": 674,
      "❁": 675,
      "々": 676,
      "「": 677,
      "」": 678,
      "い": 679,
      "う": 680,
      "か": 681,
      "さ": 682,
      "し": 683,
      "た": 684,
      "ち": 685,
      "っ": 686,
      "な": 687,
      "に": 688,
      "の": 689,
      "め": 690,
      "ゃ": 691,
      "よ": 692,
      "り": 693,
      "れ": 694,
      "を": 695,
      "ん": 696,
      "ア": 697,
      "イ": 698,
      "オ": 699,
      "ガ": 700,
      "キ": 701,
      "シ": 702,
      "ズ": 703,
      "タ": 704,
      "ネ": 705,
      "ノ": 706,
      "ラ": 707,
      "ル": 708,
      "レ": 709,
      "ー": 710,
      "一": 711,
      "三": 712,
      "下": 713,
      "不": 714,
      "世": 715,
      "京": 716,
      "人": 717,
      "住": 718,
      "便": 719,
      "公": 720,
      "力": 721,
      "区": 722,
      "卓": 723,
      "吐": 724,
      "喜": 725,
      "営": 726,
      "国": 727,
      "國": 728,
      "地": 729,
      "坊": 730,
      "型": 731,
      "多": 732,
      "大": 733,
      "奧": 734,
      "宅": 735,
      "宮": 736,
      "害": 737,
      "宵": 738,
      "山": 739,
      "岡": 740,
      "巡": 741,
      "弃": 742,
      "弾": 743,
      "戦": 744,
      "所": 745,
      "新": 746,
      "族": 747,
      "星": 748,
      "暴": 749,
      "有": 750,
      "材": 751,
      "東": 752,
      "樂": 753,
      "次": 754,
      "気": 755,
      "水": 756,
      "汚": 757,
      "油": 758,
      "浄": 759,
      "溜": 760,
      "災": 761,
      "爆": 762,
      "界": 763,
      "疾": 764,
      "禾": 765,
      "秒": 766,
      "站": 767,
      "第": 768,
      "者": 769,
      "肥": 770,
      "能": 771,
      "航": 772,
      "蕃": 773,
      "藏": 774,
      "行": 775,
      "西": 776,
      "豚": 777,
      "走": 778,
      "超": 779,
      "辛": 780,
      "逸": 781,
      "遥": 782,
      "酢": 783,
      "醤": 784,
      "金": 785,
      "鉾": 786,
      "離": 787,
      "霊": 788,
      "音": 789,
      "飯": 790,
      "骨": 791,
      "鮨": 792,
      "금": 793,
      "다": 794,
      "도": 795,
      "럭": 796,
      "마": 797,
      "바": 798,
      "법": 799,
      "사": 800,
      "산": 801,
      "성": 802,
      "식": 803,
      "음": 804,
      "이": 805,
      "인": 806,
      "제": 807,
      "주": 808,
      "케": 809,
      "키": 810,
      "티": 811,
      "회": 812,
      "": 813,
      "": 814,
      "": 815,
      "": 816,
      "": 817,
      "": 818,
      "": 819,
      "": 820,
      "": 821,
      "": 822,
      "": 823,
      "": 824,
      "": 825,
      "": 826,
      "": 827,
      "": 828,
      "": 829,
      "": 830,
      "": 831,
      "": 832,
      "": 833,
      "": 834,
      "": 835,
      "": 836,
      "": 837,
      "": 838,
      "": 839,
      "": 840,
      "": 841,
      "": 842,
      "": 843,
      "": 844,
      "": 845,
      "": 846,
      "": 847,
      "": 848,
      "": 849,
      "": 850,
      "": 851,
      "": 852,
      "": 853,
      "": 854,
      "": 855,
      "": 856,
      "": 857,
      "": 858,
      "": 859,
      "": 860,
      "": 861,
      "": 862,
      "": 863,
      "": 864,
      "": 865,
      "": 866,
      "": 867,
      "": 868,
      "": 869,
      "": 870,
      "": 871,
      "": 872,
      "": 873,
      "": 874,
      "": 875,
      "": 876,
      "": 877,
      "": 878,
      "": 879,
      "": 880,
      "": 881,
      "": 882,
      "": 883,
      "": 884,
      "": 885,
      "": 886,
      "": 887,
      "": 888,
      "": 889,
      "": 890,
      "": 891,
      "": 892,
      "": 893,
      "": 894,
      "": 895,
      "": 896,
      "": 897,
      "": 898,
      "": 899,
      "": 900,
      "": 901,
      "": 902,
      "": 903,
      "": 904,
      "": 905,
      "": 906,
      "": 907,
      "": 908,
      "": 909,
      "": 910,
      "": 911,
      "": 912,
      "": 913,
      "": 914,
      "": 915,
      "": 916,
      "": 917,
      "": 918,
      "": 919,
      "": 920,
      "": 921,
      "": 922,
      "": 923,
      "": 924,
      "": 925,
      "": 926,
      "": 927,
      "": 928,
      "": 929,
      "": 930,
      "": 931,
      "": 932,
      "": 933,
      "": 934,
      "": 935,
      "": 936,
      "": 937,
      "": 938,
      "": 939,
      "": 940,
      "": 941,
      "": 942,
      "": 943,
      "": 944,
      "": 945,
      "": 946,
      "": 947,
      "": 948,
      "": 949,
      "": 950,
      "": 951,
      "": 952,
      "": 953,
      "": 954,
      "": 955,
      "": 956,
      "": 957,
      "": 958,
      "": 959,
      "": 960,
      "": 961,
      "": 962,
      "": 963,
      "": 964,
      "": 965,
      "": 966,
      "": 967,
      "": 968,
      "": 969,
      "": 970,
      "": 971,
      "": 972,
      "": 973,
      "": 974,
      "": 975,
      "": 976,
      "": 977,
      "": 978,
      "": 979,
      "": 980,
      "": 981,
      "": 982,
      "": 983,
      "": 984,
      "": 985,
      "": 986,
      "️": 987,
      "﻿": 988,
      "🇯": 989,
      "🇵": 990,
      "🌍": 991,
      "🎥": 992,
      "💦": 993,
      "😃": 994,
      "🙂": 995,
      "🤔": 996,
      "र्": 997,
      "को": 998,
      "मा": 999,
      "्र": 1000,
      "न्": 1001,
      "का": 1002,
      "्य": 1003,
      "ले": 1004,
      "ने": 1005,
      "ला": 1006,
      "स्": 1007,
      "ार": 1008,
      "प्र": 1009,
      "नि": 1010,
      "क्": 1011,
      "ति": 1012,
      "वि": 1013,
      "रा": 1014,
      "यो": 1015,
      "ता": 1016,
      "हर": 1017,
      "गर्": 1018,
      "ना": 1019,
      "पा": 1020,
      "वा": 1021,
      "गर": 1022,
      "नु": 1023,
      "हरू": 1024,
      "म्": 1025,
      "लाई": 1026,
      "त्र": 1027,
      "्या": 1028,
      "हा": 1029,
      "बा": 1030,
      "सा": 1031,
      "नी": 1032,
      "या": 1033,
      "एको": 1034,
      "दा": 1035,
      "हु": 1036,
      "क्ष": 1037,
      "थि": 1038,
      "रि": 1039,
      "था": 1040,
      "त्": 1041,
      "लि": 1042,
      "कार": 1043,
      "हि": 1044,
      "ेको": 1045,
      "दे": 1046,
      "ल्": 1047,
      "दि": 1048,
      "सं": 1049,
      "छन्": 1050,
      "त्य": 1051,
      "के": 1052,
      "हो": 1053,
      "सम्": 1054,
      "िक": 1055,
      "द्": 1056,
      "्ट": 1057,
      "भन्": 1058,
      "लाग": 1059,
      "पनि": 1060,
      "सम": 1061,
      "ली": 1062,
      "जा": 1063,
      "स्त": 1064,
      "सु": 1065,
      "कि": 1066,
      "गा": 1067,
      "भा": 1068,
      "रह": 1069,
      "गर्न": 1070,
      "ेर": 1071,
      "कु": 1072,
      "उन": 1073,
      "बाट": 1074,
      "ित": 1075,
      "्न": 1076,
      "पर्": 1077,
      "पु": 1078,
      "दै": 1079,
      "लो": 1080,
      "सि": 1081,
      "चा": 1082,
      "स्था": 1083,
      "तर": 1084,
      "गरि": 1085,
      "न्छ": 1086,
      "ष्ट": 1087,
      "यस": 1088,
      "क्र": 1089,
      "रु": 1090,
      "आफ": 1091,
      "लागि": 1092,
      "गर्ने": 1093,
      "धि": 1094,
      "ती": 1095,
      "मी": 1096,
      "मि": 1097,
      "नेपा": 1098,
      "रो": 1099,
      "ेका": 1100,
      "मु": 1101,
      "कार्": 1102,
      "री": 1103,
      "एका": 1104,
      "न्द": 1105,
      "मे": 1106,
      "ही": 1107,
      "छि": 1108,
      "धा": 1109,
      "वर्": 1110,
      "व्य": 1111,
      "टा": 1112,
      "प्रति": 1113,
      "भएको": 1114,
      "प्": 1115,
      "श्": 1116,
      "ँग": 1117,
      "देख": 1118,
      "भि": 1119,
      "जि": 1120,
      "भने": 1121,
      "नै": 1122,
      "एक": 1123,
      "से": 1124,
      "ङ्": 1125,
      "हरु": 1126,
      "सँग": 1127,
      "अन्": 1128,
      "पू": 1129,
      "राज": 1130,
      "थियो": 1131,
      "न्त्र": 1132,
      "अनु": 1133,
      "देश": 1134,
      "्रो": 1135,
      "दु": 1136,
      "बै": 1137,
      "परि": 1138,
      "निर्": 1139,
      "पछि": 1140,
      "यु": 1141,
      "योग": 1142,
      "सर": 1143,
      "समा": 1144,
      "आफ्न": 1145,
      "बि": 1146,
      "बार": 1147,
      "रू": 1148,
      "सी": 1149,
      "उँ": 1150,
      "चि": 1151,
      "भयो": 1152,
      "जन": 1153,
      "शा": 1154,
      "सो": 1155,
      "डा": 1156,
      "जना": 1157,
      "ारी": 1158,
      "नेपाल": 1159,
      "पमा": 1160,
      "आफ्नो": 1161,
      "खा": 1162,
      "थिए": 1163,
      "कर्": 1164,
      "डि": 1165,
      "सक्": 1166,
      "हरूले": 1167,
      "गरेको": 1168,
      "गर्नु": 1169,
      "पूर्": 1170,
      "ध्य": 1171,
      "बढ": 1172,
      "ग्र": 1173,
      "कार्य": 1174,
      "रहेको": 1175,
      "ौं": 1176,
      "की": 1177,
      "मो": 1178,
      "उने": 1179,
      "उप": 1180,
      "उनी": 1181,
      "प्रा": 1182,
      "वे": 1183,
      "नमा": 1184,
      "हुने": 1185,
      "रे": 1186,
      "हाँ": 1187,
      "देखि": 1188,
      "कारी": 1189,
      "जी": 1190,
      "नको": 1191,
      "दी": 1192,
      "ञ्": 1193,
      "रण": 1194,
      "वर्ष": 1195,
      "ष्ट्र": 1196,
      "वार": 1197,
      "गरे": 1198,
      "बता": 1199,
      "चार": 1200,
      "ैन": 1201,
      "राष्ट्र": 1202,
      "भए": 1203,
      "टी": 1204,
      "द्ध": 1205,
      "बन्": 1206,
      "त्यस": 1207,
      "गत": 1208,
      "भन्दा": 1209,
      "लय": 1210,
      "००": 1211,
      "सबै": 1212,
      "छैन": 1213,
      "क्ति": 1214,
      "टि": 1215,
      "हामी": 1216,
      "लगा": 1217,
      "स्ता": 1218,
      "क्रम": 1219,
      "गरिएको": 1220,
      "सम्म": 1221,
      "काम": 1222,
      "ण्": 1223,
      "मान": 1224,
      "खे": 1225,
      "क्त": 1226,
      "बु": 1227,
      "धार": 1228,
      "रूपमा": 1229,
      "सह": 1230,
      "..": 1231,
      "टो": 1232,
      "अर्": 1233,
      "तथा": 1234,
      "बी": 1235,
      "क्षा": 1236,
      "श्र": 1237,
      "निक": 1238,
      "अव": 1239,
      "धान": 1240,
      "उत्": 1241,
      "मात्र": 1242,
      "हिले": 1243,
      "व्यव": 1244,
      "स्व": 1245,
      "जो": 1246,
      "ज्": 1247,
      "बो": 1248,
      "बे": 1249,
      "यन": 1250,
      "विश्": 1251,
      "क्षे": 1252,
      "म्प": 1253,
      "हुन्छ": 1254,
      "जे": 1255,
      "ठा": 1256,
      "ब्": 1257,
      "्यो": 1258,
      "हरूको": 1259,
      "च्": 1260,
      "कृ": 1261,
      "ष्": 1262,
      "गो": 1263,
      "कुरा": 1264,
      "भन्ने": 1265,
      "शि": 1266,
      "सन्": 1267,
      "पार्": 1268,
      "जु": 1269,
      "फा": 1270,
      "केही": 1271,
      "अधि": 1272,
      "न्न": 1273,
      "क्षेत्र": 1274,
      "्रा": 1275,
      "हे": 1276,
      "सरकार": 1277,
      "णा": 1278,
      "गु": 1279,
      "मन्त्र": 1280,
      "टे": 1281,
      "नो": 1282,
      "सार": 1283,
      "बना": 1284,
      "डी": 1285,
      "बन्ध": 1286,
      "नुभयो": 1287,
      "तर्": 1288,
      "पे": 1289,
      "पि": 1290,
      "मै": 1291,
      "मुख": 1292,
      "विद": 1293,
      "भाव": 1294,
      "िय": 1295,
      "म्रो": 1296,
      "ेरै": 1297,
      "ण्ड": 1298,
      "लन": 1299,
      "न्द्र": 1300,
      "नीति": 1301,
      "दछ": 1302,
      "पर": 1303,
      "गरी": 1304,
      "ल्या": 1305,
      "दन": 1306,
      "धेरै": 1307,
      "पी": 1308,
      "पर्ने": 1309,
      "रहेका": 1310,
      "पो": 1311,
      "त्व": 1312,
      "हुन": 1313,
      "दिन": 1314,
      "याँ": 1315,
      "लु": 1316,
      "टर": 1317,
      "ल्ला": 1318,
      "स्तो": 1319,
      "दैन": 1320,
      "न्ड": 1321,
      "राख": 1322,
      "इन": 1323,
      "सले": 1324,
      "हरूलाई": 1325,
      "प्त": 1326,
      "भाग": 1327,
      "होस्": 1328,
      "सन": 1329,
      "दो": 1330,
      "योजना": 1331,
      "कुनै": 1332,
      "लमा": 1333,
      "स्थि": 1334,
      "उनले": 1335,
      "एर": 1336,
      "ग्": 1337,
      "ज्ञ": 1338,
      "पत्र": 1339,
      "माण": 1340,
      "महि": 1341,
      "भार": 1342,
      "गरेका": 1343,
      "छा": 1344,
      "र्थ": 1345,
      "यी": 1346,
      "कम": 1347,
      "ीय": 1348,
      "नेपाली": 1349,
      "दुई": 1350,
      "बढी": 1351,
      "छु": 1352,
      "न्त": 1353,
      "स्थाप": 1354,
      "सञ्": 1355,
      "व्या": 1356,
      "श्य": 1357,
      "लेख": 1358,
      "मू": 1359,
      "खो": 1360,
      "सम्बन्ध": 1361,
      "दर्": 1362,
      "भएका": 1363,
      "द्वार": 1364,
      "निय": 1365,
      "पहि": 1366,
      "विका": 1367,
      "हुँ": 1368,
      "२०": 1369,
      "रमा": 1370,
      "समय": 1371,
      "मानि": 1372,
      "कालागि": 1373,
      "कमा": 1374,
      "पूर्व": 1375,
      "प्रयोग": 1376,
      "भू": 1377,
      "ठू": 1378,
      "कै": 1379,
      "द्वारा": 1380,
      "सद": 1381,
      "डे": 1382,
      "अहिले": 1383,
      "घि": 1384,
      "क्रि": 1385,
      "गर्दै": 1386,
      "उनु": 1387,
      "वादी": 1388,
      "पाई": 1389,
      "जार": 1390,
      "राष्ट्रिय": 1391,
      "न्य": 1392,
      "स्ट": 1393,
      "अन्य": 1394,
      "फि": 1395,
      "सको": 1396,
      "ल्य": 1397,
      "मेरि": 1398,
      "विद्या": 1399,
      "शु": 1400,
      "व्यक्ति": 1401,
      "त्यो": 1402,
      "तपाई": 1403,
      "छो": 1404,
      "अमेरि": 1405,
      "लको": 1406,
      "मह": 1407,
      "एउ": 1408,
      "विश्व": 1409,
      "कारण": 1410,
      "पर्छ": 1411,
      "मार्": 1412,
      "हुन्": 1413,
      "ङ्ग": 1414,
      "भे": 1415,
      "ेत": 1416,
      "मन्त्री": 1417,
      "पूर्ण": 1418,
      "वै": 1419,
      "स्थ": 1420,
      "फे": 1421,
      "खु": 1422,
      "ंग": 1423,
      "इन्": 1424,
      "संघ": 1425,
      "सू": 1426,
      "आव": 1427,
      "फो": 1428,
      "वन": 1429,
      "्ने": 1430,
      "ताको": 1431,
      "नयाँ": 1432,
      "अघि": 1433,
      "स्वा": 1434,
      "अध्य": 1435,
      "क्षण": 1436,
      "श्यक": 1437,
      "सेवा": 1438,
      "सर्": 1439,
      "उहाँ": 1440,
      "जिल्ला": 1441,
      "नले": 1442,
      "बारे": 1443,
      "भन्नुभयो": 1444,
      "फल": 1445,
      "कम्प": 1446,
      "पार": 1447,
      "साथ": 1448,
      "अभि": 1449,
      "वी": 1450,
      "कस": 1451,
      "विकास": 1452,
      "स्रो": 1453,
      "मेर": 1454,
      "अनुसार": 1455,
      "कार्या": 1456,
      "ची": 1457,
      "तन्त्र": 1458,
      "शी": 1459,
      "हुनु": 1460,
      "विष": 1461,
      "आवश्यक": 1462,
      "राज्य": 1463,
      "हरी": 1464,
      "स्तै": 1465,
      "टक": 1466,
      "केन्द्र": 1467,
      "चु": 1468,
      "शे": 1469,
      "ङ्क": 1470,
      "सकि": 1471,
      "मक": 1472,
      "नीय": 1473,
      "एउटा": 1474,
      "अन्तर्": 1475,
      "यर": 1476,
      "मध्य": 1477,
      "निर्माण": 1478,
      "राजनीति": 1479,
      "म्ब": 1480,
      "क्या": 1481,
      "ट्ट": 1482,
      "घर": 1483,
      ",\"": 1484,
      "चित": 1485,
      "पुन": 1486,
      "श्री": 1487,
      "नेछ": 1488,
      "गरा": 1489,
      "्यु": 1490,
      "कार्यक्रम": 1491,
      "सुर": 1492,
      "प्राप्त": 1493,
      "बताए": 1494,
      "तु": 1495,
      "सक": 1496,
      "ते": 1497,
      "सामा": 1498,
      "हरूमा": 1499,
      "पक्ष": 1500,
      "गर्दछ": 1501,
      "ज्ञा": 1502,
      "ठूलो": 1503,
      "तो": 1504,
      "स्य": 1505,
      "चना": 1506,
      "भु": 1507,
      "करण": 1508,
      "वास": 1509,
      "बीच": 1510,
      "समेत": 1511,
      "पहिलो": 1512,
      "चाह": 1513,
      "लर": 1514,
      "सुरु": 1515,
      "भो": 1516,
      "समि": 1517,
      "एन": 1518,
      "धिक": 1519,
      "स्प": 1520,
      "१९": 1521,
      "किन": 1522,
      "महा": 1523,
      "युक्त": 1524,
      "ंक": 1525,
      "प्रहरी": 1526,
      "पुग": 1527,
      "यत": 1528,
      "मन": 1529,
      "घट": 1530,
      "निका": 1531,
      "समिति": 1532,
      "वार्": 1533,
      "भारत": 1534,
      "दान": 1535,
      "गर्दा": 1536,
      "कर्ता": 1537,
      "२००": 1538,
      "क्रिया": 1539,
      "तीय": 1540,
      "पार्टी": 1541,
      "भित्र": 1542,
      "छौं": 1543,
      "न्ट": 1544,
      "च्च": 1545,
      "प्रमुख": 1546,
      "न्या": 1547,
      "काठ": 1548,
      "धन": 1549,
      "ारा": 1550,
      "वाद": 1551,
      "मैले": 1552,
      "आर्": 1553,
      "सके": 1554,
      "संस्था": 1555,
      "मानिस": 1556,
      "बन्द": 1557,
      "अनि": 1558,
      "सञ्चा": 1559,
      "लिका": 1560,
      "स्या": 1561,
      "ँच": 1562,
      "लले": 1563,
      "त्ति": 1564,
      "तीन": 1565,
      "माथि": 1566,
      "ुर्": 1567,
      "फर्": 1568,
      "इएको": 1569,
      "ख्या": 1570,
      "देखा": 1571,
      "लग": 1572,
      "नाम": 1573,
      "हाम्रो": 1574,
      "ट्र": 1575,
      "ैले": 1576,
      "वृ": 1577,
      "मलाई": 1578,
      "पुर": 1579,
      "राम्रो": 1580,
      "शन": 1581,
      "जान": 1582,
      "कम्पनी": 1583,
      "सहयोग": 1584,
      "तिनी": 1585,
      "शेष": 1586,
      "राम": 1587,
      "नेता": 1588,
      "पति": 1589,
      "वर्त": 1590,
      "उत्पा": 1591,
      "घा": 1592,
      "मेरो": 1593,
      "काठमा": 1594,
      "जिक": 1595,
      "महिला": 1596,
      "माओ": 1597,
      "स्तु": 1598,
      "भिन्न": 1599,
      "शत": 1600,
      "उनको": 1601,
      "तामा": 1602,
      "स्थानीय": 1603,
      "विक": 1604,
      "....": 1605,
      "तपाईँ": 1606,
      "कृति": 1607,
      "यसको": 1608,
      "अवस्था": 1609,
      "अधिकारी": 1610,
      "ष्ठ": 1611,
      "गि": 1612,
      "भइ": 1613,
      "अर्को": 1614,
      "विशेष": 1615,
      "ेक": 1616,
      "हुनेछ": 1617,
      "लत": 1618,
      "ुर्ुर्": 1619,
      "माओवादी": 1620,
      "आधार": 1621,
      "उहाँले": 1622,
      "प्रतिशत": 1623,
      "सदस्य": 1624,
      "विद्यालय": 1625,
      "हित": 1626,
      "क्ता": 1627,
      "सक्ने": 1628,
      "होइन": 1629,
      "गरेर": 1630,
      "हरुको": 1631,
      "काठमाड": 1632,
      "मति": 1633,
      "कार्यालय": 1634,
      "पटक": 1635,
      "सरकारले": 1636,
      "बेला": 1637,
      "बजार": 1638,
      "सार्": 1639,
      "हार": 1640,
      "दिने": 1641,
      "अध्यक्ष": 1642,
      "गर्यो": 1643,
      "व्यवसा": 1644,
      "विषय": 1645,
      "भी": 1646,
      "लै": 1647,
      "ड्": 1648,
      "म्या": 1649,
      "अधिकार": 1650,
      "कले": 1651,
      "नामा": 1652,
      "गर्नुहोस्": 1653,
      "कर": 1654,
      "त्या": 1655,
      "स्थिति": 1656,
      "त्मक": 1657,
      "प्रधान": 1658,
      "शक्ति": 1659,
      "पै": 1660,
      "राजनीतिक": 1661,
      "बल": 1662,
      "कको": 1663,
      "भर": 1664,
      "ढा": 1665,
      "प्रत्य": 1666,
      "भ्र": 1667,
      "दाय": 1668,
      "स्वी": 1669,
      "्रि": 1670,
      "सक्छ": 1671,
      "गी": 1672,
      "टन": 1673,
      "द्धि": 1674,
      "तय": 1675,
      "शो": 1676,
      "जिम": 1677,
      "ूह": 1678,
      "मौ": 1679,
      "भव": 1680,
      "वर": 1681,
      "ग्रे": 1682,
      "समस्या": 1683,
      "वेदन": 1684,
      "रोध": 1685,
      "वेश": 1686,
      "न्ति": 1687,
      "उल्": 1688,
      "धे": 1689,
      "यसले": 1690,
      "आइ": 1691,
      "तिमी": 1692,
      "घो": 1693,
      "ग्रा": 1694,
      "सुरक्षा": 1695,
      "कर्म": 1696,
      "भाष": 1697,
      "उद": 1698,
      "डलर": 1699,
      "मत": 1700,
      "झा": 1701,
      "र्ड": 1702,
      "अप": 1703,
      "र्या": 1704,
      "समूह": 1705,
      "मोजिम": 1706,
      "अझ": 1707,
      "नका": 1708,
      "विभिन्न": 1709,
      "बमोजिम": 1710,
      "क्षेत्रमा": 1711,
      "दृ": 1712,
      "हरुले": 1713,
      "मध्ये": 1714,
      "बाहि": 1715,
      "१०": 1716,
      "स्थित": 1717,
      "एस": 1718,
      "जब": 1719,
      "बाँ": 1720,
      "कां": 1721,
      "चारी": 1722,
      "आएको": 1723,
      "निर्ण": 1724,
      "मिक": 1725,
      "अर्थ": 1726,
      "थिक": 1727,
      "सकेको": 1728,
      "नौ": 1729,
      "सफल": 1730,
      "सम्झ": 1731,
      "उपल": 1732,
      "हामीले": 1733,
      "व्यवस्था": 1734,
      "प्ता": 1735,
      "आर्थिक": 1736,
      "कानु": 1737,
      "निर्णय": 1738,
      "प्रे": 1739,
      "पानी": 1740,
      "डो": 1741,
      "लगानी": 1742,
      "जुन": 1743,
      "अमेरिकी": 1744,
      "परी": 1745,
      "दू": 1746,
      "लगायत": 1747,
      "दर": 1748,
      "खेल": 1749,
      "ध्या": 1750,
      "तृ": 1751,
      "विदेश": 1752,
      "संवि": 1753,
      "काठमाडौं": 1754,
      "कर्मचारी": 1755,
      "भूमि": 1756,
      "सम्प": 1757,
      "संर": 1758,
      "आफू": 1759,
      "गठ": 1760,
      "आज": 1761,
      "उपलब्": 1762,
      "प्रया": 1763,
      "जसले": 1764,
      "आई": 1765,
      "पाइ": 1766,
      "कट": 1767,
      "ल्लो": 1768,
      "साइ": 1769,
      "फाइ": 1770,
      "रुपमा": 1771,
      "रुद्ध": 1772,
      "वरण": 1773,
      "हेर्": 1774,
      "णी": 1775,
      "त्त": 1776,
      "जस्तै": 1777,
      "लियन": 1778,
      "मृ": 1779,
      "साम": 1780,
      "ष्टि": 1781,
      "माग": 1782,
      "उच्च": 1783,
      "मूल्य": 1784,
      "ैं": 1785,
      "प्रश": 1786,
      "बर्": 1787,
      "प्रस्ता": 1788,
      "परिवार": 1789,
      "चे": 1790,
      "कला": 1791,
      "भावना": 1792,
      "बस्": 1793,
      "महिना": 1794,
      "जारी": 1795,
      "सभा": 1796,
      "जनता": 1797,
      "प्रधानमन्त्री": 1798,
      "मुख्य": 1799,
      "स्थ्य": 1800,
      "र्य": 1801,
      "स्थापना": 1802,
      "इरा": 1803,
      "सञ्चालन": 1804,
      "पहिले": 1805,
      "नियम": 1806,
      "अब": 1807,
      "प्रका": 1808,
      "दिए": 1809,
      "र्थी": 1810,
      "घोष": 1811,
      "लित": 1812,
      "उत्पादन": 1813,
      "्री": 1814,
      "लाग्": 1815,
      "अमेरिका": 1816,
      "एम": 1817,
      "गाउँ": 1818,
      "निर्देश": 1819,
      "यस्तो": 1820,
      "परिवर्त": 1821,
      "यम": 1822,
      "चल": 1823,
      "ौँ": 1824,
      "प्रभाव": 1825,
      "वित": 1826,
      "विधि": 1827,
      "संयुक्त": 1828,
      "न्तर": 1829,
      "टमा": 1830,
      "नेपालको": 1831,
      "सर्व": 1832,
      "जस्तो": 1833,
      "लक्ष": 1834,
      "स्वास्थ्य": 1835,
      "विरुद्ध": 1836,
      "बर": 1837,
      "थिएन": 1838,
      "उनीहरूले": 1839,
      "अगा": 1840,
      "नगर": 1841,
      "बाहिर": 1842,
      "्रे": 1843,
      "हरूका": 1844,
      "सबैभन्दा": 1845,
      "यात्र": 1846,
      "घटना": 1847,
      "सिक": 1848,
      "सड": 1849,
      "सका": 1850,
      "सङ्": 1851,
      "प्रजा": 1852,
      "लोक": 1853,
      "उपलब्ध": 1854,
      "राजा": 1855,
      "जस्ता": 1856,
      "दल": 1857,
      "माले": 1858,
      "धु": 1859,
      "१५": 1860,
      "सार्व": 1861,
      "मण": 1862,
      "क्षि": 1863,
      "र्च": 1864,
      "चित्र": 1865,
      "प्रस्ताव": 1866,
      "यात": 1867,
      "जानकारी": 1868,
      "मुलु": 1869,
      "जीवन": 1870,
      "दिएको": 1871,
      "बाल": 1872,
      "क्षम": 1873,
      "पश्": 1874,
      "्योग": 1875,
      "द्दा": 1876,
      "थो": 1877,
      "बहा": 1878,
      "उँछ": 1879,
      "बैंक": 1880,
      "भनि": 1881,
      "विश्वास": 1882,
      "न्दो": 1883,
      "धी": 1884,
      "लिन": 1885,
      "सै": 1886,
      "थे": 1887,
      "बढा": 1888,
      "नेपालमा": 1889,
      "पाँच": 1890,
      "दिनु": 1891,
      "यसलाई": 1892,
      "तिर": 1893,
      "नागर": 1894,
      "लिक": 1895,
      "चौ": 1896,
      "सरकारी": 1897,
      "नागरिक": 1898,
      "घोषणा": 1899,
      "फु": 1900,
      "लाइ": 1901,
      "त्यसैले": 1902,
      "संविधान": 1903,
      "समाज": 1904,
      "ग्रह": 1905,
      "अगाडि": 1906,
      "मुद्दा": 1907,
      "हरूसँग": 1908,
      "यहाँ": 1909,
      "रोप": 1910,
      "न्स": 1911,
      "तर्फ": 1912,
      "प्रयास": 1913,
      "आन्दो": 1914,
      "त्ता": 1915,
      "दुर": 1916,
      "प्रत्येक": 1917,
      "मन्त्रा": 1918,
      "अनुसन्": 1919,
      "नेतृ": 1920,
      "गति": 1921,
      "थ्यो": 1922,
      "उत्तर": 1923,
      "पक": 1924,
      "षण": 1925,
      "जित": 1926,
      "जनिक": 1927,
      "ठाउँ": 1928,
      "स्तार": 1929,
      "शहर": 1930,
      "आफ्": 1931,
      "रहे": 1932,
      "मन्त्रालय": 1933,
      "क्स": 1934,
      "नेतृत्व": 1935,
      "सार्वजनिक": 1936,
      "कल": 1937,
      "निर्वा": 1938,
      "दार": 1939,
      "न्छन्": 1940,
      "मको": 1941,
      "दश": 1942,
      "वास्त": 1943,
      "समु": 1944,
      "फिल्": 1945,
      "खि": 1946,
      "तमा": 1947,
      "टोली": 1948,
      "भन्छन्": 1949,
      "नाव": 1950,
      "टु": 1951,
      "बैठ": 1952,
      "शिक्षा": 1953,
      "यदि": 1954,
      "निकाय": 1955,
      "अदा": 1956,
      "हजार": 1957,
      "सचि": 1958,
      "प्रतिवेदन": 1959,
      "म्मे": 1960,
      "परिवर्तन": 1961,
      "त्यसपछि": 1962,
      "ल्प": 1963,
      "चो": 1964,
      "ट्": 1965,
      "वारी": 1966,
      "अदालत": 1967,
      "म्बर": 1968,
      "बिक": 1969,
      "गरिरहेका": 1970,
      "थाले": 1971,
      "पुनर्": 1972,
      "क्रा": 1973,
      "द्य": 1974,
      "भारतीय": 1975,
      "तह": 1976,
      "ल्ने": 1977,
      "सामान्य": 1978,
      "निश्": 1979,
      "त्यहाँ": 1980,
      "कति": 1981,
      "णाली": 1982,
      "ट्टा": 1983,
      "आयोजना": 1984,
      "करि": 1985,
      "दुवै": 1986,
      "भाषा": 1987,
      "कसरी": 1988,
      "भनेर": 1989,
      "पश्चि": 1990,
      "थप": 1991,
      "शासन": 1992,
      "जग": 1993,
      "अन्तर्राष्ट्रिय": 1994,
      "ब्या": 1995,
      "खर्च": 1996,
      "यक": 1997,
      "ल्न": 1998,
      "उल्लेख": 1999,
      "बुझ": 2000,
      "उनलाई": 2001,
      "विभाग": 2002,
      "न्व": 2003,
      "क्रमण": 2004,
      "द्र": 2005,
      "०००": 2006,
      "अलि": 2007,
      "उँछन्": 2008,
      "पर्य": 2009,
      "हरुलाई": 2010,
      "अनुसन्धान": 2011,
      "बाटो": 2012,
      "दक्षि": 2013,
      "देखिन्छ": 2014,
      "विद्यार्थी": 2015,
      "निधि": 2016,
      "भर्": 2017,
      "वस्तु": 2018,
      "धारण": 2019,
      "राष्ट्रपति": 2020,
      "स्थापन": 2021,
      "गण": 2022,
      "पद": 2023,
      "राई": 2024,
      "प्रकाश": 2025,
      "युद्ध": 2026,
      "संख्या": 2027,
      "१२": 2028,
      "लका": 2029,
      "थाहा": 2030,
      "।\"": 2031,
      "सकिन्छ": 2032,
      "ममा": 2033,
      "स्पष्ट": 2034,
      "सम्बन्धी": 2035,
      "तार": 2036,
      "तिहा": 2037,
      "अझै": 2038,
      "डर": 2039,
      "दोस्रो": 2040,
      "दुर्": 2041,
      "उपा": 2042,
      "उद्योग": 2043,
      "सम्बन्धित": 2044,
      "मानव": 2045,
      "कू": 2046,
      "कानुन": 2047,
      "विरोध": 2048,
      "बहादुर": 2049,
      "प्रमाण": 2050,
      "लामो": 2051,
      "नाले": 2052,
      "उँदै": 2053,
      "बने": 2054,
      "बस": 2055,
      "पालिका": 2056,
      "निम्": 2057,
      "प्रतिनिधि": 2058,
      "अन्तर्गत": 2059,
      "पठा": 2060,
      "वाह": 2061,
      "आफ्ना": 2062,
      "आँ": 2063,
      "सचिव": 2064,
      "ृत": 2065,
      "हुँदा": 2066,
      "जंग": 2067,
      "उनका": 2068,
      "अन्त्य": 2069,
      "सँगै": 2070,
      "हाल": 2071,
      "्नु": 2072,
      "युवा": 2073,
      "पुरा": 2074,
      "द्व": 2075,
      "आर": 2076,
      "लियो": 2077,
      "सिं": 2078,
      "रिक": 2079,
      "सूचना": 2080,
      "बजे": 2081,
      "मार": 2082,
      "श्रे": 2083,
      "भ्रमण": 2084,
      "वटा": 2085,
      "तिम": 2086,
      "काली": 2087,
      "११": 2088,
      "विचार": 2089,
      "भइरहेको": 2090,
      "क्रममा": 2091,
      "दर्शन": 2092,
      "आयोग": 2093,
      "गरिरहेको": 2094,
      "मेल": 2095,
      "फ्": 2096,
      "नियन्त्र": 2097,
      "विधा": 2098,
      "प्रणाली": 2099,
      "पूरा": 2100,
      "सामाजिक": 2101,
      "साथै": 2102,
      "पर्दछ": 2103,
      "न्यु": 2104,
      "गर्नेछ": 2105,
      "ग्री": 2106,
      "वर्ग": 2107,
      "बारेमा": 2108,
      "प्रक्रिया": 2109,
      "ठो": 2110,
      "मधे": 2111,
      "प्रो": 2112,
      "बताउ": 2113,
      "सुधार": 2114,
      "औं": 2115,
      "हेर": 2116,
      "एपछि": 2117,
      "करिब": 2118,
      "भरि": 2119,
      "परिष": 2120,
      "सीमा": 2121,
      "ब्रा": 2122,
      "बिक्री": 2123,
      "संस्": 2124,
      "वृद्धि": 2125,
      "फर": 2126,
      "स्वीकार": 2127,
      "सडक": 2128,
      "आएका": 2129,
      "ताल": 2130,
      "रकम": 2131,
      "ण्ट": 2132,
      "नुहुन्छ": 2133,
      "क्षित": 2134,
      "१८": 2135,
      "प्या": 2136,
      "सय": 2137,
      "स्रोत": 2138,
      "च्या": 2139,
      "ुर्ुर्ुर्ुर्": 2140,
      "अध्ययन": 2141,
      "जन्": 2142,
      "लामा": 2143,
      "सहभाग": 2144,
      "श्वर": 2145,
      "स्थान": 2146,
      "शान्ति": 2147,
      "बद्ध": 2148,
      "उठा": 2149,
      "र्ष": 2150,
      "डियो": 2151,
      "व्यवसायी": 2152,
      "बनाउन": 2153,
      "अस्प": 2154,
      "चन": 2155,
      "मले": 2156,
      "हिं": 2157,
      "रको": 2158,
      "लक": 2159,
      "सिर्": 2160,
      "कृत": 2161,
      "नेट": 2162,
      "१६": 2163,
      "एल": 2164,
      "लक्ष्य": 2165,
      "अनुमति": 2166,
      "३०": 2167,
      "तपाईं": 2168,
      "पर्नेछ": 2169,
      "दक्षिण": 2170,
      "तल": 2171,
      "व्यवसाय": 2172,
      "आयो": 2173,
      "जाने": 2174,
      "परेको": 2175,
      "आफ्नै": 2176,
      "तयार": 2177,
      "कांग्रे": 2178,
      "ून": 2179,
      "यात्रा": 2180,
      "पुग्": 2181,
      "गर्नुभयो": 2182,
      "यसै": 2183,
      "अवस्थामा": 2184,
      "शर्": 2185,
      "द्द": 2186,
      "ठी": 2187,
      "ँदा": 2188,
      "भएपछि": 2189,
      "चला": 2190,
      "भएर": 2191,
      "अन्तिम": 2192,
      "क्षक": 2193,
      "िएको": 2194,
      "ल्यान्ड": 2195,
      "वं": 2196,
      "प्रश्न": 2197,
      "विदेशी": 2198,
      "निश्चित": 2199,
      "सहमति": 2200,
      "बहु": 2201,
      "लाख": 2202,
      "विस्तार": 2203,
      "स्वतन्त्र": 2204,
      "नाइ": 2205,
      "त्यु": 2206,
      "सक्छन्": 2207,
      "कथा": 2208,
      "निकै": 2209,
      "ज्या": 2210,
      "तिनीहरू": 2211,
      "औष": 2212,
      "माइ": 2213,
      "अफ": 2214,
      "छोरा": 2215,
      "मर्": 2216,
      "षि": 2217,
      "जर्": 2218,
      "मार्ग": 2219,
      "सिर्जना": 2220,
      "मृत्यु": 2221,
      "शै": 2222,
      "नियन्त्रण": 2223,
      "रिया": 2224,
      "खेला": 2225,
      "बढ्": 2226,
      "समयमा": 2227,
      "उद्": 2228,
      "काल": 2229,
      "हप्ता": 2230,
      "संघीय": 2231,
      "स्त्र": 2232,
      "आन्दोलन": 2233,
      "संरक्षण": 2234,
      "समाचार": 2235,
      "स्टे": 2236,
      "पुस्त": 2237,
      "कुल": 2238,
      "प्रकार": 2239,
      "गे": 2240,
      "ऋण": 2241,
      "पढ": 2242,
      "नुहोस्": 2243,
      "रुप": 2244,
      "५०": 2245,
      "लिएको": 2246,
      "छल": 2247,
      "साँ": 2248,
      "किनभने": 2249,
      "गीत": 2250,
      "विद्यु": 2251,
      "फेरि": 2252,
      "अपे": 2253,
      "कोष": 2254,
      "भन्दै": 2255,
      "व्यापार": 2256,
      "जल": 2257,
      "बनाउने": 2258,
      "बताउनुभयो": 2259,
      "घु": 2260,
      "जंगली": 2261,
      "रोड": 2262,
      "दछन्": 2263,
      "एफ": 2264,
      "खेलाडी": 2265,
      "रूप": 2266,
      "त्यस्तो": 2267,
      "एमाले": 2268,
      "लाइन": 2269,
      "छैनन्": 2270,
      "सैनिक": 2271,
      "नगरपालिका": 2272,
      "मिलियन": 2273,
      "आदेश": 2274,
      "हेक": 2275,
      "उपचार": 2276,
      "तत्": 2277,
      "दफा": 2278,
      "ऐन": 2279,
      "अति": 2280,
      "सूची": 2281,
      "नजिक": 2282,
      "सम्पा": 2283,
      "अवसर": 2284,
      "िका": 2285,
      "सहित": 2286,
      "दर्श": 2287,
      "बालिका": 2288,
      "उक्त": 2289,
      "जहाँ": 2290,
      "आदि": 2291,
      "सुविधा": 2292,
      "सिया": 2293,
      "कार्यान्व": 2294,
      "गठन": 2295,
      "यति": 2296,
      "सम्झौ": 2297,
      "वरि": 2298,
      "सम्भावना": 2299,
      "रै": 2300,
      "छे": 2301,
      "व्यवस्थापन": 2302,
      "हुँदैन": 2303,
      "पोख": 2304,
      "उनीहरूको": 2305,
      "वाता": 2306,
      "रिद": 2307,
      "१४": 2308,
      "निजी": 2309,
      "सेना": 2310,
      "विज्ञा": 2311,
      "तिय": 2312,
      "हरा": 2313,
      "गएको": 2314,
      "प्ट": 2315,
      "म्भ": 2316,
      "बाहेक": 2317,
      "१७": 2318,
      "लग्न": 2319,
      "पूर्वक": 2320,
      "........": 2321,
      "निर": 2322,
      "सम्भव": 2323,
      "वार्ता": 2324,
      "कालीन": 2325,
      "खरिद": 2326,
      "पृ": 2327,
      "लिएर": 2328,
      "गै": 2329,
      "कान": 2330,
      "गरिएका": 2331,
      "कम्": 2332,
      "आउने": 2333,
      "पुर्या": 2334,
      "ठूला": 2335,
      "त्रि": 2336,
      "सात": 2337,
      "अन": 2338,
      "स्क": 2339,
      "स्पर्": 2340,
      "अवधि": 2341,
      "फत": 2342,
      "वातावरण": 2343,
      "पैसा": 2344,
      "परिषद्": 2345,
      "समावेश": 2346,
      "साह": 2347,
      "श्रेष्ठ": 2348,
      "जस": 2349,
      "वक्ता": 2350,
      "पाउने": 2351,
      "हुँदै": 2352,
      "ट्या": 2353,
      "टाइ": 2354,
      "अधिक": 2355,
      "देशको": 2356,
      "आक्रमण": 2357,
      "अभिया": 2358,
      "संलग्न": 2359,
      "ल्क": 2360,
      "टको": 2361,
      "तपाईँले": 2362,
      "ब्रि": 2363,
      "अं": 2364,
      "अपेक्षा": 2365,
      "वासी": 2366,
      "भावित": 2367,
      "चीन": 2368,
      "साय": 2369,
      "गरिन्छ": 2370,
      "धानी": 2371,
      "समुदाय": 2372,
      "र्चा": 2373,
      "तम": 2374,
      "पन": 2375,
      "पीड": 2376,
      "एकी": 2377,
      "छाडि": 2378,
      "दैनन्": 2379,
      "प्प": 2380,
      "राख्न": 2381,
      "टर्": 2382,
      "स्तर": 2383,
      "तथ": 2384,
      "चिनि": 2385,
      "समर्थ": 2386,
      "चलचित्र": 2387,
      "रोग": 2388,
      "बालबालिका": 2389,
      "फेला": 2390,
      "प्रविधि": 2391,
      "प्रभु": 2392,
      "पाठ": 2393,
      "विगत": 2394,
      "दर्ता": 2395,
      "दाता": 2396,
      "मनो": 2397,
      "भएकाले": 2398,
      "वान": 2399,
      "शील": 2400,
      "शब्": 2401,
      "घण्ट": 2402,
      "प्रदान": 2403,
      "लागेको": 2404,
      "तिक": 2405,
      "न्त्रिक": 2406,
      "डान": 2407,
      "दियो": 2408,
      "प्रसा": 2409,
      "चाहि": 2410,
      "गर्नुपर्छ": 2411,
      "हक": 2412,
      "यौं": 2413,
      "चुनाव": 2414,
      "चरण": 2415,
      "चिन्": 2416,
      "केन्द्रीय": 2417,
      "न्याय": 2418,
      "ष्ण": 2419,
      "आत्": 2420,
      "छलफल": 2421,
      "फुट": 2422,
      "औषधि": 2423,
      "कारो": 2424,
      "त्यही": 2425,
      "भ्या": 2426,
      "न्दा": 2427,
      "हरुमा": 2428,
      "सिंह": 2429,
      "आशा": 2430,
      "विषयमा": 2431,
      "साथी": 2432,
      "सान": 2433,
      "वर्षको": 2434,
      "दिइ": 2435,
      "१३": 2436,
      "ग्या": 2437,
      "हात": 2438,
      "लिने": 2439,
      "छिन्": 2440,
      "संशो": 2441,
      "शब्द": 2442,
      "नन्": 2443,
      "भूमिका": 2444,
      "बाब": 2445,
      "आधारमा": 2446,
      "नभएको": 2447,
      "तान्त्रिक": 2448,
      "भेट": 2449,
      "व्यापक": 2450,
      "देशमा": 2451,
      "सर्वो": 2452,
      "सकेका": 2453,
      "न्तरण": 2454,
      "तरि": 2455,
      "ैँ": 2456,
      "सरकारको": 2457,
      "लब": 2458,
      "परीक्षण": 2459,
      "पूर्ति": 2460,
      "प्रसाद": 2461,
      "आरोप": 2462,
      "जिम्मे": 2463,
      "कार्यकर्ता": 2464,
      "तेस्रो": 2465,
      "खण्ड": 2466,
      "अभाव": 2467,
      "िकि": 2468,
      "बाँकी": 2469,
      "प्रहरीले": 2470,
      "पोर्": 2471,
      "त्वपूर्ण": 2472,
      "ब्र": 2473,
      "धर्": 2474,
      "्यार": 2475,
      "पदा": 2476,
      "मात्रै": 2477,
      "थापा": 2478,
      "सेट": 2479,
      "विश्वविद्यालय": 2480,
      "आमा": 2481,
      "वृत्ति": 2482,
      "प्रि": 2483,
      "पुरु": 2484,
      "परिणा": 2485,
      "सां": 2486,
      "बोर्ड": 2487,
      "सहा": 2488,
      "समाधान": 2489,
      "न्दु": 2490,
      "सम्पत्ति": 2491,
      "टेलि": 2492,
      "पीडित": 2493,
      "पछाडि": 2494,
      "बतायो": 2495,
      "क्न": 2496,
      "जय": 2497,
      "पुरुष": 2498,
      "गामी": 2499,
      "गरिने": 2500,
      "हालै": 2501,
      "डिया": 2502,
      "ल्यै": 2503,
      "मद्द": 2504,
      "भई": 2505,
      "तै": 2506,
      "२५": 2507,
      "प्राय": 2508,
      "निया": 2509,
      "देव": 2510,
      "मद्दत": 2511,
      "जग्": 2512,
      "टल": 2513,
      "दिएका": 2514,
      "मौसम": 2515,
      "प्रजातन्त्र": 2516,
      "ढी": 2517,
      "भण्ड": 2518,
      "योजन": 2519,
      "गर्छ": 2520,
      "डब्": 2521,
      "ओली": 2522,
      "योग्य": 2523,
      "यौ": 2524,
      "जग्गा": 2525,
      "निष्": 2526,
      "लेको": 2527,
      "ठि": 2528,
      "कारोबार": 2529,
      "देश्य": 2530,
      "यस्ता": 2531,
      "ह्": 2532,
      "वल": 2533,
      "कुमार": 2534,
      "शुल्क": 2535,
      "प्रदर्शन": 2536,
      "लाग्छ": 2537,
      "सम्झौता": 2538,
      "सङ्ग": 2539,
      "सोम": 2540,
      "करोड": 2541,
      "अरू": 2542,
      "ँदै": 2543,
      "अनुभव": 2544,
      "गर्दछन्": 2545,
      "दाबी": 2546,
      "निर्देशक": 2547,
      "त्यसको": 2548,
      "वायु": 2549,
      "व्यवहार": 2550,
      "परियोजना": 2551,
      "परम": 2552,
      "२००७": 2553,
      "हरि": 2554,
      "गुण": 2555,
      "गरेपछि": 2556,
      "कार्यान्वयन": 2557,
      "समाप्त": 2558,
      "विष्य": 2559,
      "उद्देश्य": 2560,
      "नारा": 2561,
      "भविष्य": 2562,
      "सुरक्षित": 2563,
      "केट": 2564,
      "उँदा": 2565,
      "थु": 2566,
      "आवश्यकता": 2567,
      "जमा": 2568,
      "डमा": 2569,
      "ढु": 2570,
      "ृह": 2571,
      "विवरण": 2572,
      "छोरी": 2573,
      "फाइल": 2574,
      "गर्छन्": 2575,
      "परिणाम": 2576,
      "मानिसहरू": 2577,
      "उपभो": 2578,
      "तीमा": 2579,
      "पास": 2580,
      "पुरस्": 2581,
      "तः": 2582,
      "ष्टा": 2583,
      "कृषि": 2584,
      "कप": 2585,
      "पत्रकार": 2586,
      "चान": 2587,
      "स्थापित": 2588,
      "वास्तविक": 2589,
      "प्रस्तु": 2590,
      "आत": 2591,
      "एवं": 2592,
      "खाना": 2593,
      "वित्": 2594,
      "बाही": 2595,
      "झ्": 2596,
      "मुलुक": 2597,
      "ज्य": 2598,
      "तरण": 2599,
      "प्ले": 2600,
      "कृतिक": 2601,
      "दृष्टि": 2602,
      "तुल": 2603,
      "सल": 2604,
      "चिकि": 2605,
      "प्रच": 2606,
      "यद्य": 2607,
      "चिकित्": 2608,
      "तियार": 2609,
      "बच": 2610,
      "पुनः": 2611,
      "रुपै": 2612,
      "होला": 2613,
      "र्क": 2614,
      "जन्म": 2615,
      "हस्ता": 2616,
      "सहभागी": 2617,
      "गम्": 2618,
      "जिल्लामा": 2619,
      "निम्ति": 2620,
      "परमप्रभु": 2621,
      "सम्पन्न": 2622,
      "ताका": 2623,
      "प्रवेश": 2624,
      "वित्तीय": 2625,
      "मिटर": 2626,
      "कालो": 2627,
      "इतिहा": 2628,
      "गोली": 2629,
      "जीव": 2630,
      "रामी": 2631,
      "तयारी": 2632,
      "सञ्चार": 2633,
      "शुक्र": 2634,
      "नदी": 2635,
      "पार्न": 2636,
      "काग": 2637,
      "खुला": 2638,
      "अपरा": 2639,
      "पहा": 2640,
      "दिन्छ": 2641,
      "इरहेको": 2642,
      "हिल्यै": 2643,
      "असफल": 2644,
      "फोन": 2645,
      "जले": 2646,
      "कर्ष": 2647,
      "बजारमा": 2648,
      "ञ्च": 2649,
      "अन्तर": 2650,
      "घण्टा": 2651,
      "जोड": 2652,
      "हामीलाई": 2653,
      "यद्यपि": 2654,
      "भीर": 2655,
      "साहि": 2656,
      "क्टर": 2657,
      "पर्या": 2658,
      "टिक": 2659,
      "हाम": 2660,
      "खोज्": 2661,
      "प्राथ": 2662,
      "डु": 2663,
      "द्धा": 2664,
      "प्राथमिक": 2665,
      "भुक्ता": 2666,
      "सम्पूर्ण": 2667,
      "संग": 2668,
      "गुरु": 2669,
      "पुर्": 2670,
      "साधारण": 2671,
      "मेश्वर": 2672,
      "क्रो": 2673,
      "गरिनेछ": 2674,
      "गाडी": 2675,
      "मन्": 2676,
      "नाका": 2677,
      "राख्ने": 2678,
      "गर्नुपर्ने": 2679,
      "कारबाही": 2680,
      "न्याया": 2681,
      "वर्तमान": 2682,
      "काले": 2683,
      "कहिल्यै": 2684,
      "जर": 2685,
      "सानो": 2686,
      "कवि": 2687,
      "मार्फत": 2688,
      "तापनि": 2689,
      "साहित्य": 2690,
      "दौ": 2691,
      "गौ": 2692,
      "पौ": 2693,
      "जको": 2694,
      "मित": 2695,
      "बुध": 2696,
      "वमा": 2697,
      "ल्ड": 2698,
      "याद": 2699,
      "वितरण": 2700,
      "भुक्तानी": 2701,
      "एकै": 2702,
      "संरचना": 2703,
      "पुगेको": 2704,
      "बस्ने": 2705,
      "जनाएको": 2706,
      "किलो": 2707,
      "चेत": 2708,
      "संशोधन": 2709,
      "च्चा": 2710,
      "पाल": 2711,
      "क्लि": 2712,
      "टै": 2713,
      "आगामी": 2714,
      "हरण": 2715,
      "यसरी": 2716,
      "नेक": 2717,
      "पुस्तक": 2718,
      "जति": 2719,
      "अग्र": 2720,
      "इँ": 2721,
      "सक्षम": 2722,
      "लिया": 2723,
      "तको": 2724,
      "नुपर्छ": 2725,
      "पर्यो": 2726,
      "लागू": 2727,
      "हल": 2728,
      "मर": 2729,
      "गम्भीर": 2730,
      "मिति": 2731,
      "कुञ्": 2732,
      "...": 2733,
      "पश्चिम": 2734,
      "एच": 2735,
      "ँड": 2736,
      "कायम": 2737,
      "विवाद": 2738,
      "प्रशासन": 2739,
      "सेयर": 2740,
      "सजि": 2741,
      "मान्छ": 2742,
      "यही": 2743,
      "भाइ": 2744,
      "कार्यक्रममा": 2745,
      "फर्कि": 2746,
      "इरहेका": 2747,
      "शरी": 2748,
      "सौ": 2749,
      "प्रतिस्पर्": 2750,
      "कठि": 2751,
      "द्रा": 2752,
      "जनताको": 2753,
      "प्रार": 2754,
      "जनक": 2755,
      "परा": 2756,
      "बनेको": 2757,
      "ठे": 2758,
      "विमान": 2759,
      "फ्या": 2760,
      "सोमबार": 2761,
      "याता": 2762,
      "फरक": 2763,
      "स्थल": 2764,
      "शुक्रबार": 2765,
      "ww": 2766,
      "शाही": 2767,
      "कर्मी": 2768,
      "हान": 2769,
      "कहिले": 2770,
      "त्न": 2771,
      "सिङ": 2772,
      "आफूलाई": 2773,
      "१९९": 2774,
      "रोजग": 2775,
      "परमेश्वर": 2776,
      "फार": 2777,
      "यातायात": 2778,
      "माध्य": 2779,
      "क्षति": 2780,
      "भएमा": 2781,
      "पर्याप्त": 2782,
      "सलाई": 2783,
      "कसैले": 2784,
      "आइत": 2785,
      "चयन": 2786,
      "शुरु": 2787,
      "भनेको": 2788,
      "नाथ": 2789,
      "आठ": 2790,
      "लबार": 2791,
      "यि": 2792,
      "ेश": 2793,
      "राख्": 2794,
      "वाइ": 2795,
      "हटा": 2796,
      "बुधबार": 2797,
      "हत्या": 2798,
      "प्रारम्भ": 2799,
      "दोष": 2800,
      "किस्ता": 2801,
      "खाली": 2802,
      "अस्वीकार": 2803,
      "सामग्री": 2804,
      "उसले": 2805,
      "सध": 2806,
      "केटी": 2807,
      "उदा": 2808,
      "ँदैन": 2809,
      "फ्रा": 2810,
      "बन्न": 2811,
      "झे": 2812,
      "गृह": 2813,
      "अनुमान": 2814,
      "नेपालका": 2815,
      "शिक्षक": 2816,
      "अधिकृत": 2817,
      "परम्प": 2818,
      "मती": 2819,
      "संसद": 2820,
      "कसै": 2821,
      "ट्रो": 2822,
      "संकट": 2823,
      "घरमा": 2824,
      "योगि": 2825,
      "परम्परा": 2826,
      "र्ता": 2827,
      "मल": 2828,
      "पूर्वा": 2829,
      "यस्तै": 2830,
      "मासिक": 2831,
      "छोड": 2832,
      "ध्": 2833,
      "व्यापी": 2834,
      "प्पणी": 2835,
      "विवाह": 2836,
      "महत्": 2837,
      "तया": 2838,
      "टिप्पणी": 2839,
      "गमन": 2840,
      "त्यति": 2841,
      "सित": 2842,
      "ध्यान": 2843,
      "ठाउँमा": 2844,
      "यता": 2845,
      "काअनुसार": 2846,
      "कोठा": 2847,
      "महसु": 2848,
      "दारी": 2849,
      "गते": 2850,
      "स्ती": 2851,
      "नुपर्ने": 2852,
      "कुरामा": 2853,
      "मान्य": 2854,
      "म्मा": 2855,
      "चाहन्छ": 2856,
      "केर": 2857,
      "सम्पादन": 2858,
      "चै": 2859,
      "ध्यक्ष": 2860,
      "गराउने": 2861,
      "न्ने": 2862,
      "मिला": 2863,
      "सम्बन्धमा": 2864,
      "एजे": 2865,
      "मका": 2866,
      "राजधानी": 2867,
      "बाइ": 2868,
      "जाति": 2869,
      "उत्पाद": 2870,
      "लेर": 2871,
      "आइतबार": 2872,
      "भग": 2873,
      "भौ": 2874,
      "नलाई": 2875,
      "पोरे": 2876,
      "नेपालले": 2877,
      "सकिने": 2878,
      "अहिलेसम्म": 2879,
      "व्यक्त": 2880,
      "प्रजातान्त्रिक": 2881,
      "बाबु": 2882,
      "द्या": 2883,
      "फी": 2884,
      "कर्पोरे": 2885,
      "जक": 2886,
      "बिरामी": 2887,
      "आश्": 2888,
      "टले": 2889,
      "हीबार": 2890,
      "रहने": 2891,
      "यसमा": 2892,
      "चय": 2893,
      "आग्रह": 2894,
      "र्भ": 2895,
      "नियमित": 2896,
      "शनि": 2897,
      "उन्": 2898,
      "धित": 2899,
      "बैठक": 2900,
      "यादव": 2901,
      "खास": 2902,
      "प्रतिस्पर्धा": 2903,
      "किएको": 2904,
      "फै": 2905,
      "सल्ला": 2906,
      "क्लब": 2907,
      "एन्": 2908,
      "अक्": 2909,
      "ण्डा": 2910,
      "मेरा": 2911,
      "परेका": 2912,
      "मन्दि": 2913,
      "लाको": 2914,
      "निरन्तर": 2915,
      "रेकर्": 2916,
      "प्रतिक्रिया": 2917,
      "प्रस्तुत": 2918,
      "यसका": 2919,
      "स्को": 2920,
      "एक्": 2921,
      "प्टे": 2922,
      "सन्तु": 2923,
      "उमेर": 2924,
      "गराउन": 2925,
      "र्जा": 2926,
      "पछिल्लो": 2927,
      "अल": 2928,
      "सङ्ख्या": 2929,
      "वर्षीय": 2930,
      "तारा": 2931,
      "स्थानमा": 2932,
      "कार्यकारी": 2933,
      "जात": 2934,
      "पहिचान": 2935,
      "पुरानो": 2936,
      "धारणा": 2937,
      "गुमा": 2938,
      "बिहीबार": 2939,
      "थिएँ": 2940,
      "अत्य": 2941,
      "दानी": 2942,
      "जोखि": 2943,
      "नर": 2944,
      "रात्मक": 2945,
      "खोज": 2946,
      "लिम": 2947,
      "co": 2948,
      "अरु": 2949,
      "कन्": 2950,
      "निर्वाचन": 2951,
      "त्यस्तै": 2952,
      "ल्यू": 2953,
      "ङ्गा": 2954,
      "थप्": 2955,
      "दुः": 2956,
      "विश्ले": 2957,
      "संसार": 2958,
      "उनीहरू": 2959,
      "ट्रे": 2960,
      "चुनौ": 2961,
      "फ्ट": 2962,
      "केत": 2963,
      "पुरस्कार": 2964,
      "बाध्य": 2965,
      "४०": 2966,
      "कूल": 2967,
      "डब्ल्यू": 2968,
      "पाकिस्ता": 2969,
      "बिना": 2970,
      "द्वन्": 2971,
      "पत": 2972,
      "न्युयो": 2973,
      "प्रायः": 2974,
      "कहाँ": 2975,
      "फिल्म": 2976,
      "क्ने": 2977,
      "जाँच": 2978,
      "न्दर्भ": 2979,
      "गैर": 2980,
      "ंका": 2981,
      "इस": 2982,
      "आफैं": 2983,
      "बरा": 2984,
      "क्रिय": 2985,
      "चार्": 2986,
      "ढि": 2987,
      "६०": 2988,
      "सल्लाह": 2989,
      "खरा": 2990,
      "र्श": 2991,
      "लिङ": 2992,
      "व्याव": 2993,
      "उनीहरूलाई": 2994,
      "पत्ता": 2995,
      "आलो": 2996,
      "अपराध": 2997,
      "संक": 2998,
      "आँखा": 2999,
      "दुःख": 3000,
      "प्रतियोगि": 3001,
      "रहेछ": 3002,
      "र्स": 3003,
      "ल्ली": 3004,
      "),": 3005,
      "बन्दी": 3006,
      "्राइ": 3007,
      "ताले": 3008,
      "फ्रे": 3009,
      "बलियो": 3010,
      "मिडिया": 3011,
      "जसो": 3012,
      "सेप्टे": 3013,
      "माल": 3014,
      "दृश्य": 3015,
      "बोला": 3016,
      "कृष्ण": 3017,
      "आधारित": 3018,
      "सम्पर्": 3019,
      "पक्षमा": 3020,
      "शनिबार": 3021,
      "समान": 3022,
      "प्रवक्ता": 3023,
      "प्रकाशित": 3024,
      "सवारी": 3025,
      "साझे": 3026,
      "अस्पताल": 3027,
      "२४": 3028,
      "मान्छे": 3029,
      "हेर्न": 3030,
      "कमजो": 3031,
      "शैली": 3032,
      "क्षर": 3033,
      "क्षेत्रको": 3034,
      "तपाईँको": 3035,
      "छिटो": 3036,
      "सक्दैन": 3037,
      "बचत": 3038,
      "त्यसै": 3039,
      "स्थितिमा": 3040,
      "धिकरण": 3041,
      "धीश": 3042,
      "कम्तीमा": 3043,
      "ट्रा": 3044,
      "रात": 3045,
      "आधा": 3046,
      "गिर": 3047,
      "दबाब": 3048,
      "विकल्प": 3049,
      "प्रिय": 3050,
      "उपभोक्ता": 3051,
      "क्षमता": 3052,
      "परीक्षा": 3053,
      "पुग्यो": 3054,
      "पार्ने": 3055,
      "ठीक": 3056,
      "अस्पता": 3057,
      "com": 3058,
      "लगायतका": 3059,
      "फिर्ता": 3060,
      "देखिएको": 3061,
      "पक्षी": 3062,
      "क्सा": 3063,
      "मना": 3064,
      "भट्ट": 3065,
      "कम्पनीले": 3066,
      "हिंसा": 3067,
      "नल": 3068,
      "फू": 3069,
      "सीले": 3070,
      "वर्ण": 3071,
      "ेरी": 3072,
      "२१": 3073,
      "कोइरा": 3074,
      "चाइ": 3075,
      ")-": 3076,
      "सुझा": 3077,
      "किसि": 3078,
      "आन्त": 3079,
      "प्रत्यक्ष": 3080,
      "कद": 3081,
      "पत्रिका": 3082,
      "सम्मान": 3083,
      "बजेट": 3084,
      "लिग": 3085,
      "आन्तरिक": 3086,
      "कठिन": 3087,
      "परे": 3088,
      "ुर्ुर्ुर्ुर्ुर्ुर्ुर्ुर्": 3089,
      "स्ति": 3090,
      "श्वास": 3091,
      "चुनौती": 3092,
      "अधिकां": 3093,
      "समितिले": 3094,
      "नेर": 3095,
      "हुन्छन्": 3096,
      "अधिकारीहरूले": 3097,
      "वेद": 3098,
      "सकेन": 3099,
      "त्रु": 3100,
      "तर्क": 3101,
      "विधे": 3102,
      "केको": 3103,
      "अर्का": 3104,
      "अभियान": 3105,
      "लाग्ने": 3106,
      "असर": 3107,
      "लाल": 3108,
      "शास": 3109,
      "रेकर्ड": 3110,
      "पर्यटन": 3111,
      "यौन": 3112,
      "यण": 3113,
      "केन्द्रित": 3114,
      "श्रम": 3115,
      "स्थायी": 3116,
      "समितिको": 3117,
      "उभि": 3118,
      "गावि": 3119,
      "वर्षअघि": 3120,
      "उठ": 3121,
      "यन्त्र": 3122,
      "रिक्त": 3123,
      "फारि": 3124,
      "बिन्दु": 3125,
      "सिल": 3126,
      "चिनियाँ": 3127,
      "जिम्मेवारी": 3128,
      "उको": 3129,
      "गलत": 3130,
      "हरेक": 3131,
      "न्यायाधीश": 3132,
      "भन्न": 3133,
      "कल्प": 3134,
      "पशु": 3135,
      "पर्यटक": 3136,
      "युरो": 3137,
      "उम्मे": 3138,
      "सिफारि": 3139,
      "अधिकांश": 3140,
      "त्री": 3141,
      "इन्टर": 3142,
      "आलोचना": 3143,
      "वर्षमा": 3144,
      "देउ": 3145,
      "न्यून": 3146,
      "तालाई": 3147,
      "प्रेम": 3148,
      "सन्देश": 3149,
      "वाल": 3150,
      "स्टो": 3151,
      "विधिक": 3152,
      "उत्प": 3153,
      "पराम": 3154,
      "भवन": 3155,
      "क्क": 3156,
      "निर्देशन": 3157,
      "सब": 3158,
      "परामर्श": 3159,
      "हाम्रा": 3160,
      "बढेको": 3161,
      "वाई": 3162,
      "त्रै": 3163,
      "भारतको": 3164,
      "फाइदा": 3165,
      "नीको": 3166,
      "सामना": 3167,
      "अल्": 3168,
      "प्राधिकरण": 3169,
      "संस्कृति": 3170,
      "निर्धारण": 3171,
      "वास्तवमा": 3172,
      "भै": 3173,
      "प्रभावित": 3174,
      "उपाध्यक्ष": 3175,
      "केटा": 3176,
      "चर": 3177,
      "फुटबल": 3178,
      "सत्य": 3179,
      "सुन": 3180,
      "मूल्या": 3181,
      "संकलन": 3182,
      "अर्थतन्त्र": 3183,
      "साना": 3184,
      "आम्": 3185,
      "सम्बो": 3186,
      "मारि": 3187,
      "द्वन्द्व": 3188,
      "छ्या": 3189,
      "व्यक्तिले": 3190,
      "उसको": 3191,
      "भनाइ": 3192,
      "आपूर्ति": 3193,
      "अन्त": 3194,
      "ड्राइ": 3195,
      "स्थिर": 3196,
      "मण्ड": 3197,
      "पारी": 3198,
      "पोष्ट": 3199,
      "महसुस": 3200,
      "ँडा": 3201,
      "कडा": 3202,
      "फोटो": 3203,
      "र्न": 3204,
      "डिजा": 3205,
      "उपदफा": 3206,
      "उम्मेद": 3207,
      "कोण": 3208,
      "शिक्षण": 3209,
      "संस": 3210,
      "कामा": 3211,
      "ङ्कन": 3212,
      "प्राविधिक": 3213,
      "ख्": 3214,
      "यल": 3215,
      "खर": 3216,
      "गए": 3217,
      "दैनिक": 3218,
      "आम्दानी": 3219,
      "सक्रिय": 3220,
      "राखेको": 3221,
      "लम्ब": 3222,
      "हन": 3223,
      "सक्नेछ": 3224,
      "ल्याउन": 3225,
      "चैत": 3226,
      "डल": 3227,
      "छिमे": 3228,
      "एउटै": 3229,
      "ऊर्जा": 3230,
      "एन्ड": 3231,
      "सव": 3232,
      "पेश": 3233,
      "व्यक्तिगत": 3234,
      "विभा": 3235,
      "विश्वव्यापी": 3236,
      "घाइ": 3237,
      "सुझाव": 3238,
      "देशिक": 3239,
      "कोरिया": 3240,
      "चन्द्र": 3241,
      "बताएका": 3242,
      "बताउँछन्": 3243,
      "पृष्ठ": 3244,
      "ंदै": 3245,
      "खित": 3246,
      "सन्दर्भ": 3247,
      "२३": 3248,
      "नहुने": 3249,
      "आए": 3250,
      "हुनुहुन्छ": 3251,
      "हुन्थ्यो": 3252,
      "कांग्रेस": 3253,
      "पर्व": 3254,
      "समर्थन": 3255,
      "त्रैमासिक": 3256,
      "नगर्ने": 3257,
      "अर्था": 3258,
      "रङ": 3259,
      "उदाहरण": 3260,
      "भ्रष्टा": 3261,
      "नाको": 3262,
      "ग्राहक": 3263,
      "उनुहोस्": 3264,
      "पाए": 3265,
      "भएन": 3266,
      "नाममा": 3267,
      "उपत्य": 3268,
      "लिपि": 3269,
      "सम्बोधन": 3270,
      "राख्नु": 3271,
      "प्ति": 3272,
      "टेड": 3273,
      "वक्त": 3274,
      "सम्पर्क": 3275,
      "खोजि": 3276,
      "जसरी": 3277,
      "हिजो": 3278,
      "तिनीहरूले": 3279,
      "जोन": 3280,
      "टिङ": 3281,
      "कृष्ट": 3282,
      "दद": 3283,
      "पारि": 3284,
      "हीन": 3285,
      "सश": 3286,
      "ह्या": 3287,
      "प्रबन्ध": 3288,
      "कित": 3289,
      "गम": 3290,
      "सामु": 3291,
      "भनी": 3292,
      "सोही": 3293,
      "स्तरी": 3294,
      "वरिष्ठ": 3295,
      "घाइते": 3296,
      "खेलमा": 3297,
      "पान": 3298,
      "स्टा": 3299,
      "थिइन्": 3300,
      "पको": 3301,
      "तथ्या": 3302,
      "अवस्थित": 3303,
      "वक्तव्य": 3304,
      "मूर्": 3305,
      "हाइ": 3306,
      "अभिभाव": 3307,
      "कलाकार": 3308,
      "स्पे": 3309,
      "उपयोग": 3310,
      "भिजन": 3311,
      "भूकम्प": 3312,
      "राखि": 3313,
      "गरियो": 3314,
      "नन्द": 3315,
      "मेन्ट": 3316,
      "सहज": 3317,
      "तेल": 3318,
      "मान्यता": 3319,
      "थोरै": 3320,
      "पदार्थ": 3321,
      "।”": 3322,
      "सजा": 3323,
      "वेब": 3324,
      "सही": 3325,
      "टाढा": 3326,
      "लागत": 3327,
      "२२": 3328,
      "भनिन्": 3329,
      "पक्रा": 3330,
      "च्छे": 3331,
      "धर्म": 3332,
      "खत": 3333,
      "जवा": 3334,
      "पुनर्स्थापना": 3335,
      "कुन": 3336,
      "गुना": 3337,
      "शाखा": 3338,
      "जसको": 3339,
      "ल्स": 3340,
      "अभ्या": 3341,
      "दोहो": 3342,
      "ग्रामी": 3343,
      "किङ": 3344,
      "पय": 3345,
      "शर्मा": 3346,
      "धनी": 3347,
      "थ्": 3348,
      "आउन": 3349,
      "रले": 3350,
      "विशेषज्ञ": 3351,
      "ग्रामीण": 3352,
      "नभए": 3353,
      "अतिरिक्त": 3354,
      "विध": 3355,
      "गोल": 3356,
      "लाले": 3357,
      "राजस्व": 3358,
      "भूत": 3359,
      "पाएको": 3360,
      "खोजी": 3361,
      "छिमेकी": 3362,
      "पक्राउ": 3363,
      "डेल": 3364,
      "फ्रान्": 3365,
      "योगदान": 3366,
      "लिरहेको": 3367,
      "पार्टीका": 3368,
      "राखे": 3369,
      "ञ्चल": 3370,
      "कतिपय": 3371,
      "एनएन": 3372,
      "रक्षा": 3373,
      "क्षिक": 3374,
      "नेकपा": 3375,
      "जोखिम": 3376,
      "गाह": 3377,
      "भिडियो": 3378,
      "अवधिमा": 3379,
      "रोजगारी": 3380,
      "भण्डार": 3381,
      "सायिक": 3382,
      "स्तरीय": 3383,
      "उद्ध": 3384,
      "भ्रष्टाचार": 3385,
      "ज्ञानिक": 3386,
      "सङ्गी": 3387,
      "सिन्दा": 3388,
      "उपकरण": 3389,
      "ढो": 3390,
      "बम": 3391,
      "रणनीति": 3392,
      "जनताले": 3393,
      "त्यसमा": 3394,
      "कुञ्जी": 3395,
      "व्यक्तिलाई": 3396,
      "म्याक": 3397,
      "रीमा": 3398,
      "कीय": 3399,
      "सञ्जा": 3400,
      "टका": 3401,
      "सप": 3402,
      "डिजाइन": 3403,
      "दिइएको": 3404,
      "आवा": 3405,
      "नामक": 3406,
      "वरिपरि": 3407,
      "कोही": 3408,
      "बढाउन": 3409,
      "हेरचाह": 3410,
      "राव": 3411,
      "सीको": 3412,
      "लडा": 3413,
      "देवी": 3414,
      "ृद्धि": 3415,
      "खराब": 3416,
      "व्यावसायिक": 3417,
      "णि": 3418,
      "प्रभावकारी": 3419,
      "प्रसार": 3420,
      "श्रृ": 3421,
      "ेरो": 3422,
      "सोच": 3423,
      "शीर्ष": 3424,
      "वर्षसम्म": 3425,
      "शास्त्र": 3426,
      "चिन्ता": 3427,
      "पत्": 3428,
      "सर्वोच्च": 3429,
      "म्पि": 3430,
      "२८": 3431,
      "अक्टो": 3432,
      "उम्मेदवार": 3433,
      "षिक": 3434,
      "घटा": 3435,
      "रोह": 3436,
      "गरिन्": 3437,
      "यू": 3438,
      "सजिलो": 3439,
      "ँजी": 3440,
      "पुगे": 3441,
      "ब्य": 3442,
      "तरी": 3443,
      "लगाउने": 3444,
      "२७": 3445,
      "बनाएको": 3446,
      "लनमा": 3447,
      "प्रश्वास": 3448,
      "रहन्छ": 3449,
      "सामान": 3450,
      "न्थे": 3451,
      "बिहान": 3452,
      "चारिक": 3453,
      "सिका": 3454,
      "लेखक": 3455,
      "वार्ड": 3456,
      "कठो": 3457,
      "वार्षिक": 3458,
      "प्रतिबद्ध": 3459,
      "बैठकमा": 3460,
      "गणतन्त्र": 3461,
      "बढ्दो": 3462,
      "नवी": 3463,
      "कठोर": 3464,
      "स्वि": 3465,
      "वैज्ञानिक": 3466,
      "स्टर": 3467,
      "तत्काल": 3468,
      "रुवा": 3469,
      "खुशी": 3470,
      "उत्पन्न": 3471,
      "नारायण": 3472,
      "ताव": 3473,
      "विद्युत्": 3474,
      "न्युयोर्क": 3475,
      "विना": 3476,
      "महत्वपूर्ण": 3477,
      "भर्ना": 3478,
      "मोर्चा": 3479,
      "गल्": 3480,
      "पाइन्छ": 3481,
      "जनतालाई": 3482,
      "साधन": 3483,
      "धानिक": 3484,
      "बमोजिमको": 3485,
      "थी": 3486,
      "विज्ञ": 3487,
      "उपयुक्त": 3488,
      "षक": 3489,
      "पर्दा": 3490,
      "जिल्लाको": 3491,
      "२६": 3492,
      "लाम": 3493,
      "बुझा": 3494,
      "शरीर": 3495,
      "पहुँ": 3496,
      "शाली": 3497,
      "अङ्क": 3498,
      "दरबार": 3499,
      "भक्त": 3500,
      "प्रकारको": 3501,
      "आगो": 3502,
      "चालन": 3503,
      "साब": 3504,
      "प्राप्ता": 3505,
      "पहुँच": 3506,
      "न्डै": 3507,
      "लेखा": 3508,
      "ट्टै": 3509,
      "विजय": 3510,
      "शाह": 3511,
      "गरेमा": 3512,
      "धितो": 3513,
      "गुनासो": 3514,
      "सत्ता": 3515,
      "प्रतिनिधित्व": 3516,
      "न्ध": 3517,
      "ारो": 3518,
      "नसक्ने": 3519,
      "विरोधी": 3520,
      "सक्नुहुन्छ": 3521,
      "जान्छ": 3522,
      "जवाफ": 3523,
      "जेल": 3524,
      "छौ": 3525,
      "्युनि": 3526,
      "सक्नु": 3527,
      "लीको": 3528,
      "झन्डै": 3529,
      "मूल": 3530,
      "सिफारिस": 3531,
      "ल्याउने": 3532,
      "आत्म": 3533,
      "प्ला": 3534,
      "त्यसलाई": 3535,
      "थालेको": 3536,
      "साहित": 3537,
      "२९": 3538,
      "चक": 3539,
      "कानू": 3540,
      "मङ्ग": 3541,
      "अधिकारीले": 3542,
      "अंश": 3543,
      "कन": 3544,
      "क्षेप": 3545,
      "पाउ": 3546,
      "जम्मा": 3547,
      "क्का": 3548,
      "हड": 3549,
      "धेरैजसो": 3550,
      "क्य": 3551,
      "हस्ताक्षर": 3552,
      "जहा": 3553,
      "भन्नु": 3554,
      "बासिन्दा": 3555,
      "क्याम्प": 3556,
      "सिद्धा": 3557,
      "हुनुपर्छ": 3558,
      "म्बरमा": 3559,
      "१००": 3560,
      "प्रगति": 3561,
      "सीमित": 3562,
      "ल्दै": 3563,
      "दृष्टिकोण": 3564,
      "ंगा": 3565,
      "लगाउन": 3566,
      "पाउन": 3567,
      "रामा": 3568,
      "धारा": 3569,
      "बिलियन": 3570,
      "बढ्दै": 3571,
      "मिनेट": 3572,
      "पात": 3573,
      "लिएका": 3574,
      "निरी": 3575,
      "रीको": 3576,
      "खासगरी": 3577,
      "झु": 3578,
      "युरोप": 3579,
      "टिश": 3580,
      "गिरफ्": 3581,
      "ल्ट": 3582,
      "बास": 3583,
      "मिश्र": 3584,
      "पाएका": 3585,
      "त्यसो": 3586,
      "अर": 3587,
      "पूजा": 3588,
      "किसान": 3589,
      "हुन्न": 3590,
      "धो": 3591,
      "लगानीकर्ता": 3592,
      "मुलुकमा": 3593,
      "सरकारलाई": 3594,
      "देशका": 3595,
      "आकार": 3596,
      "टाउको": 3597,
      "प्रारम्भिक": 3598,
      "ड्ने": 3599,
      "जबकि": 3600,
      "म्बा": 3601,
      "मन्दिर": 3602,
      "गणना": 3603,
      "प्रवृत्ति": 3604,
      "प्रेस": 3605,
      "चर्य": 3606,
      "न्सर": 3607,
      "कलेज": 3608,
      "संघर्ष": 3609,
      "ब्रु": 3610,
      "बच्चा": 3611,
      "शेर": 3612,
      "नगरी": 3613,
      "दूत": 3614,
      "क्षी": 3615,
      "एकल": 3616,
      "सबैले": 3617,
      "रहनु": 3618,
      "सुन्द": 3619,
      "सुकै": 3620,
      "र्का": 3621,
      "क्षेत्रीय": 3622,
      "वीर": 3623,
      "मेलन": 3624,
      "स्वय": 3625,
      "साँच्च": 3626,
      "एसिया": 3627,
      "माया": 3628,
      "रेडियो": 3629,
      "निर्मा": 3630,
      "सम्मेलन": 3631,
      "आधु": 3632,
      "मुद्रा": 3633,
      "क्षेत्रका": 3634,
      "आउ": 3635,
      "राह": 3636,
      "ङले": 3637,
      "तराई": 3638,
      "नीले": 3639,
      "हतियार": 3640,
      "कर्जा": 3641,
      "नाफा": 3642,
      "आयात": 3643,
      "व्र": 3644,
      "बद": 3645,
      "क्रियाकला": 3646,
      "प्रोत्": 3647,
      "कम्युनि": 3648,
      "मन्त्रालयले": 3649,
      "टिल": 3650,
      "खान": 3651,
      "ुक": 3652,
      "वैधानिक": 3653,
      "इस्": 3654,
      "छवि": 3655,
      "रोक्न": 3656,
      "काठमाडौँ": 3657,
      "जनसंख्या": 3658,
      "ष्ठा": 3659,
      "संघका": 3660,
      "धानको": 3661,
      "उचित": 3662,
      "सकारात्मक": 3663,
      "कमजोर": 3664,
      "रत": 3665,
      "लाभ": 3666,
      "राइ": 3667,
      "आश्चर्य": 3668,
      "८०": 3669,
      "तालिम": 3670,
      "राय": 3671,
      "२०५": 3672,
      "चिकित्सक": 3673,
      "इन्जि": 3674,
      "चेताव": 3675,
      "इतिहास": 3676,
      "काममा": 3677,
      "महत्त्वपूर्ण": 3678,
      "दिनमा": 3679,
      "वासिङ": 3680,
      "भट्टराई": 3681,
      "राउ": 3682,
      "त्रा": 3683,
      "प्राकृतिक": 3684,
      "णिज्य": 3685,
      "झर्": 3686,
      "अन्त्यमा": 3687,
      "फ्याँ": 3688,
      "तिम्रो": 3689,
      "न्तै": 3690,
      "डको": 3691,
      "स्तरमा": 3692,
      "च्छेद": 3693,
      "घन": 3694,
      "छनौ": 3695,
      "प्रचण्ड": 3696,
      "मय": 3697,
      "उत्कृष्ट": 3698,
      "पोर्ट": 3699,
      "उपनि": 3700,
      "उडान": 3701,
      "सत": 3702,
      "समितिका": 3703,
      "आउँछ": 3704,
      "यथा": 3705,
      "तिनीहरूलाई": 3706,
      "मोटर": 3707,
      "सोच्": 3708,
      "ख्य": 3709,
      "सधैँ": 3710,
      "लिखित": 3711,
      "७०": 3712,
      "साइट": 3713,
      "टोलीले": 3714,
      "साल": 3715,
      "ल्नु": 3716,
      "होटल": 3717,
      "खाने": 3718,
      "नव": 3719,
      "ल्छ": 3720,
      "पूर्वी": 3721,
      "भनिन्छ": 3722,
      "यसअघि": 3723,
      "क्रान्ति": 3724,
      "देउवा": 3725,
      "मानसिक": 3726,
      "सहभागि": 3727,
      "जत": 3728,
      "झ्या": 3729,
      "सट्टा": 3730,
      "शंका": 3731,
      "आफूले": 3732,
      "आकर्ष": 3733,
      "भोलि": 3734,
      "सङ्केत": 3735,
      "है": 3736,
      "कामदार": 3737,
      "धार्": 3738,
      "बचा": 3739,
      "चेतावनी": 3740,
      "सोध": 3741,
      "डामा": 3742,
      "तुरु": 3743,
      "उपाय": 3744,
      "पराज": 3745,
      "सम्भावित": 3746,
      "बीचको": 3747,
      "अभिभावक": 3748,
      "गिरफ्तार": 3749,
      "जसमा": 3750,
      "लाग्यो": 3751,
      "सङ्गीत": 3752,
      "डिङ": 3753,
      "सिन": 3754,
      "र्घ": 3755,
      "धम्": 3756,
      "न्टा": 3757,
      "अनलाइन": 3758,
      "संघले": 3759,
      "निर्भर": 3760,
      "कार्यालयमा": 3761,
      "भइसकेको": 3762,
      "अथ": 3763,
      "मुक्त": 3764,
      "्यारे": 3765,
      "लेका": 3766,
      "दिनको": 3767,
      "माओवादीले": 3768,
      "ध्व": 3769,
      "हस्त": 3770,
      "ङ्ग्रे": 3771,
      "पुग्ने": 3772,
      "खेती": 3773,
      "सेतो": 3774,
      "बोल": 3775,
      "स्वामि": 3776,
      "तब": 3777,
      "केका": 3778,
      "एकपटक": 3779,
      "पुगेका": 3780,
      "कक्षा": 3781,
      "युव": 3782,
      "माथिल्लो": 3783,
      "३५": 3784,
      "न्च": 3785,
      "व्यापारी": 3786,
      "वधिक": 3787,
      "प्रशं": 3788,
      "रेखा": 3789,
      "हरूबाट": 3790,
      "पार्टीको": 3791,
      "तुलनामा": 3792,
      "हू": 3793,
      "चर्चा": 3794,
      "मौसममा": 3795,
      "कदम": 3796,
      "किशो": 3797,
      "ीकरण": 3798,
      "मात्रा": 3799,
      "अनुहार": 3800,
      "स्वामित्व": 3801,
      "संगठ": 3802,
      "गरें": 3803,
      "लागे": 3804,
      "बहि": 3805,
      "विष्ट": 3806,
      "माध्यम": 3807,
      "बुद्धि": 3808,
      "सम्मेल": 3809,
      "विशेषता": 3810,
      "सभापति": 3811,
      "आम": 3812,
      "एजेन्": 3813,
      "द्वि": 3814,
      "अभ्यास": 3815,
      "विपक्षी": 3816,
      "लोकन": 3817,
      "्युटर": 3818,
      "भागमा": 3819,
      "ंश": 3820,
      "पूर्वाधार": 3821,
      "बिस्तार": 3822,
      "प्रशिक्षण": 3823,
      "विज्ञान": 3824,
      "सफा": 3825,
      "देख्": 3826,
      "टिन": 3827,
      "उमा": 3828,
      "कारणले": 3829,
      "यात्रु": 3830,
      "पचारिक": 3831,
      "लोकप्रिय": 3832,
      "विद्रो": 3833,
      "इस्रा": 3834,
      "विभाजन": 3835,
      "पुनर्निर्माण": 3836,
      "सिने": 3837,
      "गहि": 3838,
      "संवाद": 3839,
      "समर्": 3840,
      "गर्नका": 3841,
      "प्रमाणित": 3842,
      "पुग्न": 3843,
      "उपन्या": 3844,
      "सजाय": 3845,
      "खुट्टा": 3846,
      "नम्बर": 3847,
      "कस्तो": 3848,
      "वर्द्ध": 3849,
      "च्छा": 3850,
      "चार्य": 3851,
      "नग": 3852,
      "निर्वाचित": 3853,
      "पत्रमा": 3854,
      "रुपैयाँ": 3855,
      "रुपैया": 3856,
      "ज्ञान": 3857,
      "कटौ": 3858,
      "सप्": 3859,
      "त्ने": 3860,
      "//": 3861,
      "पुल": 3862,
      "क्रिकेट": 3863,
      "दर्जन": 3864,
      "स्कृतिक": 3865,
      "मङ्गलबार": 3866,
      "धिकारी": 3867,
      "दायि": 3868,
      "योजक": 3869,
      "मौका": 3870,
      "काश": 3871,
      "लम्": 3872,
      "साव": 3873,
      "प्रतिष्ठा": 3874,
      "कर्त": 3875,
      "व्यक्तिको": 3876,
      "अनुगमन": 3877,
      "शैक्षिक": 3878,
      "डिक": 3879,
      "प्रकाशन": 3880,
      "रेल": 3881,
      "सचेत": 3882,
      "क्सी": 3883,
      "विधेयक": 3884,
      "नोभे": 3885,
      "खाद्य": 3886,
      "चौथो": 3887,
      "दूर": 3888,
      "एमा": 3889,
      "सिद्धान्त": 3890,
      "दशक": 3891,
      "तथ्य": 3892,
      "लास": 3893,
      "अनुरोध": 3894,
      "अनुदान": 3895,
      "चिया": 3896,
      "थ्वी": 3897,
      "कम्पनीको": 3898,
      "बस्न": 3899,
      "बिमा": 3900,
      "लगभग": 3901,
      "दायित्व": 3902,
      "विजे": 3903,
      "प्रवाह": 3904,
      "म्यान": 3905,
      "पृथ्वी": 3906,
      "आधुनिक": 3907,
      "महे": 3908,
      "शिया": 3909,
      "च्छ": 3910,
      "मूल्याङ्कन": 3911,
      "ग्रहण": 3912,
      "टेलिभिजन": 3913,
      "कार्यसम्पादन": 3914,
      "चौध": 3915,
      "विद्युत": 3916,
      "कम्प्युटर": 3917,
      "दीर्घ": 3918,
      "बनाइ": 3919,
      "अपना": 3920,
      "आतंक": 3921,
      "बराबर": 3922,
      "फिक": 3923,
      "वाणिज्य": 3924,
      "प्रदेश": 3925,
      "करार": 3926,
      "रह्यो": 3927,
      "प्रतिबन्ध": 3928,
      "सहायक": 3929,
      "कानुनी": 3930,
      "अथवा": 3931,
      "चर्": 3932,
      "ग्रि": 3933,
      "धम्की": 3934,
      "सांसद": 3935,
      "लोड": 3936,
      "ारे": 3937,
      "रीले": 3938,
      "अघिल्लो": 3939,
      "ंख": 3940,
      "प्रदर्श": 3941,
      "धार्मिक": 3942,
      "सेप्टेम्बर": 3943,
      "श्रो": 3944,
      "बह": 3945,
      "कटौती": 3946,
      "कर्तव्य": 3947,
      "परम्परागत": 3948,
      "अमेरिकामा": 3949,
      "चाहिँ": 3950,
      "देखे": 3951,
      "कतै": 3952,
      "प्राथमिकता": 3953,
      "सदर": 3954,
      "मोबाइ": 3955,
      "जीवित": 3956,
      "हावा": 3957,
      "बताउनु": 3958,
      "इला": 3959,
      "प्राप्ताङ्क": 3960,
      "बग": 3961,
      "वली": 3962,
      "निर्यात": 3963,
      "आप": 3964,
      "मतदान": 3965,
      "चिकित्सा": 3966,
      "उपत्यका": 3967,
      "िकै": 3968,
      "पुष्टि": 3969,
      "टिकट": 3970,
      "निरा": 3971,
      "लिमि": 3972,
      "दीय": 3973,
      "नियुक्त": 3974,
      "दिनुभयो": 3975,
      "ड्न": 3976,
      "रगत": 3977,
      "फर्म": 3978,
      "अध्या": 3979,
      "ञ्ज": 3980,
      "हिन्द": 3981,
      "२००६": 3982,
      "गर्छौं": 3983,
      "चाल": 3984,
      "राणा": 3985,
      "स्के": 3986,
      "बिन": 3987,
      "तक": 3988,
      "तनाव": 3989,
      "संवैधानिक": 3990,
      "आवाज": 3991,
      "स्टक": 3992,
      "विज्ञापन": 3993,
      "भण्डारी": 3994,
      "बिस्तारै": 3995,
      "राको": 3996,
      "विन": 3997,
      "भाग्य": 3998,
      "ग्लो": 3999,
      "२०४": 4000,
      "वर्षा": 4001,
      "प्रत्या": 4002,
      "निस्क": 4003,
      "लिए": 4004,
      "व्याख्या": 4005,
      "आयोजित": 4006,
      "सपना": 4007,
      "प्रवर्द्ध": 4008,
      "गर्छु": 4009,
      "नैतिक": 4010,
      "फोर्": 4011,
      "गर्नुभएको": 4012,
      "हवाई": 4013,
      "स्कि": 4014,
      "निज": 4015,
      "प्रमाणपत्र": 4016,
      "छनौट": 4017,
      "राखिएको": 4018,
      "उल्लेखनीय": 4019,
      "यसैगरी": 4020,
      "बढाउने": 4021,
      "तरिकाले": 4022,
      "सिद्ध": 4023,
      "३१": 4024,
      "जोडि": 4025,
      "गइरहेको": 4026,
      "ण्डे": 4027,
      "आय": 4028,
      "समन्व": 4029,
      "वेक्षण": 4030,
      "स्वागत": 4031,
      "इमा": 4032,
      "कागजात": 4033,
      "नीमा": 4034,
      "छुट्टै": 4035,
      "निको": 4036,
      "दिएर": 4037,
      "जानु": 4038,
      "प्य": 4039,
      "हल्ला": 4040,
      "पसल": 4041,
      "अवै": 4042,
      "ल्याएको": 4043,
      "जडान": 4044,
      "ङको": 4045,
      "वाला": 4046,
      "वाट": 4047,
      "बाढी": 4048,
      "हाय": 4049,
      "वर्णन": 4050,
      "तिहासिक": 4051,
      "चासो": 4052,
      "खड्": 4053,
      "ँडै": 4054,
      "अस्पतालमा": 4055,
      "जरु": 4056,
      "अक्टोबर": 4057,
      "हुनाले": 4058,
      "मधेश": 4059,
      "सुन्दर": 4060,
      "हर्": 4061,
      "रेन्द्र": 4062,
      "थालेका": 4063,
      "क्रे": 4064,
      "महो": 4065,
      "राज्यको": 4066,
      "नसकेको": 4067,
      "सेन्ट": 4068,
      "विभागले": 4069,
      "मंग": 4070,
      "छन": 4071,
      "शिव": 4072,
      "भारतमा": 4073,
      "विश्लेषण": 4074,
      "चाँडै": 4075,
      "त्तम": 4076,
      "क्ला": 4077,
      "आनन्द": 4078,
      "कोइराला": 4079,
      "प्रचार": 4080,
      "प्रयोगकर्ता": 4081,
      "प्रसारण": 4082,
      "पण": 4083,
      "थिएनन्": 4084,
      "ब्रे": 4085,
      "सफ्ट": 4086,
      "राखेर": 4087,
      "लिमिटेड": 4088,
      "खेल्न": 4089,
      "विनि": 4090,
      "दिव": 4091,
      "ht": 4092,
      "स्कट": 4093,
      "डले": 4094,
      "टनीति": 4095,
      "सबैलाई": 4096,
      "तोकि": 4097,
      "रित": 4098,
      "सङ्क": 4099,
      "त्ती": 4100,
      "पेली": 4101,
      "सेन": 4102,
      "आयोगले": 4103,
      "सदरमु": 4104,
      "ऐतिहासिक": 4105,
      "किलोमिटर": 4106,
      "उपनियम": 4107,
      "थाल": 4108,
      "ब्रिटिश": 4109,
      "हिमा": 4110,
      "डिसे": 4111,
      "मन्त्रि": 4112,
      "ट्न": 4113,
      "फागु": 4114,
      "४५": 4115,
      "बौ": 4116,
      "हरूमध्ये": 4117,
      "भारतले": 4118,
      "सम्पाद": 4119,
      "प्रशास": 4120,
      "लनको": 4121,
      "संयोजक": 4122,
      "करी": 4123,
      "तीव्र": 4124,
      "दय": 4125,
      "कुर": 4126,
      "चोट": 4127,
      "विविध": 4128,
      "बू": 4129,
      "अदालतले": 4130,
      "लाग्दो": 4131,
      "बलि": 4132,
      "उनुपर्ने": 4133,
      "पान्तरण": 4134,
      "कार्की": 4135,
      "बनाएर": 4136,
      "कसैलाई": 4137,
      "समूहले": 4138,
      "स्वयं": 4139,
      "बस्ती": 4140,
      "बन्ने": 4141,
      "हुनुपर्ने": 4142,
      "पहल": 4143,
      "हामीसँग": 4144,
      "पं": 4145,
      "पूँजी": 4146,
      "समन्वय": 4147,
      "ब्रो": 4148,
      "परिण": 4149,
      "मल्": 4150,
      "रिरि": 4151,
      "कानूनी": 4152,
      "पढा": 4153,
      "गाह्रो": 4154,
      "शर्त": 4155,
      "हस्तान्तरण": 4156,
      "मानिसहरूले": 4157,
      "तथ्याङ्क": 4158,
      "तल्लो": 4159,
      "रिङ": 4160,
      "तापूर्वक": 4161,
      "हिक": 4162,
      "सांस्कृतिक": 4163,
      "काउन्": 4164,
      "वाही": 4165,
      "देहाय": 4166,
      "प्रकृति": 4167,
      "म्स": 4168,
      "पारेको": 4169,
      "गरमा": 4170,
      "ौल": 4171,
      "गर्नुहुन्छ": 4172,
      "७५": 4173,
      "युरोपेली": 4174,
      "जरुरी": 4175,
      "मान्": 4176,
      "क्यान्सर": 4177,
      "भेटि": 4178,
      "अवसरमा": 4179,
      "धितोपत्र": 4180,
      "लीले": 4181,
      "सडकमा": 4182,
      "नभई": 4183,
      "गएका": 4184,
      "अग": 4185,
      "पुस्ता": 4186,
      "श्रृंख": 4187,
      "साँच्चिकै": 4188,
      "पुनरा": 4189,
      "सशस्त्र": 4190,
      "दायिक": 4191,
      "होर": 4192,
      "साझेदारी": 4193,
      "अदालतमा": 4194,
      "छोटो": 4195,
      "विस्त": 4196,
      "उसलाई": 4197,
      "कार्ड": 4198,
      "हारी": 4199,
      "सिन्": 4200,
      "गुणस्तर": 4201,
      "चलिरहेको": 4202,
      "शता": 4203,
      "बाटै": 4204,
      "पर्दैन": 4205,
      "सँगको": 4206,
      "औसत": 4207,
      "धिका": 4208,
      "सूर्य": 4209,
      "सालमा": 4210,
      "मुटु": 4211,
      "शरण": 4212,
      "निर्माता": 4213,
      "७३": 4214,
      "हडताल": 4215,
      "र्ने": 4216,
      "भन्नाले": 4217,
      "त्यस्ता": 4218,
      "५००": 4219,
      "सञ्चालक": 4220,
      "भन्सार": 4221,
      "तरिका": 4222,
      "दिल्ली": 4223,
      "महोत्": 4224,
      "अष्ट्र": 4225,
      "एनन्": 4226,
      "एड": 4227,
      "गन": 4228,
      "प्रान्त": 4229,
      "स्वरूप": 4230,
      "उस": 4231,
      "हिसाब": 4232,
      "छुट्या": 4233,
      "चम्": 4234,
      "ट्ने": 4235,
      "गाई": 4236,
      "भन्नुहुन्छ": 4237,
      "जातीय": 4238,
      "नेको": 4239,
      "सनले": 4240,
      "देखाउने": 4241,
      "प्रबन्धक": 4242,
      "पीडा": 4243,
      "संस्करण": 4244,
      "मोबाइल": 4245,
      "क्रमश": 4246,
      "उनीहरु": 4247,
      "कानून": 4248,
      "बैं": 4249,
      "त्रुटि": 4250,
      "युक्ति": 4251,
      "प्रथ": 4252,
      "उत्पादक": 4253,
      "जरि": 4254,
      "जुलाई": 4255,
      "सुरुमा": 4256,
      "विस्तृत": 4257,
      "भेद": 4258,
      "चार्ज": 4259,
      "चलाउने": 4260,
      "दीर्घकालीन": 4261,
      "परिणत": 4262,
      "लुका": 4263,
      "पहाडी": 4264,
      "गल": 4265,
      "www": 4266,
      "इस्राए": 4267,
      "अवैध": 4268,
      "राजमार्ग": 4269,
      "संघको": 4270,
      "बसो": 4271,
      "लिनु": 4272,
      "बीचमा": 4273,
      "ढोका": 4274,
      "वर्षे": 4275,
      "निष्कर्ष": 4276,
      "जहाज": 4277,
      "हिर्का": 4278,
      "बर्ग": 4279,
      "वायुसेवा": 4280,
      "एकजना": 4281,
      "मौलिक": 4282,
      "चरणमा": 4283,
      "न्डर": 4284,
      "परिचय": 4285,
      "हेर्ने": 4286,
      "अद्या": 4287,
      "दोषी": 4288,
      "क्रियाकलाप": 4289,
      "सकेपछि": 4290,
      "महिनामा": 4291,
      "................": 4292,
      "तत्व": 4293,
      "दित": 4294,
      "वेयर": 4295,
      "कार्यमा": 4296,
      "धरा": 4297,
      "थप्नुभयो": 4298,
      "इज": 4299,
      "लेखिएको": 4300,
      "सामान्यतया": 4301,
      "फूल": 4302,
      "येश": 4303,
      "सञ्जाल": 4304,
      "महत्व": 4305,
      "कहिलेका": 4306,
      "प्राव": 4307,
      "सिक्": 4308,
      "बेच": 4309,
      "खारे": 4310,
      "नोट": 4311,
      "येशू": 4312,
      "अहिलेको": 4313,
      "समक्ष": 4314,
      "विमानस्थल": 4315,
      "मित्र": 4316,
      "बाह": 4317,
      "लिस": 4318,
      "फर्का": 4319,
      "दर्शक": 4320,
      "इजा": 4321,
      "गाउँमा": 4322,
      "हुनसक्छ": 4323,
      "पञ्": 4324,
      "सुनिश्चित": 4325,
      "पाइने": 4326,
      "जटिल": 4327,
      "गर्दैन": 4328,
      "रेड": 4329,
      "स्ट्रि": 4330,
      "सम्मको": 4331,
      "ड्राइभर": 4332,
      "निः": 4333,
      "दमा": 4334,
      "संसदीय": 4335,
      "लडाइँ": 4336,
      "त्कार": 4337,
      "श्या": 4338,
      "रंग": 4339,
      "प्रतिज्ञा": 4340,
      "ङमा": 4341,
      "फर्क": 4342,
      "भौतिक": 4343,
      "नियुक्ति": 4344,
      "प्रवर्द्धन": 4345,
      "प्रदू": 4346,
      "इन्छ": 4347,
      "सबभन्दा": 4348,
      "मिल्": 4349,
      "रचना": 4350,
      "कार्यालयले": 4351,
      "सम्मेलनमा": 4352,
      "ताजा": 4353,
      "विजेता": 4354,
      "वार्तामा": 4355,
      "ब्दी": 4356,
      "डब्ल्यूएम": 4357,
      "कक्ष": 4358,
      "टेको": 4359,
      "नजिकै": 4360,
      "ख्यक": 4361,
      "क्रमशः": 4362,
      "सप्तरी": 4363,
      "भिड": 4364,
      "औद": 4365,
      "स्मृ": 4366,
      "प्रकट": 4367,
      "ङ्का": 4368,
      "लभ": 4369,
      "रातो": 4370,
      "बिता": 4371,
      "ताप": 4372,
      "संस्थाको": 4373,
      "प्रथम": 4374,
      "स्ना": 4375,
      "पत्नी": 4376,
      "खबर": 4377,
      "माछा": 4378,
      "सहर": 4379,
      "ारमा": 4380,
      "भुवन": 4381,
      "बृद्धि": 4382,
      "इटा": 4383,
      "जोडा": 4384,
      "दुर्घटना": 4385,
      "अर्थात्": 4386,
      "लियम": 4387,
      "खाता": 4388,
      "सर्वेक्षण": 4389,
      "सर्वोत्तम": 4390,
      "विरा": 4391,
      "म्पियन": 4392,
      "ट्रया": 4393,
      "अद्यावधिक": 4394,
      "सुदृ": 4395,
      "महासचिव": 4396,
      "द्वी": 4397,
      "फ्याँकि": 4398,
      "औंला": 4399,
      "राती": 4400,
      "थियौं": 4401,
      "अर्ब": 4402,
      "मिन": 4403,
      "प्रतिलिपि": 4404,
      "आएर": 4405,
      "केदार": 4406,
      "उनुपर्छ": 4407,
      "तस्वी": 4408,
      "अँ": 4409,
      "कारि": 4410,
      "वैदेशिक": 4411,
      "१९८": 4412,
      "जिम्मेवार": 4413,
      "समग्र": 4414,
      "समुद्र": 4415,
      "स्मृति": 4416,
      "दलित": 4417,
      "मालिक": 4418,
      "त्यसले": 4419,
      "ँचा": 4420,
      "विद्यालयमा": 4421,
      "्योगिक": 4422,
      "दौड": 4423,
      "गन्त": 4424,
      "तोकिएको": 4425,
      "जाँदा": 4426,
      "युनि": 4427,
      "शहरमा": 4428,
      "स्वीकृति": 4429,
      "tp": 4430,
      "विकासको": 4431,
      "हेर्दा": 4432,
      "इजाजत": 4433,
      "मानक": 4434,
      "मुलुकको": 4435,
      "चाहने": 4436,
      "कहिलेकाही": 4437,
      "मामा": 4438,
      "पदाधिकारी": 4439,
      "निर्वाच": 4440,
      "मर्मत": 4441,
      "गाँ": 4442,
      "हुनुपर्दछ": 4443,
      "नियमा": 4444,
      "हातमा": 4445,
      "इच्छा": 4446,
      "बढेर": 4447,
      "बौद्ध": 4448,
      "नियर": 4449,
      "उहाँको": 4450,
      "औद्योगिक": 4451,
      "लगाइएको": 4452,
      "सामुदायिक": 4453,
      "मुस्": 4454,
      "म्र": 4455,
      "वर्षदेखि": 4456,
      "कविता": 4457,
      "माघ": 4458,
      "इन्टरनेट": 4459,
      "बेलामा": 4460,
      "पक्षीय": 4461,
      "समी": 4462,
      "हेरि": 4463,
      "डाक्टर": 4464,
      "एयर": 4465,
      "वासिङ्ट": 4466,
      "गएर": 4467,
      "निर्धार": 4468,
      "शू": 4469,
      "हुनेछन्": 4470,
      ")।": 4471,
      "सला": 4472,
      "सदरमुकाम": 4473,
      "डलरको": 4474,
      "आह्": 4475,
      "श्रीमती": 4476,
      "ओर्": 4477,
      "धन्य": 4478,
      "वरी": 4479,
      "श्रेष्ठले": 4480,
      "मुख्यतया": 4481,
      "जीवनमा": 4482,
      "षा": 4483,
      "सुना": 4484,
      "तले": 4485,
      "कालमा": 4486,
      "मिरे": 4487,
      "चीनको": 4488,
      "गहिरो": 4489,
      "दको": 4490,
      "ेन्द्र": 4491,
      "डाइ": 4492,
      "च्याम्पियन": 4493,
      "पेन्": 4494,
      "दण्ड": 4495,
      "राजदूत": 4496,
      "http": 4497,
      "बसि": 4498,
      "मुद्दामा": 4499,
      "हरियो": 4500,
      "गन्": 4501,
      "शताब्दी": 4502,
      "आर्जन": 4503,
      "चरि": 4504,
      "कल्पना": 4505,
      "कम्युनिष्ट": 4506,
      "निर्धारित": 4507,
      "टेर": 4508,
      "च्ने": 4509,
      "त्याग": 4510,
      "हानि": 4511,
      "क्यालि": 4512,
      "गल्ती": 4513,
      "जनालाई": 4514,
      "समे": 4515,
      "उल्ल": 4516,
      "इन्कर्पोरे": 4517,
      "चट्टा": 4518,
      "खेल्ने": 4519,
      "न्डो": 4520,
      "वडा": 4521,
      "क्र्या": 4522,
      "बेलायत": 4523,
      "संविधानसभा": 4524,
      "०५": 4525,
      "पात्र": 4526,
      "नोभेम्बर": 4527,
      "प्रदूषण": 4528,
      "कुराको": 4529,
      "ओलीले": 4530,
      "गयो": 4531,
      "रञ्": 4532,
      "सिना": 4533,
      "नष्ट": 4534,
      "तस्वीर": 4535,
      "भनेका": 4536,
      "चाहन्छन्": 4537,
      "ल्पा": 4538,
      "साता": 4539,
      "अत्यन्त": 4540,
      "बुद्ध": 4541,
      "इन्कर्पोरेटि": 4542,
      "गर्व": 4543,
      "जै": 4544,
      "सद्": 4545,
      "गरिब": 4546,
      "तत्कालीन": 4547,
      "खना": 4548,
      "गठबन्ध": 4549,
      "।'": 4550,
      "सर्वसाधारण": 4551,
      "केवल": 4552,
      "जुद": 4553,
      "डिकल": 4554,
      "प्रावधान": 4555,
      "लन्ड": 4556,
      "परिस्थिति": 4557,
      "ढुङ्गा": 4558,
      "बुझ्न": 4559,
      "दिशा": 4560,
      "उपन्यास": 4561,
      "राग": 4562,
      "सुश्री": 4563,
      "स्यौ": 4564,
      "स्वतन्त्रता": 4565,
      "बैंकले": 4566,
      "ट्यु": 4567,
      "ढे": 4568,
      "जलवायु": 4569,
      "नाकाबन्दी": 4570,
      "व्यवस्थाप": 4571,
      "लक्षित": 4572,
      "तुरुन्तै": 4573,
      "सावधानी": 4574,
      "महेन्द्र": 4575,
      "नर्": 4576,
      "भाविक": 4577,
      "भएकोले": 4578,
      "पका": 4579,
      "२०६": 4580,
      "निकायले": 4581,
      "गतिविधि": 4582,
      "नेपाललाई": 4583,
      "पेट्रो": 4584,
      "भुटा": 4585,
      "गाविस": 4586,
      "अगस्ट": 4587,
      "बढ्ने": 4588,
      "यती": 4589,
      "प्रै": 4590,
      "लागेका": 4591,
      "ङ्गो": 4592,
      "बसेको": 4593,
      "त्यसरी": 4594,
      "अस्ति": 4595,
      "ीको": 4596,
      "घटनामा": 4597,
      "समयसम्म": 4598,
      "मुक्ति": 4599,
      "बनाइएको": 4600,
      "पथ": 4601,
      "प्रचलित": 4602,
      "उन्न": 4603,
      "टाँ": 4604,
      "युग": 4605,
      "शिखर": 4606,
      "चलाउन": 4607,
      "जीवनको": 4608,
      "टेटे": 4609,
      "माओवादीको": 4610,
      "महारा": 4611,
      "धिकारिक": 4612,
      "निम्न": 4613,
      "औपचारिक": 4614,
      "फौ": 4615,
      "इएका": 4616,
      "खाद्या": 4617,
      "गोर": 4618,
      "कपडा": 4619,
      "असन्तु": 4620,
      "प्रकारका": 4621,
      "फागुन": 4622,
      "मार्च": 4623,
      "प्रतियोगिता": 4624,
      "लम्बन": 4625,
      "सुनि": 4626,
      "फोर": 4627,
      "वाको": 4628,
      "समाजमा": 4629,
      "लीमा": 4630,
      "ध्यापक": 4631,
      "उत्तरी": 4632,
      "अख्": 4633,
      "लीय": 4634,
      "सहभागिता": 4635,
      "मंगलबार": 4636,
      "सक्छौं": 4637,
      "पित": 4638,
      "सञ्चालित": 4639,
      "पोखरा": 4640,
      "झैं": 4641,
      "धानमा": 4642,
      "बुझ्": 4643,
      "अनुमो": 4644,
      "ट्रम्प": 4645,
      "नं": 4646,
      "मस्यौ": 4647,
      "विहीन": 4648,
      "रोकि": 4649,
      "--": 4650,
      "यसो": 4651,
      "जरिवा": 4652,
      "एल्": 4653,
      "माटो": 4654,
      "बढ्न": 4655,
      "परिभाषा": 4656,
      "मानिसहरूलाई": 4657,
      "निःशुल्क": 4658,
      "बिदा": 4659,
      "विनाश": 4660,
      "पन्": 4661,
      "केपी": 4662,
      "आजको": 4663,
      "एँ": 4664,
      "३२": 4665,
      "किशोर": 4666,
      "राहत": 4667,
      "इका": 4668,
      "क्कै": 4669,
      "भाषण": 4670,
      "राखेका": 4671,
      "अनिवार्": 4672,
      "प्रतिस्थापन": 4673,
      "राम्र": 4674,
      "दशकमा": 4675,
      "सत्र": 4676,
      "कारखाना": 4677,
      "पर्न": 4678,
      "साझेदार": 4679,
      "तान": 4680,
      "उद्य": 4681,
      "वित्र": 4682,
      "टुक्रा": 4683,
      "बाबजुद": 4684,
      "हालको": 4685,
      "मोड": 4686,
      "इलो": 4687,
      "चिन्ति": 4688,
      "केन्द्रमा": 4689,
      "काँ": 4690,
      "त्रिभुवन": 4691,
      "ल्डर": 4692,
      "परिभाष": 4693,
      "खोज्ने": 4694,
      "चिन्तित": 4695,
      "तालिका": 4696,
      "मस्यौदा": 4697,
      "झो": 4698,
      "लक्ष्": 4699,
      "आधिकारिक": 4700,
      "वासन": 4701,
      "ल्दा": 4702,
      "साझा": 4703,
      "कर्षण": 4704,
      "अष्ट्रे": 4705,
      "विश्लेषक": 4706,
      "फेस": 4707,
      "परिभाषित": 4708,
      "खेलकु": 4709,
      "पश्चिमी": 4710,
      "हस्तक्षेप": 4711,
      "कमल": 4712,
      "पल्ट": 4713,
      "क्वा": 4714,
      "दूता": 4715,
      "शिष्ट": 4716,
      "ुर्ुर्ुर्ुर्ुर्ुर्ुर्ुर्ुर्ुर्ुर्ुर्ुर्ुर्ुर्ुर्": 4717,
      "इन्धन": 4718,
      "विद्य": 4719,
      "पहाड": 4720,
      "शक्तिको": 4721,
      "भत्": 4722,
      "चाँ": 4723,
      "साउ": 4724,
      "फाइन": 4725,
      "टर्की": 4726,
      "गर्भ": 4727,
      "आधारभूत": 4728,
      "शित": 4729,
      "बताइएको": 4730,
      "बुबा": 4731,
      "डेटा": 4732,
      "काठमाडौंमा": 4733,
      "अनुमोदन": 4734,
      "अनिवार्य": 4735,
      "थपि": 4736,
      "सदा": 4737,
      "सदन": 4738,
      "बसोबास": 4739,
      "चिसो": 4740,
      "घाँ": 4741,
      "जसलाई": 4742,
      "ंगो": 4743,
      "यसबाट": 4744,
      "आह्वान": 4745,
      "९०": 4746,
      "डेर": 4747,
      "प्लेट": 4748,
      "विद्": 4749,
      "मधेसी": 4750,
      "झ्याल": 4751,
      "ंदा": 4752,
      "किसिमको": 4753,
      "पढ्न": 4754,
      "चिन्ह": 4755,
      "प्रसिद्ध": 4756,
      "यहू": 4757,
      "प्रतिबद्धता": 4758,
      "नेका": 4759,
      "सामेल": 4760,
      "रहन": 4761,
      "सक्दछ": 4762,
      "लिन्छ": 4763,
      "यथार्थ": 4764,
      "सेवाको": 4765,
      "अफगा": 4766,
      "थित": 4767,
      "लेन": 4768,
      "रमाइलो": 4769,
      "धन्यवाद": 4770,
      "भाडा": 4771,
      "साँझ": 4772,
      "सबैको": 4773,
      "देख्न": 4774,
      "हैन": 4775,
      "३६": 4776,
      "पछ्या": 4777,
      "कमि": 4778,
      "बनेका": 4779,
      "थापाले": 4780,
      "आउनु": 4781,
      "बलपूर्वक": 4782,
      "शङ्का": 4783,
      "उपस्थिति": 4784,
      "न्तु": 4785,
      "विज्ञप्ति": 4786,
      "वु": 4787,
      "सत्": 4788,
      "हासिल": 4789,
      "चालित": 4790,
      "चिनो": 4791,
      "ध्ये": 4792,
      "कुराका": 4793,
      "मधेशी": 4794,
      "मासु": 4795,
      "लगाएको": 4796,
      "ट्रि": 4797,
      "अप्रि": 4798,
      "राजी": 4799,
      "सोधे": 4800,
      "सीप": 4801,
      "खारेज": 4802,
      "विप": 4803,
      "्यारो": 4804,
      "ON": 4805,
      "सिट": 4806,
      "तर्फबाट": 4807,
      "त्तिकै": 4808,
      "पट्ट": 4809,
      "देखाउँछ": 4810,
      ",'": 4811,
      "प्रशस्त": 4812,
      "ष्णु": 4813,
      "अपरि": 4814,
      "उहा": 4815,
      "नाटक": 4816,
      "एकीकृत": 4817,
      "पुरमा": 4818,
      "ारु": 4819,
      "खेर": 4820,
      "पवित्र": 4821,
      "जुर": 4822,
      "लस": 4823,
      "घाटा": 4824,
      "तिमीहरू": 4825,
      "शाला": 4826,
      "चरा": 4827,
      "वेदनशील": 4828,
      "ैंचा": 4829,
      "बाटोमा": 4830,
      "व्": 4831,
      "बरु": 4832,
      "उनीहरुले": 4833,
      "ग्यास": 4834,
      "टीमा": 4835,
      "परिचालन": 4836,
      "कुर्": 4837,
      "सस्तो": 4838,
      "समीक्षा": 4839,
      "बैठकले": 4840,
      "पाकिस्तान": 4841,
      "विद्यमान": 4842,
      "आकाश": 4843,
      "पाण्डे": 4844,
      "प्रोत्साहित": 4845,
      "२००५": 4846,
      "नय": 4847,
      "शिवि": 4848,
      "तिमीलाई": 4849,
      "दलका": 4850,
      "अरब": 4851,
      "मधु": 4852,
      "सम्ममा": 4853,
      "स्थलमा": 4854,
      "थुप्रै": 4855,
      "गुरुङ": 4856,
      "मारी": 4857,
      "नेतृत्वमा": 4858,
      "परमप्रभुले": 4859,
      "यसँग": 4860,
      "चरित्र": 4861,
      "आफैँ": 4862,
      "पारे": 4863,
      "फोर्निया": 4864,
      "देखिने": 4865,
      "लेखि": 4866,
      "रूपान्तरण": 4867,
      "आचार्य": 4868,
      "सिमा": 4869,
      "एकता": 4870,
      "पार्टीले": 4871,
      "बाँच": 4872,
      "रङ्ग": 4873,
      "कोलागि": 4874,
      "छै": 4875,
      "मद": 4876,
      "हृ": 4877,
      "बसेर": 4878,
      "क्यालिफोर्निया": 4879,
      "रोमा": 4880,
      "जुनसुकै": 4881,
      "प्रशंसा": 4882,
      "सन्दर्भमा": 4883,
      "दक्ष": 4884,
      "निजा": 4885,
      "नगद": 4886,
      "धिकार": 4887,
      "तिनका": 4888,
      "लगाएर": 4889,
      "तहमा": 4890,
      "बला": 4891,
      "मञ्च": 4892,
      "हटाउन": 4893,
      "टीका": 4894,
      "सन्त": 4895,
      "ठोस": 4896,
      "हिस्": 4897,
      "मोदी": 4898,
      "स्टि": 4899,
      "भूति": 4900,
      "रन": 4901,
      "फ्लो": 4902,
      "इने": 4903,
      "एशिया": 4904,
      "तिमीले": 4905,
      "जनसङ्ख्या": 4906,
      "सुन्": 4907,
      "अख्तियार": 4908,
      "रेन्ट": 4909,
      "टिभी": 4910,
      "क्सि": 4911,
      "विभागका": 4912,
      "विगतमा": 4913,
      "फायर": 4914,
      "विकासमा": 4915,
      "मानिन्छ": 4916,
      "सेन्": 4917,
      "शासक": 4918,
      "अन्ततः": 4919,
      "स्की": 4920,
      "संगीत": 4921,
      "मिल": 4922,
      "ब्बर": 4923,
      "देखाउन": 4924,
      "मिने": 4925,
      "षे": 4926,
      "बगैंचा": 4927,
      "बन": 4928,
      "स्टिक": 4929,
      "घरे": 4930,
      "धनको": 4931,
      "प्रतिवेद": 4932,
      "खाद्यान्न": 4933,
      "मुद्र": 4934,
      "मरे": 4935,
      "नवीकरण": 4936,
      "आण": 4937,
      "कमी": 4938,
      "कसित": 4939,
      "चका": 4940,
      "रेष्ट": 4941,
      "मूर्ति": 4942,
      "वाणी": 4943,
      "जला": 4944,
      "न्डे": 4945,
      "लिई": 4946,
      "ढाँचा": 4947,
      "सम्पदा": 4948,
      "मृत": 4949,
      "भनिएको": 4950,
      "परिवारका": 4951,
      "जर्म": 4952,
      "छान": 4953,
      "सकिँदैन": 4954,
      "दूध": 4955,
      "मोह": 4956,
      "हार्": 4957,
      "चाहन्छु": 4958,
      "२००८": 4959,
      "संयोजन": 4960,
      "थाल्यो": 4961,
      "शारी": 4962,
      "कोठामा": 4963,
      "ल्याण्ड": 4964,
      "नियमावली": 4965,
      "नगरेको": 4966,
      "गर्नुपर्नेछ": 4967,
      "शक्तिशाली": 4968,
      "डरा": 4969,
      "म्बु": 4970,
      "लेखन": 4971,
      "्रय": 4972,
      "शाल": 4973,
      "दलीय": 4974,
      "संस्थाले": 4975,
      "ढंग": 4976,
      "सत्त": 4977,
      "कार्यक्रमको": 4978,
      "पचा": 4979,
      "सहायता": 4980,
      "सन्धि": 4981,
      "पालन": 4982,
      "कामको": 4983,
      "बेल": 4984,
      "बाग": 4985,
      "मन्त्रिपरिषद्": 4986,
      "मेडिकल": 4987,
      "फोहोर": 4988,
      "डिसेम्बर": 4989,
      "आणविक": 4990,
      "विस्": 4991,
      "क्लिन्ट": 4992,
      "सल्लाहकार": 4993,
      "ओग": 4994,
      "वेदी": 4995,
      "गराएको": 4996,
      "लगाए": 4997,
      "म्य": 4998,
      "एपी": 4999,
      "३४": 5000,
      "हरुका": 5001,
      "जिल्लाका": 5002,
      "सूचीमा": 5003,
      "हुला": 5004,
      "धके": 5005,
      "विष्": 5006,
      "किता": 5007,
      "नेतृत्वको": 5008,
      "लागी": 5009,
      "रहँदा": 5010,
      "बंग": 5011,
      "अंग्रे": 5012,
      "इराकमा": 5013,
      "गाउ": 5014,
      "अस्तित्व": 5015,
      "शारीरिक": 5016,
      "प्रिमि": 5017,
      "झण्डा": 5018,
      "पिता": 5019,
      "म्याद": 5020,
      "समारोह": 5021,
      "स्वर्ग": 5022,
      "कर्ताको": 5023,
      "स्ने": 5024,
      "धू": 5025,
      "आवास": 5026,
      "कुराहरू": 5027,
      "विश्वा": 5028,
      "कका": 5029,
      "केश": 5030,
      "असो": 5031,
      "मार्ट": 5032,
      "ध्वनि": 5033,
      "श्रेणी": 5034,
      "तरकारी": 5035,
      "राष्टि": 5036,
      "बिजु": 5037,
      "अप्": 5038,
      "निवेदन": 5039,
      "संवेदनशील": 5040,
      "डलरमा": 5041,
      "बिया": 5042,
      "विशिष्ट": 5043,
      "भेला": 5044,
      "मानवअधिकार": 5045,
      "साक्षी": 5046,
      "संख्यक": 5047,
      "संगठन": 5048,
      "यनमा": 5049,
      "दोब्बर": 5050,
      "केटाकेटी": 5051,
      "बोलपत्र": 5052,
      "दिगो": 5053,
      "मूलक": 5054,
      "इजाजतपत्र": 5055,
      "घरेलु": 5056,
      "इराकी": 5057,
      "सङ्घ": 5058,
      "अत्यधिक": 5059,
      "सरो": 5060,
      "दिई": 5061,
      "सगरमा": 5062,
      "यान": 5063,
      "बहस": 5064,
      "नाक": 5065,
      "वेशन": 5066,
      "विकसित": 5067,
      "तपाईंले": 5068,
      "विनिमय": 5069,
      "विदेशमा": 5070,
      "नियन्त्रणमा": 5071,
      "मात्रामा": 5072,
      "राजाको": 5073,
      "जरिवाना": 5074,
      "सहकारी": 5075,
      "गर्यौं": 5076,
      "उत्साह": 5077,
      "स्वाभाविक": 5078,
      "ब्राउ": 5079,
      "एक्स": 5080,
      "सेप्टेम्बरमा": 5081,
      "३३": 5082,
      "क्ट": 5083,
      "डरलाग्दो": 5084,
      "विराटन": 5085,
      "चाहना": 5086,
      "छोराछोरी": 5087,
      "अत्या": 5088,
      "व्यस्त": 5089,
      "सहयोगी": 5090,
      "स्वस्थ": 5091,
      "नोक्सा": 5092,
      "यसैबीच": 5093,
      "द्रष्ट": 5094,
      "एनएनएनएन": 5095,
      "इले": 5096,
      "प्राध्यापक": 5097,
      "निरीक्षण": 5098,
      "आउँदा": 5099,
      "महिनाको": 5100,
      "खोजिरहेका": 5101,
      "सुख": 5102,
      "सृ": 5103,
      "दिन्छन्": 5104,
      "नबाट": 5105,
      "घटेको": 5106,
      "क्रस": 5107,
      "विपरी": 5108,
      "हिने": 5109,
      "उद्देश्यले": 5110,
      "ठेगा": 5111,
      "न्थ्यो": 5112,
      "तोकिए": 5113,
      "प्रती": 5114,
      "रूख": 5115,
      "बनाएका": 5116,
      "वान्": 5117,
      "अह": 5118,
      "सकेनन्": 5119,
      "एक्लै": 5120,
      "आन्दोलनको": 5121,
      "३८": 5122,
      "वाम": 5123,
      "निश्चय": 5124,
      "असम्भव": 5125,
      "सगरमाथा": 5126,
      "मेश": 5127,
      "कार्यरत": 5128,
      "अमेरिकाको": 5129,
      "उठाउन": 5130,
      "उद्धार": 5131,
      "जापा": 5132,
      "जित्न": 5133,
      "नभएका": 5134,
      "हिन्दू": 5135,
      "राष्ट्रको": 5136,
      "मध्यम": 5137,
      "पक्षले": 5138,
      "आकर्षित": 5139,
      "ललित": 5140,
      "सरकारमा": 5141,
      "निकासी": 5142,
      "झर": 5143,
      "विकासका": 5144,
      "माइक्रो": 5145,
      "माको": 5146,
      "टीको": 5147,
      "स्पर्श": 5148,
      "उपस्थित": 5149,
      "मन्त्रालयका": 5150,
      "पुष्": 5151,
      "भारी": 5152,
      "पानीको": 5153,
      "कता": 5154,
      "शाय": 5155,
      "कस्": 5156,
      "र्ा": 5157,
      "सफलता": 5158,
      "दानमा": 5159,
      "परमेश्वरले": 5160,
      "निषे": 5161,
      "अवरोध": 5162,
      "सरल": 5163,
      "झन्": 5164,
      "विच": 5165,
      "ष्म": 5166,
      "अनेक": 5167,
      "ब्रान्ड": 5168,
      "सहमत": 5169,
      "ब्रिटे": 5170,
      "प्रेरित": 5171,
      "एसियाली": 5172,
      "नाय": 5173,
      "चालक": 5174,
      "पदमा": 5175,
      "तौल": 5176,
      "सम्झनु": 5177,
      "पर्दो": 5178,
      "४८": 5179,
      "क्ष्": 5180,
      "काराग": 5181,
      "द्रष्टव्य": 5182,
      "कसले": 5183,
      "दिनेछ": 5184,
      "पट": 5185,
      "वर्षपछि": 5186,
      "मित्त": 5187,
      "विपरीत": 5188,
      "गरेनन्": 5189,
      "खानेपा": 5190,
      "ङ्ख": 5191,
      "ठेकेदार": 5192,
      "भित्रै": 5193,
      "आयोगको": 5194,
      "पौडेल": 5195,
      "टाउन": 5196,
      "शान्त": 5197,
      "निजामती": 5198,
      "मानिसको": 5199,
      "फोर्ड": 5200,
      "पुर्याउने": 5201,
      "स्वार्थ": 5202,
      "सुपर": 5203,
      "तुलना": 5204,
      "छैनौं": 5205,
      "पिल": 5206,
      "आँकडा": 5207,
      "बढि": 5208,
      "बताउँदै": 5209,
      "वादको": 5210,
      "पया": 5211,
      "इयो": 5212,
      "चन्द": 5213,
      "ऋतु": 5214,
      "थर": 5215,
      "मगर": 5216,
      "्रिक": 5217,
      "शीर्षक": 5218,
      "गरेकी": 5219,
      "मतदाता": 5220,
      "मुनि": 5221,
      "पब्": 5222,
      "शुद्ध": 5223,
      "भय": 5224,
      "३९": 5225,
      "विच्छेद": 5226,
      "पोस्ट": 5227,
      "ढिलो": 5228,
      "ब्याक": 5229,
      "अलग": 5230,
      "कृपया": 5231,
      "राजनीतिमा": 5232,
      "रव": 5233,
      "कर्मचारीको": 5234,
      "जुरी": 5235,
      "न्यूनतम": 5236,
      "निकुञ्": 5237,
      "पौडे": 5238,
      "न्टि": 5239,
      "उता": 5240,
      "गइरहेका": 5241,
      "न्ती": 5242,
      "न्यू": 5243,
      "शहरी": 5244,
      "नभएसम्म": 5245,
      "समायोजन": 5246,
      "एला": 5247,
      "ओछ्या": 5248,
      "दायी": 5249,
      "रिजा": 5250,
      "महिलाको": 5251,
      "ुत": 5252,
      "कास": 5253,
      "ब्जा": 5254,
      "हेर्नुहोस्": 5255,
      "किताब": 5256,
      "उँदछ": 5257,
      "बीसी": 5258,
      "AP": 5259,
      "एव": 5260,
      "नेताहरूले": 5261,
      "मूल्यमा": 5262,
      "संसद्": 5263,
      "बसेका": 5264,
      "जनाको": 5265,
      "त्यसका": 5266,
      "फिल्ड": 5267,
      "बाँध": 5268,
      "विश्वको": 5269,
      "मनमा": 5270,
      "राखी": 5271,
      "ग्ने": 5272,
      "इङ्ग": 5273,
      "पर्खा": 5274,
      "अर्थात": 5275,
      "परराष्ट्र": 5276,
      "प्रतिवेदनले": 5277,
      "पाठ्य": 5278,
      "प्रक्रियामा": 5279,
      "re": 5280,
      "भारतका": 5281,
      "रोय": 5282,
      "प्रवासी": 5283,
      "प्रतिभा": 5284,
      "२००४": 5285,
      "भान्": 5286,
      "बुट": 5287,
      "व्यवस्थित": 5288,
      "देखाएको": 5289,
      "बनाउनु": 5290,
      "पोलि": 5291,
      "पेट": 5292,
      "साइकल": 5293,
      "हजारौं": 5294,
      "तलब": 5295,
      "82": 5296,
      "कलाई": 5297,
      "ह्यान्ड": 5298,
      "र्ग": 5299,
      "दुर्व्यवहार": 5300,
      "थान": 5301,
      "भाँ": 5302,
      "प्रतिशतले": 5303,
      "पञ्चा": 5304,
      "छौँ": 5305,
      "३७": 5306,
      "क्षतिपूर्ति": 5307,
      "बहिनी": 5308,
      "IN": 5309,
      "हद": 5310,
      "सक्दा": 5311,
      "अल्प": 5312,
      "भीड": 5313,
      "चौधरी": 5314,
      "गर्नुअघि": 5315,
      "बाली": 5316,
      "कर्मचारीले": 5317,
      "सहयोगमा": 5318,
      "तिमीहरूले": 5319,
      "रही": 5320,
      "अभिनय": 5321,
      "मज": 5322,
      "अंग्रेजी": 5323,
      "चाहेको": 5324,
      "शायद": 5325,
      "कूटनीति": 5326,
      "अफ्रि": 5327,
      "धर": 5328,
      "्यौं": 5329,
      "चाहन्थे": 5330,
      "सहकार्य": 5331,
      "पठाउने": 5332,
      "अप्रत्या": 5333,
      "छोड्": 5334,
      "सेवामा": 5335,
      "सजिलै": 5336,
      "चट्टान": 5337,
      "गिराव": 5338,
      "घडी": 5339,
      "नदिने": 5340,
      "शत्रु": 5341,
      "पहिला": 5342,
      "उपलब्धि": 5343,
      "तपाईंको": 5344,
      "डिजि": 5345,
      "मोहन": 5346,
      "योजनामा": 5347,
      "श्रमिक": 5348,
      "विशाल": 5349,
      "साई": 5350,
      "चाहे": 5351,
      "भरपर्दो": 5352,
      "क्यु": 5353,
      "नायक": 5354,
      "सञ्चालनमा": 5355,
      "अवधारणा": 5356,
      "घाट": 5357,
      "माइल": 5358,
      "दददद": 5359,
      "अनौ": 5360,
      "कुकुर": 5361,
      "सधैं": 5362,
      "स्थाना": 5363,
      "उँदैन": 5364,
      "योजनाको": 5365,
      "इको": 5366,
      "ऐनको": 5367,
      "नारी": 5368,
      "उत्तम": 5369,
      "म्बार": 5370,
      "नया": 5371,
      "तिर्": 5372,
      "क्यामेरा": 5373,
      "याम": 5374,
      "स्मि": 5375,
      "प्रादेशिक": 5376,
      "करीब": 5377,
      "महोत्सव": 5378,
      "चढ": 5379,
      "पेशा": 5380,
      "रोक्": 5381,
      "उज्या": 5382,
      "कसैको": 5383,
      "शरणा": 5384,
      "चढा": 5385,
      "निरन्तरता": 5386,
      "दिंदै": 5387,
      "संकेत": 5388,
      "उनीहरुको": 5389,
      "अन्तरक्रिया": 5390,
      "बंगला": 5391,
      "जोशी": 5392,
      "संस्कार": 5393,
      "हालैको": 5394,
      "सूचका": 5395,
      "समयमै": 5396,
      "परिवारको": 5397,
      "द्रुत": 5398,
      "भन्छिन्": 5399,
      "सायद": 5400,
      "कल्या": 5401,
      "प्रदाय": 5402,
      "संविधानको": 5403,
      "खण्डमा": 5404,
      "झर्यो": 5405,
      "विवा": 5406,
      "गतिमा": 5407,
      "रेष्टु": 5408,
      "क्यान": 5409,
      "साइटमा": 5410,
      "विद्रोही": 5411,
      "सहितको": 5412,
      "धै": 5413,
      "संस्थान": 5414,
      "होस्ट": 5415,
      "सुरक्षाकर्मी": 5416,
      "वात": 5417,
      "खेत": 5418,
      "संख्यामा": 5419,
      "र्ट": 5420,
      "चेतना": 5421,
      "यौँ": 5422,
      "रिस": 5423,
      "त्तै": 5424,
      "टकीय": 5425,
      "बारम्बार": 5426,
      "ट्स": 5427,
      "पार्क": 5428,
      "शरणार्थी": 5429,
      "कोट": 5430,
      "ेपछि": 5431,
      "देखियो": 5432,
      "खतरा": 5433,
      "श्रृंखला": 5434,
      "शल्य": 5435,
      "गणेश": 5436,
      "बाघ": 5437,
      "बिरुवा": 5438,
      "४७": 5439,
      "निस्ता": 5440,
      "जापान": 5441,
      "जलविद्युत्": 5442,
      "गं": 5443,
      "नाई": 5444,
      "बलात्कार": 5445,
      "जू": 5446,
      "आन्दोलनमा": 5447,
      "खेलकुद": 5448,
      "६५": 5449,
      "निङ": 5450,
      "बेर": 5451,
      "जिम्मा": 5452,
      "श्रा": 5453,
      "दाहाल": 5454,
      "अनियमित": 5455,
      "सम्या": 5456,
      "तिब्": 5457,
      "तीको": 5458,
      "टेल": 5459,
      "बाहिरी": 5460,
      "एसपी": 5461,
      "स्थानान्तरण": 5462,
      "भाषामा": 5463,
      "स्वदेश": 5464,
      "छाला": 5465,
      "र्ति": 5466,
      "उनकी": 5467,
      "सक्दैनन्": 5468,
      "ग्ला": 5469,
      "स्ट्रे": 5470,
      "मनोरञ्": 5471,
      "अञ्चल": 5472,
      "ओल": 5473,
      "पारित": 5474,
      "निलम्बन": 5475,
      "बताएको": 5476,
      "चीनले": 5477,
      "माध": 5478,
      "अप्ठ": 5479,
      "भविष्यमा": 5480,
      "हप्": 5481,
      "त्यसबेला": 5482,
      "मानित": 5483,
      "झि": 5484,
      "जेन": 5485,
      "वस्तुको": 5486,
      "रूपले": 5487,
      "क्याम्पस": 5488,
      "हिट": 5489,
      "मापद": 5490,
      "भूमिमा": 5491,
      "दिनुहोस्": 5492,
      "डेभिड": 5493,
      "रहनेछ": 5494,
      "अप्रत्याशित": 5495,
      "वृत्त": 5496,
      "गित": 5497,
      "खोल्न": 5498,
      "बर्ट": 5499,
      "विम्ब": 5500,
      "मिलेर": 5501,
      "गोर्": 5502,
      "गरीब": 5503,
      "कल्याण": 5504,
      "समझ": 5505,
      "दायरा": 5506,
      "कर्मचारीलाई": 5507,
      "क्षिप्त": 5508,
      "राजीनामा": 5509,
      "समस्याको": 5510,
      "अब्": 5511,
      "महाधि": 5512,
      "कागज": 5513,
      "मापदण्ड": 5514,
      "अमेरिकाले": 5515,
      "समूहका": 5516,
      "डाउन": 5517,
      "बहुसंख्यक": 5518,
      "वक": 5519,
      "वर्षभन्दा": 5520,
      "दोहोर्या": 5521,
      "माइकल": 5522,
      "खडा": 5523,
      "इराक": 5524,
      "सेनाको": 5525,
      "घिमिरे": 5526,
      "अभिव्यक्ति": 5527,
      "खोजेको": 5528,
      "क्षेत्रलाई": 5529,
      "पश्चिमा": 5530,
      "जैविक": 5531,
      "अपा": 5532,
      "गराउनु": 5533,
      "राज्यले": 5534,
      "समूहको": 5535,
      "सोचे": 5536,
      "गन्तव्य": 5537,
      "उज्यालो": 5538,
      "म्बि": 5539,
      "ेरोजग": 5540,
      "गर्नेछन्": 5541,
      "चकित": 5542,
      "सुनु": 5543,
      "फ्रेन्च": 5544,
      "अवलोकन": 5545,
      "ताकि": 5546,
      "अभिग्रहण": 5547,
      "अविश्वास": 5548,
      "निकायको": 5549,
      "दक्षिणी": 5550,
      "शले": 5551,
      "्दै": 5552,
      "बालु": 5553,
      "सम्बद्ध": 5554,
      "मरण": 5555,
      "नवीन": 5556,
      "फ्रि": 5557,
      "परिवारलाई": 5558,
      "स्मार्ट": 5559,
      "मण्डल": 5560,
      "नक्क": 5561,
      "एवम्": 5562,
      "अभावमा": 5563,
      "४९": 5564,
      "२०१५": 5565,
      "सिलो": 5566,
      "लगाएका": 5567,
      "बुल": 5568,
      "सम्भवत": 5569,
      "वट": 5570,
      "संक्रमण": 5571,
      "डेढ": 5572,
      "कर्ताहरूले": 5573,
      "आतङ्क": 5574,
      "्यू": 5575,
      "ढंगले": 5576,
      "सक्थ्यो": 5577,
      "घाटन": 5578,
      "दले": 5579,
      "किनारा": 5580,
      "चक्र": 5581,
      "टिम": 5582,
      "शल्यक्रिया": 5583,
      "वव": 5584,
      "स्का": 5585,
      "अनुप्रयोग": 5586,
      "शाख": 5587,
      "कल्पिक": 5588,
      "कार्यविधि": 5589,
      "हजुर": 5590,
      "संयन्त्र": 5591,
      "इन्कर्पोरेटिड": 5592,
      "प्रेर": 5593,
      "ढिलाइ": 5594,
      "शेर्": 5595,
      "ओटा": 5596,
      "रानी": 5597,
      "सान्": 5598,
      "पुराना": 5599,
      "गुणा": 5600,
      "निमित्त": 5601,
      "दिनसम्म": 5602,
      "समितिमा": 5603,
      "युद्धको": 5604,
      "ह्वाइ": 5605,
      "ग्राम": 5606,
      "बैंकको": 5607,
      "बन्यो": 5608,
      "बन्दुक": 5609,
      "हिस्सा": 5610,
      "स्वीकृत": 5611,
      "मधेस": 5612,
      "ड्राइभ": 5613,
      "छाप": 5614,
      "विश्वका": 5615,
      "अफगानिस्ता": 5616,
      "चलन": 5617,
      "दुइ": 5618,
      "चाहिन्छ": 5619,
      "गायक": 5620,
      "सरकारका": 5621,
      "रोजगार": 5622,
      "कप्ता": 5623,
      "कुराकानी": 5624,
      "सुदृढ": 5625,
      "जापानी": 5626,
      "आफ्नी": 5627,
      "वातावरणीय": 5628,
      "नकारात्मक": 5629,
      "रास": 5630,
      "राति": 5631,
      "बाधा": 5632,
      "ग्रस्त": 5633,
      "महत्या": 5634,
      "ग्यारे": 5635,
      "प्रशिक्षक": 5636,
      "नागरिकता": 5637,
      "ये": 5638,
      "मरि": 5639,
      "क्लो": 5640,
      "हिमाल": 5641,
      "प्रतिको": 5642,
      "दगु": 5643,
      "केसी": 5644,
      "समयको": 5645,
      "उल्लङ्": 5646,
      "चोरी": 5647,
      "कारवाही": 5648,
      "किनकि": 5649,
      "व्यवसायीले": 5650,
      "बेरोजग": 5651,
      "मानवीय": 5652,
      "स्तम्भ": 5653,
      "लोकतान्त्रिक": 5654,
      "पाउनु": 5655,
      "चितवन": 5656,
      "अष्ट्रेलिया": 5657,
      "प्रतिवेदनमा": 5658,
      "मेयर": 5659,
      "बनाए": 5660,
      "इतिहासमा": 5661,
      "ब्रुअ": 5662,
      "खेलको": 5663,
      "आत्महत्या": 5664,
      "दलको": 5665,
      "यादवले": 5666,
      "आफन्त": 5667,
      "विष्णु": 5668,
      "बनायो": 5669,
      "ट्रयाक": 5670,
      "जका": 5671,
      "५५": 5672,
      "न्सले": 5673,
      "नाउँ": 5674,
      "घरको": 5675,
      "प्रहरीको": 5676,
      "मलेसिया": 5677,
      "ज्यादै": 5678,
      "प्रजातन्त्रको": 5679,
      "मुद्रण": 5680,
      "जनजाति": 5681,
      "अपहरण": 5682,
      "कासाथै": 5683,
      "राजतन्त्र": 5684,
      "ब्याङ्क": 5685,
      "रिजो": 5686,
      "भाषाको": 5687,
      "सेल": 5688,
      "बोकेर": 5689,
      "नेताहरू": 5690,
      "गर्नुको": 5691,
      "सङ्गठ": 5692,
      "अस्थायी": 5693,
      "सम्व": 5694,
      "शिकार": 5695,
      "ठेगाना": 5696,
      "अनुकूल": 5697,
      "पब्लिक": 5698,
      "घे": 5699,
      "निष्पक्ष": 5700,
      "होट": 5701,
      "राउन्ड": 5702,
      "नक्कली": 5703,
      "संस्थागत": 5704,
      "आश्वासन": 5705,
      "मला": 5706,
      "ीमा": 5707,
      "स्तरको": 5708,
      "सयौं": 5709,
      "गोरखा": 5710,
      "चर्च": 5711,
      "लक्ष्मी": 5712,
      "तिब्ब": 5713,
      "आफु": 5714,
      "भिन्नता": 5715,
      "चाड": 5716,
      "भ्": 5717,
      "राजाले": 5718,
      "पश्चा": 5719,
      "डिजिटल": 5720,
      "अग्रसर": 5721,
      "कहिलेकाहीं": 5722,
      "जर्ज": 5723,
      "देखिएका": 5724,
      "फोल्डर": 5725,
      "भन": 5726,
      "ट्राफिक": 5727,
      "असोज": 5728,
      "AN": 5729,
      "विधेय": 5730,
      "मारिएका": 5731,
      "मनोरञ्जन": 5732,
      "तिनको": 5733,
      "अञ्च": 5734,
      "लुगा": 5735,
      "अनुमतिपत्र": 5736,
      "आकर्षण": 5737,
      "ल्छन्": 5738,
      "देखेर": 5739,
      "राम्रोसँग": 5740,
      "विस्फो": 5741,
      "लाइट": 5742,
      "चोक": 5743,
      "ईमा": 5744,
      "दिउँ": 5745,
      "पन्थी": 5746,
      "भविष्यवाणी": 5747,
      "अंग": 5748,
      "सारा": 5749,
      "वैकल्पिक": 5750,
      "पराजित": 5751,
      "अस": 5752,
      "दिनुपर्छ": 5753,
      "टेलिफोन": 5754,
      "समझदारी": 5755,
      "हिँड": 5756,
      "रुपि": 5757,
      "उँछु": 5758,
      "४६": 5759,
      "अन्न": 5760,
      "मास": 5761,
      "फेसबु": 5762,
      "न्दर्य": 5763,
      "पङ्": 5764,
      "अनुरुप": 5765,
      "बहुमत": 5766,
      "लाग्न": 5767,
      "पस": 5768,
      "संक्षिप्त": 5769,
      "विराटनगर": 5770,
      "हुलाक": 5771,
      "श्व": 5772,
      "निस": 5773,
      "दीप": 5774,
      "भरमा": 5775,
      "विक्रम": 5776,
      "नमू": 5777,
      "दिँदै": 5778,
      "बिल": 5779,
      "अझ्": 5780,
      "प्याके": 5781,
      "जित्ने": 5782,
      "मेरी": 5783,
      "उपाधि": 5784,
      "संसारमा": 5785,
      "प्रेरणा": 5786,
      "बसे": 5787,
      "सुने": 5788,
      "छुट": 5789,
      "भाव्य": 5790,
      "पुरको": 5791,
      "तपाईँलाई": 5792,
      "्रु": 5793,
      "क्षेत्रबाट": 5794,
      "चाहनुहुन्छ": 5795,
      "दशैं": 5796,
      "निग": 5797,
      "राजधानीमा": 5798,
      "दाहिने": 5799,
      "स्वचालित": 5800,
      "सूचकाङ्क": 5801,
      "दार्": 5802,
      "भियत": 5803,
      "ट्रक": 5804,
      "रुचि": 5805,
      "व्यापारिक": 5806,
      "एकैसाथ": 5807,
      "जङ्ग": 5808,
      "स्पद": 5809,
      "पावर": 5810,
      "झापा": 5811,
      "मानिसले": 5812,
      "ंकर": 5813,
      "तैपनि": 5814,
      "सञ्झ्याल": 5815,
      "उड": 5816,
      "मारे": 5817,
      "कुश": 5818,
      "गोप्य": 5819,
      "हिसाबले": 5820,
      "अप्रिल": 5821,
      "पोषण": 5822,
      "तोष": 5823,
      "खड्का": 5824,
      "संस्थाप": 5825,
      "अधिकारको": 5826,
      "समूहमा": 5827,
      "सम्पादक": 5828,
      "निराशा": 5829,
      "उजुरी": 5830,
      "ंशिक": 5831,
      "दया": 5832,
      "क्याना": 5833,
      "पठाउन": 5834,
      "निर्माणमा": 5835,
      "दुबै": 5836,
      "प्रस्तावित": 5837,
      "प्रणालीमा": 5838,
      "प्राधिकरणले": 5839,
      "घटाउन": 5840,
      "नसके": 5841,
      "४२": 5842,
      "खोला": 5843,
      "वानी": 5844,
      "सुन्न": 5845,
      "पिट": 5846,
      "पुनरावृत्ति": 5847,
      "डिग्री": 5848,
      "कच्चा": 5849,
      "फले": 5850,
      "प्रतिविम्ब": 5851,
      "गञ्ज": 5852,
      "स्वरुप": 5853,
      "काङ्ग्रे": 5854,
      "१९७": 5855,
      "ँचो": 5856,
      "मुस्लिम": 5857,
      "सौन्दर्य": 5858,
      "उल्लङ्घन": 5859,
      "',": 5860,
      "अपमा": 5861,
      "तीमध्ये": 5862,
      "थालेपछि": 5863,
      "बिजुली": 5864,
      "सिर": 5865,
      "तिनीहरूको": 5866,
      "समाचारपत्र": 5867,
      "मसँग": 5868,
      "शम": 5869,
      "एकद": 5870,
      "समाजको": 5871,
      "उठाउने": 5872,
      "समुदायको": 5873,
      "सेनाले": 5874,
      "स्रोतले": 5875,
      "ारू": 5876,
      "महिलालाई": 5877,
      "हकमा": 5878,
      "सालको": 5879,
      "प्रतियोगितामा": 5880,
      "व्याज": 5881,
      "भोग्": 5882,
      "यनको": 5883,
      "गढी": 5884,
      "खुसी": 5885,
      "वक्तव्यमा": 5886,
      "आश्चर्यचकित": 5887,
      "यसबारे": 5888,
      "२०१७": 5889,
      "अन्यत्र": 5890,
      "यिनी": 5891,
      "उपहार": 5892,
      "खोज्न": 5893,
      "प्स": 5894,
      "भइरहेका": 5895,
      "आरो": 5896,
      "क्री": 5897,
      "कार्यालयका": 5898,
      "जनावर": 5899,
      "ण्डै": 5900,
      "फेब्रुअ": 5901,
      "चारै": 5902,
      "जिन": 5903,
      "नोक्": 5904,
      "जन्तु": 5905,
      "स्टार": 5906,
      "कर्णाली": 5907,
      "ओस्": 5908,
      "२००१": 5909,
      "२००३": 5910,
      "विदा": 5911,
      "बार्": 5912,
      "पारदर्": 5913,
      "जोडिएको": 5914,
      "हिउँ": 5915,
      "मुखी": 5916,
      "ङ्गी": 5917,
      "पुरस्कृत": 5918,
      "फैला": 5919,
      "सौदा": 5920,
      "अस्थिर": 5921,
      "जर्मन": 5922,
      "त्यसैगरी": 5923,
      "इमेल": 5924,
      "मानी": 5925,
      "विकृति": 5926,
      "सक्थे": 5927,
      "सकिएको": 5928,
      "स्टेसन": 5929,
      "माध्यमबाट": 5930,
      "खानेपानी": 5931,
      "महानगरपालिका": 5932,
      "OR": 5933,
      "कुमारी": 5934,
      "ंकन": 5935,
      "महिनाअघि": 5936,
      "उपे": 5937,
      "गर्दैनन्": 5938,
      "जागर": 5939,
      "क्लिनिक": 5940,
      "उदार": 5941,
      "पुग्दा": 5942,
      "वंश": 5943,
      "इट": 5944,
      "थाइ": 5945,
      "परिवारले": 5946,
      "संसदमा": 5947,
      "प्रहार": 5948,
      "दाऊ": 5949,
      "मेन": 5950,
      "लोकतन्त्र": 5951,
      "गौतम": 5952,
      "संगठित": 5953,
      "हृदय": 5954,
      "अंक": 5955,
      "पद्ध": 5956,
      "निकट": 5957,
      "श्याम": 5958,
      "३००": 5959,
      "सियत": 5960,
      "जेठ": 5961,
      "लिङ्क": 5962,
      "मणि": 5963,
      "सफ्टवेयर": 5964,
      "रेष्टुरेन्ट": 5965,
      "प्रष्ट": 5966,
      "प्राचीन": 5967,
      "विलियम": 5968,
      "महिनासम्म": 5969,
      "कांग्रेसले": 5970,
      "डब्लु": 5971,
      "हैसियत": 5972,
      "लेख्न": 5973,
      "च्यानल": 5974,
      "असामान्य": 5975,
      "दास": 5976,
      "बूढा": 5977,
      "तस्": 5978,
      "अदालतको": 5979,
      "महिलाले": 5980,
      "विद्युतीय": 5981,
      "गिरावट": 5982,
      "प्रतिविम्बित": 5983,
      "नृ": 5984,
      "दिष्ट": 5985,
      "देशलाई": 5986,
      "पुर्याउन": 5987,
      "गर्द": 5988,
      "युद्धमा": 5989,
      "आदिवासी": 5990,
      "खास्त": 5991,
      "ग्रीष्म": 5992,
      "निष्का": 5993,
      "विद्रोह": 5994,
      "राष्टि्रय": 5995,
      "न्थ": 5996,
      "कांग्रेसका": 5997,
      "सम्यान": 5998,
      "भन्यो": 5999,
      "पशुपति": 6000,
      "खरी": 6001,
      "घुम्": 6002,
      "पोखरी": 6003,
      "हुनुहुन्थ्यो": 6004,
      "तस": 6005,
      "राँ": 6006,
      "सभामुख": 6007,
      "त्रैमासिकमा": 6008,
      "आफै": 6009,
      "स्टाइ": 6010,
      "उन्नत": 6011,
      "गरिसकेको": 6012,
      "चाहन्छौं": 6013,
      "समृद्धि": 6014,
      "ज्यान": 6015,
      "उपभोग": 6016,
      "घृ": 6017,
      "तिको": 6018,
      "पाइल": 6019,
      "सन्तुलन": 6020,
      "निषेध": 6021,
      "सन्तोष": 6022,
      "जुमा": 6023,
      "हालसम्म": 6024,
      "वास्ता": 6025,
      "गरिए": 6026,
      "मुनाफा": 6027,
      "राजनीतिज्ञ": 6028,
      "सभामा": 6029,
      "पञ्च": 6030,
      "छोडे": 6031,
      "तन": 6032,
      "क्लिक": 6033,
      "चर्चित": 6034,
      "पुष्प": 6035,
      "ल्यु": 6036,
      "टाँसि": 6037,
      "राष्ट्रसंघीय": 6038,
      "कार्यको": 6039,
      "बलमा": 6040,
      "अनुप": 6041,
      "अधिकतम": 6042,
      "बनि": 6043,
      "परिमाण": 6044,
      "अमेरिकन": 6045,
      "एनआर": 6046,
      "साउदी": 6047,
      "इङ्गल्यान्ड": 6048,
      "रल": 6049,
      "किम": 6050,
      "होइनन्": 6051,
      "उद्घाटन": 6052,
      "गार्": 6053,
      "यसपटक": 6054,
      "हरुबाट": 6055,
      "देशले": 6056,
      "विद्यार्थीलाई": 6057,
      "पालना": 6058,
      "बन्दै": 6059,
      "भूइँ": 6060,
      "AR": 6061,
      "बेलायती": 6062,
      "आउट": 6063,
      "सरा": 6064,
      "तिनले": 6065,
      "कुरालाई": 6066,
      "पढ्ने": 6067,
      "नति": 6068,
      "मौन": 6069,
      "निर्वाचनमा": 6070,
      "ह्वाइट": 6071,
      "रक्त": 6072,
      "पूरै": 6073,
      "मोन": 6074,
      "भण्डारण": 6075,
      "क्सन": 6076,
      "तिकै": 6077,
      "प्रतिपक्षी": 6078,
      "आईपी": 6079,
      "लाग्दैन": 6080,
      "बर्ष": 6081,
      "पङ्क्ति": 6082,
      "नगरे": 6083,
      "खै": 6084,
      "मिल्ने": 6085,
      "उपर": 6086,
      "जान्द": 6087,
      "बोल्ने": 6088,
      "आंशिक": 6089,
      "निर्माणको": 6090,
      "नभएर": 6091,
      "राज्यमा": 6092,
      "UP": 6093,
      "हालैका": 6094,
      "छोडेर": 6095,
      "इमान्द": 6096,
      "राम्ररी": 6097,
      "संचालन": 6098,
      "उहाँलाई": 6099,
      "प्ने": 6100,
      "रहेछन्": 6101,
      "मिनेटमा": 6102,
      "जिया": 6103,
      "बजारको": 6104,
      "चामल": 6105,
      "स्ट्रो": 6106,
      "भ्रमणमा": 6107,
      "बानी": 6108,
      "संग्र": 6109,
      "अनुसूची": 6110,
      "ज्ञात": 6111,
      "बोल्दै": 6112,
      "प्रशासनले": 6113,
      "पर्खि": 6114,
      "जनाले": 6115,
      "तिहाई": 6116,
      "शौ": 6117,
      "विज": 6118,
      "गर्थे": 6119,
      "जाडो": 6120,
      "नोक्सान": 6121,
      "उडा": 6122,
      "बीमा": 6123,
      "प्रधानमन्त्रीको": 6124,
      "शोषण": 6125,
      "टीले": 6126,
      "छापा": 6127,
      "आएपछि": 6128,
      "स्कूल": 6129,
      "कार्यालयको": 6130,
      "चुनावमा": 6131,
      "मनले": 6132,
      "शर्माले": 6133,
      "संस्थापक": 6134,
      "कोक": 6135,
      "हात्ती": 6136,
      "जन्य": 6137,
      "जिङ": 6138,
      "कब्जा": 6139,
      "४४": 6140,
      "तहको": 6141,
      "प्रव": 6142,
      "राले": 6143,
      "सम्झना": 6144,
      "समर्थक": 6145,
      "पले": 6146,
      "परिच्छेद": 6147,
      "बनाउँछ": 6148,
      "नजिकको": 6149,
      "ुवा": 6150,
      "प्रको": 6151,
      "सिस": 6152,
      "शहरको": 6153,
      "बालबालिकालाई": 6154,
      "जोगा": 6155,
      "आश्र": 6156,
      "खुवा": 6157,
      "माथिको": 6158,
      "अर्ध": 6159,
      "सक्यो": 6160,
      "दिवस": 6161,
      "मोडल": 6162,
      "मार्ने": 6163,
      "प्रयासमा": 6164,
      "एजेन्ट": 6165,
      "ध्यारो": 6166,
      "अधिकारीहरू": 6167,
      "रस": 6168,
      "साहित्यिक": 6169,
      "टौं": 6170,
      "तिमा": 6171,
      "उत्पादनको": 6172,
      "असल": 6173,
      "सूत्र": 6174,
      "सायनिक": 6175,
      "अग्रणी": 6176,
      "प्रय": 6177,
      "लिरहेका": 6178,
      "महासंघ": 6179,
      "एजेन्सी": 6180,
      "कोर्": 6181,
      "तातो": 6182,
      "सुर्": 6183,
      "सिजन": 6184,
      "जनवरी": 6185,
      "सेटिङ": 6186,
      "दाहा": 6187,
      "लिन्": 6188,
      "निम्त्या": 6189,
      "साहन": 6190,
      "उत्पादनमा": 6191,
      "स्कु": 6192,
      "कामना": 6193,
      "रिरिरिरि": 6194,
      "परमेश्वरको": 6195,
      "बचाउन": 6196,
      "बोल्न": 6197,
      "आयोजक": 6198,
      "सूचक": 6199,
      "बराबरको": 6200,
      "कुरो": 6201,
      "परित्याग": 6202,
      "विश्वमा": 6203,
      "मातृ": 6204,
      "वित्त": 6205,
      "भोज": 6206,
      "तिमीहरूलाई": 6207,
      "कोरि": 6208,
      "तित": 6209,
      "सेवक": 6210,
      "स्वाद": 6211,
      "सिन्धु": 6212,
      "अङ्ग्रे": 6213,
      "अफि": 6214,
      "भएपनि": 6215,
      "लाइनमा": 6216,
      "भोट": 6217,
      "वालय": 6218,
      "हाउ": 6219,
      "२०१८": 6220,
      "स्टु": 6221,
      "तट": 6222,
      "नाच": 6223,
      "मैत्री": 6224,
      "बसाइ": 6225,
      "भावी": 6226,
      "घुँडा": 6227,
      "शेरबहादुर": 6228,
      "अलिक": 6229,
      "वत्": 6230,
      "्रै": 6231,
      "प्रयोजन": 6232,
      "दुख": 6233,
      "बनाई": 6234,
      "हालय": 6235,
      "लिइएको": 6236,
      "क्रु": 6237,
      "डाको": 6238,
      "पर्वत": 6239,
      "वश": 6240,
      "न्युयोर्": 6241,
      "नहुँदा": 6242,
      "रोज": 6243,
      "बोक्": 6244,
      "सरी": 6245,
      "बसिरहेका": 6246,
      "रद्द": 6247,
      "रुपयोग": 6248,
      "माध्यमिक": 6249,
      "४१": 6250,
      "र्फत": 6251,
      "उत्तिकै": 6252,
      "सन्तान": 6253,
      "जित्यो": 6254,
      "जून": 6255,
      "फत्": 6256,
      "दाजु": 6257,
      "गरिबी": 6258,
      "किरण": 6259,
      "मेसिन": 6260,
      "अन्तरि": 6261,
      "सक्त": 6262,
      "पसिना": 6263,
      "in": 6264,
      "दलले": 6265,
      "कान्ति": 6266,
      "अश्": 6267,
      "विघट": 6268,
      "तोकेको": 6269,
      "उमेरमा": 6270,
      "भोग": 6271,
      "स्टोन": 6272,
      "पठाएको": 6273,
      "घृणा": 6274,
      "नपा": 6275,
      "नीलो": 6276,
      "देखेका": 6277,
      "विस्थापित": 6278,
      "सरण": 6279,
      "गोल्ड": 6280,
      "वो": 6281,
      "हौं": 6282,
      "दुरुपयोग": 6283,
      "बेइ": 6284,
      "माझ": 6285,
      "लेखे": 6286,
      "ललाई": 6287,
      "सम्भाव्य": 6288,
      "शुभ": 6289,
      "आकर्षक": 6290,
      "मन्त्रालयको": 6291,
      "पौडेलले": 6292,
      "अनाव": 6293,
      "फको": 6294,
      "्दा": 6295,
      "पुत": 6296,
      "पक्षको": 6297,
      "कमजोरी": 6298,
      "काको": 6299,
      "होम": 6300,
      "उद्यमी": 6301,
      "एले": 6302,
      "प्रणालीको": 6303,
      "चिनिने": 6304,
      "पेर": 6305,
      "कांक्षा": 6306,
      "नोक्सानी": 6307,
      "व्यक्तित्व": 6308,
      "जीवी": 6309,
      "त्तर": 6310,
      "भ्य": 6311,
      "प्रविधिको": 6312,
      "न्यायिक": 6313,
      "मस्ति": 6314,
      "सक्छु": 6315,
      "जीले": 6316,
      "सभाको": 6317,
      "हेरे": 6318,
      "टर्स": 6319,
      "छानबिन": 6320,
      "दिउँसो": 6321,
      "यर्": 6322,
      "अनावश्यक": 6323,
      "निस्": 6324,
      "हिँ": 6325,
      "पूर्वनिर्धारित": 6326,
      "तसर्थ": 6327,
      "सुरक्षाको": 6328,
      "ल्का": 6329,
      "फर्केर": 6330,
      "हङ": 6331,
      "अनुसरण": 6332,
      "निर्दिष्ट": 6333,
      "अभिने": 6334,
      "वार्ताको": 6335,
      "्क": 6336,
      "२०१६": 6337,
      "हराएको": 6338,
      "सरोकार": 6339,
      "उचाइ": 6340,
      "ताली": 6341,
      "छायाँ": 6342,
      "अँध्यारो": 6343,
      "माधव": 6344,
      "१९६": 6345,
      "ईको": 6346,
      "मिया": 6347,
      "अर्थशास्त्र": 6348,
      "नमूना": 6349,
      "वन्य": 6350,
      "जुलु": 6351,
      "प्रिमियर": 6352,
      "मानिसलाई": 6353,
      "कारक": 6354,
      "आमाको": 6355,
      "दुःखी": 6356,
      "घोषित": 6357,
      "जनशक्ति": 6358,
      "कर्पोरेसन": 6359,
      "प्रशासनिक": 6360,
      "विपत्ति": 6361,
      "पप": 6362,
      "दिला": 6363,
      "अन्तर्र": 6364,
      "नामकरण": 6365,
      "ओबा": 6366,
      "आँधी": 6367,
      "पहे": 6368,
      "स्न": 6369,
      "गार्ड": 6370,
      "माइक": 6371,
      "बजा": 6372,
      "न्टी": 6373,
      "ल्याए": 6374,
      "परमप्रभुको": 6375,
      "कप्तान": 6376,
      "एप्प": 6377,
      "छरि": 6378,
      "भित्रको": 6379,
      "पर्खाल": 6380,
      "थले": 6381,
      "केडी": 6382,
      "यसकारण": 6383,
      "बिर्": 6384,
      "मस्तिष्": 6385,
      "माउ": 6386,
      "प्रोत्साहन": 6387,
      "इन्द्र": 6388,
      "देखिन्छन्": 6389,
      "दुर्लभ": 6390,
      "हेरेर": 6391,
      "शून्य": 6392,
      "रासायनिक": 6393,
      "बेस": 6394,
      "लुम्बि": 6395,
      "फिट": 6396,
      "कम्पनीका": 6397,
      "नराम्रो": 6398,
      "प्रधानमन्त्रीले": 6399,
      "कोषको": 6400,
      "मेला": 6401,
      "सावधानीपूर्वक": 6402,
      "इड": 6403,
      "तामाङ": 6404,
      "र्ण": 6405,
      "चीनमा": 6406,
      "स्रोतको": 6407,
      "कोरियाली": 6408,
      "आविष्": 6409,
      "विश्वस्त": 6410,
      "गिरी": 6411,
      "ज्यू": 6412,
      "ीले": 6413,
      "श्रील": 6414,
      "ढुंगा": 6415,
      "गैरसरकारी": 6416,
      "समानता": 6417,
      "सुस्त": 6418,
      "बाकस": 6419,
      "अन्तर्रर्ा": 6420,
      "PR": 6421,
      "आयोजनाको": 6422,
      "or": 6423,
      "असु": 6424,
      "खन": 6425,
      "नाल्": 6426,
      "समयदेखि": 6427,
      "राजनैतिक": 6428,
      "निकास": 6429,
      "ट्रय": 6430,
      "२०००": 6431,
      "उद्धरण": 6432,
      "भेट्न": 6433,
      "इन्जिनिय": 6434,
      "राज्यका": 6435,
      "शान्तिपूर्ण": 6436,
      "बिट": 6437,
      "तर्जुमा": 6438,
      "सनमा": 6439,
      "सातौं": 6440,
      "दम्प": 6441,
      "काव्य": 6442,
      "दानको": 6443,
      "क्व": 6444,
      "अगु": 6445,
      "कोटा": 6446,
      "मेगा": 6447,
      "आपसी": 6448,
      "दुर्भाग्य": 6449,
      "पुग्छ": 6450,
      "नृत्य": 6451,
      "मिसि": 6452,
      "न्ज": 6453,
      "चिन्त": 6454,
      "शय": 6455,
      "जन्मेका": 6456,
      "छोड्न": 6457,
      "अटो": 6458,
      "पला": 6459,
      "डियन": 6460,
      "नुको": 6461,
      "प्रार्थ": 6462,
      "पेक्ष": 6463,
      "समर्पित": 6464,
      "शेर्पा": 6465,
      "सरकारबाट": 6466,
      "सम्भवतः": 6467,
      "कैला": 6468,
      "लगि": 6469,
      "आत्मा": 6470,
      "भत्ता": 6471,
      "४३": 6472,
      "भरत": 6473,
      "भाँचि": 6474,
      "असमर्थ": 6475,
      "भित्": 6476,
      "समावे": 6477,
      "आदर्श": 6478,
      "रिपब्लिक": 6479,
      "ञ्चन": 6480,
      "उचा": 6481,
      "पछिल्ला": 6482,
      "रक्सी": 6483,
      "कान्छ": 6484,
      "सुरुवात": 6485,
      "टेन": 6486,
      "एकीकरण": 6487,
      "रमेश": 6488,
      "इनेछ": 6489,
      "लिको": 6490,
      "उँदो": 6491,
      "पार्दै": 6492,
      "कारिता": 6493,
      "रोकिएको": 6494,
      "पाइयो": 6495,
      "घटनाको": 6496,
      "वाहक": 6497,
      "बिर": 6498,
      "धुम्र": 6499,
      "भल": 6500,
      "सुवेदी": 6501,
      "वन्यजन्तु": 6502,
      "उड्": 6503,
      "मीको": 6504,
      "बाह्य": 6505,
      "नेस": 6506,
      "हिंसात्मक": 6507,
      "मैदान": 6508,
      "निकाल्न": 6509,
      "अभिनेत्री": 6510,
      "रिपोर्": 6511,
      "खोजे": 6512,
      "सामू": 6513,
      "लगत्तै": 6514,
      "एमालेले": 6515,
      "नुभएको": 6516,
      "सेके": 6517,
      "सहाय": 6518,
      "राखिएका": 6519,
      "सचिवालय": 6520,
      "इजराय": 6521,
      "असुरक्षित": 6522,
      "खुद्रा": 6523,
      "ज्यो": 6524,
      "बालबालिकाको": 6525,
      "पाइएको": 6526,
      "अभिलेख": 6527,
      "गौरव": 6528,
      "आविष्कार": 6529,
      "एट": 6530,
      "म्पिक": 6531,
      "लोमा": 6532,
      "ल्याउनु": 6533,
      "आयोगका": 6534,
      "उपत्यकामा": 6535,
      "खुद": 6536,
      "प्याले": 6537,
      "गह": 6538,
      "फ्लोरि": 6539,
      "न्सन": 6540,
      "पाप": 6541,
      "वैशाख": 6542,
      "आईसी": 6543,
      "गाउँले": 6544,
      "परिचित": 6545,
      "गोपाल": 6546,
      "ट्रप": 6547,
      "हङक": 6548,
      "परिमार्": 6549,
      "लेख्ने": 6550,
      "प्रतिशतभन्दा": 6551,
      "युवती": 6552,
      "तत्का": 6553,
      "पतन": 6554,
      "रहि": 6555,
      "जिते": 6556,
      "सूचीकृत": 6557,
      "काठमाडौंको": 6558,
      "भौगो": 6559,
      "कारागार": 6560,
      "ew": 6561,
      "आगमन": 6562,
      "UPI": 6563,
      "अभियोग": 6564,
      "जितेको": 6565,
      "किक": 6566,
      "गराई": 6567,
      "ल्यान्डमा": 6568,
      "लघु": 6569,
      "मोर": 6570,
      "चौकी": 6571,
      "तपाईंलाई": 6572,
      "परिवर्तनको": 6573,
      "CE": 6574,
      "जीको": 6575,
      "स्नातक": 6576,
      "अन्यथा": 6577,
      "वधि": 6578,
      "कियो": 6579,
      "रोबर्ट": 6580,
      "विवे": 6581,
      "पुगेर": 6582,
      "दिएपछि": 6583,
      "योग्यता": 6584,
      "डेको": 6585,
      "रोक्ने": 6586,
      "ठु": 6587,
      "दाइ": 6588,
      "पार्ट": 6589,
      "उं": 6590,
      "सघा": 6591,
      "बोट": 6592,
      "चिनी": 6593,
      "शेयर": 6594,
      "विज्ञप्तिमा": 6595,
      "मेह": 6596,
      "दिनुपर्ने": 6597,
      "पुस्तका": 6598,
      "अभियानमा": 6599,
      "इन्टरने": 6600,
      "शिविर": 6601,
      "सुरुआत": 6602,
      "चल्ने": 6603,
      "हौ": 6604,
      "पृष्ठभूमि": 6605,
      "क्रान्तिकारी": 6606,
      "छेउमा": 6607,
      "हदसम्म": 6608,
      "दाहालले": 6609,
      "काका": 6610,
      "रेलले": 6611,
      "विरोधमा": 6612,
      "रणनीतिक": 6613,
      "भौगोलिक": 6614,
      "किसा": 6615,
      "मीले": 6616,
      "नेपालीको": 6617,
      "घरबाट": 6618,
      "त्यतिबेला": 6619,
      "युनियन": 6620,
      "पञ्चायत": 6621,
      "विमानस्थलमा": 6622,
      "कांग्रेसको": 6623,
      "पाठक": 6624,
      "केडीई": 6625,
      "पल": 6626,
      "चार्ड": 6627,
      "फोरम": 6628,
      "यहाँको": 6629,
      "डेन": 6630,
      "अध्ययनले": 6631,
      "शिक्षाको": 6632,
      "स्पि": 6633,
      "प्रतिरोध": 6634,
      "बारा": 6635,
      "गाउँपालिका": 6636,
      "समाजका": 6637,
      "सुदूर": 6638,
      "कर्ण": 6639,
      "दगुरे": 6640,
      "आउँछन्": 6641,
      "नक्सा": 6642,
      "क्की": 6643,
      "वास्तव": 6644,
      "कुखु": 6645,
      "विश्वविद्यालयमा": 6646,
      "सर्वदा": 6647,
      "व्यक्तिहरू": 6648,
      "बाबुराम": 6649,
      "ंदैन": 6650,
      "५६": 6651,
      "फैलिएको": 6652,
      "प्रयत्न": 6653,
      "असार": 6654,
      "नजर": 6655,
      "बरमा": 6656,
      "राम्रा": 6657,
      "नसकिने": 6658,
      "साको": 6659,
      "साउन": 6660,
      "पश्चिममा": 6661,
      "समाजवादी": 6662,
      "ब्राजि": 6663,
      "जाग": 6664,
      "पर्ू": 6665,
      "यात्री": 6666,
      "संग्रहालय": 6667,
      "अड्": 6668,
      "वाक्य": 6669,
      "याको": 6670,
      "रियल": 6671,
      "व्यवसायिक": 6672,
      "रोगको": 6673,
      "किसिमका": 6674,
      "ब्यू": 6675,
      "गू": 6676,
      "राजेन्द्र": 6677,
      "er": 6678,
      "बिग्र": 6679,
      "एके": 6680,
      "य्": 6681,
      "७२": 6682,
      "सोध्": 6683,
      "जान्छन्": 6684,
      "छछ": 6685,
      "भएकी": 6686,
      "चलेको": 6687,
      "पार्टीमा": 6688,
      "दिइने": 6689,
      "नदीको": 6690,
      "फ्रान्स": 6691,
      "अचान": 6692,
      "सम्मि": 6693,
      "कोइरालाले": 6694,
      "विन्द": 6695,
      "चित्त": 6696,
      "सिधा": 6697,
      "वेला": 6698,
      "बोक्ने": 6699,
      "मार्क": 6700,
      "देख्ने": 6701,
      "इरान": 6702,
      "यहाँका": 6703,
      "सशक्त": 6704,
      "पुस्तकालय": 6705,
      "गरौं": 6706,
      "केन्द्रका": 6707,
      "टोलीको": 6708,
      "लाखौं": 6709,
      "हरूबीच": 6710,
      "संविधानमा": 6711,
      "लान्": 6712,
      "नाप": 6713,
      "दुईवटा": 6714,
      "पछिको": 6715,
      "मौसमी": 6716,
      "दिदी": 6717,
      "अन्वे": 6718,
      "उनीहरुलाई": 6719,
      "एड्": 6720,
      "उत्सव": 6721,
      "निर्वाह": 6722,
      "ट्सम्यान": 6723,
      "अचानक": 6724,
      "नपर्ने": 6725,
      "पाटी": 6726,
      "अर्कोतिर": 6727,
      "प्रभावशाली": 6728,
      "ओछ्यानमा": 6729,
      "सरह": 6730,
      "भान": 6731,
      "जमी": 6732,
      "बल्": 6733,
      "पश्चिमाञ्चल": 6734,
      "चारैतिर": 6735,
      "खरीद": 6736,
      "असहमति": 6737,
      "द्र्": 6738,
      "पुत्र": 6739,
      "मानिने": 6740,
      "माओवादीका": 6741,
      "खतर": 6742,
      "यहूदी": 6743,
      "द्विपक्षीय": 6744,
      "लम": 6745,
      "एलि": 6746,
      "मोरङ": 6747,
      "सर्भर": 6748,
      "इस्राएलका": 6749,
      "अज्ञात": 6750,
      "लक्षण": 6751,
      "दावी": 6752,
      "भट्टराईले": 6753,
      "ओलम्पिक": 6754,
      "चालय": 6755,
      "वासीय": 6756,
      "मूर्त": 6757,
      "अनुवाद": 6758,
      "उच्चस्तरीय": 6759,
      "धीन": 6760,
      "प्लास्टिक": 6761,
      "यसर्थ": 6762,
      "कैद": 6763,
      "जनकपुर": 6764,
      "बैङ्क": 6765,
      "रेग्": 6766,
      "उदय": 6767,
      "चाहिने": 6768,
      "खतरनाक": 6769,
      "सफाइ": 6770,
      "दरमा": 6771,
      "हाउस": 6772,
      "समध्ये": 6773,
      "२००२": 6774,
      "अङ्ग्रेजी": 6775,
      "ire": 6776,
      "स्विच": 6777,
      "रहित": 6778,
      "विलम्ब": 6779,
      "थिइन": 6780,
      "देखेको": 6781,
      "दिनँ": 6782,
      "परिषद्को": 6783,
      "यामा": 6784,
      "ञ्चित": 6785,
      "पुनराव": 6786,
      "पिक": 6787,
      "चालु": 6788,
      "ज्ञवा": 6789,
      "अर्थमन्त्री": 6790,
      "उपेक्षा": 6791,
      "प्रार्थना": 6792,
      "मस": 6793,
      "पाल्": 6794,
      "श्चित": 6795,
      "आवासीय": 6796,
      "हार्य": 6797,
      "डाँडा": 6798,
      "ब्यान्ड": 6799,
      "आश्चर्यजनक": 6800,
      "त्रो": 6801,
      "राजकुमार": 6802,
      "फेर": 6803,
      "शौचालय": 6804,
      "स्मरण": 6805,
      "विराज": 6806,
      "ह्यान्डल": 6807,
      "खासै": 6808,
      "प्याकेज": 6809,
      "देही": 6810,
      "बुसले": 6811,
      "प्रवक्ताले": 6812,
      "संवाददाता": 6813,
      "भल्": 6814,
      "गरेन": 6815,
      "धेरैले": 6816,
      "गठित": 6817,
      "प्टर": 6818,
      "५२": 6819,
      "शाक्य": 6820,
      "पल्": 6821,
      "ङ्कित": 6822,
      "लगातार": 6823,
      "सतह": 6824,
      "हुना": 6825,
      "फाउ": 6826,
      "अफ्रिक": 6827,
      "५८": 6828,
      "ल्चा": 6829,
      "उपयोगी": 6830,
      "बुस": 6831,
      "सम्मिलित": 6832,
      "सत्या": 6833,
      "व्यहो": 6834,
      "छी": 6835,
      "मैदानमा": 6836,
      "न्युज": 6837,
      "वासिङ्टन": 6838,
      "टेक्सा": 6839,
      "दिनभित्र": 6840,
      "अपरिहार्य": 6841,
      "वती": 6842,
      "हरुसँग": 6843,
      "उनीसँग": 6844,
      "टिस": 6845,
      "उठाएको": 6846,
      "विश्वविद्यालयका": 6847,
      "कन्फि": 6848,
      "आफैंले": 6849,
      "डुबा": 6850,
      "नतिजा": 6851,
      "अन्तरिम": 6852,
      "तस्क": 6853,
      "सरकारसँग": 6854,
      "महान": 6855,
      "फिल्ममा": 6856,
      "बुझ्ने": 6857,
      "जर्मनी": 6858,
      "भनाई": 6859,
      "भरिएको": 6860,
      "दृष्टिले": 6861,
      "सामूहिक": 6862,
      "धूलो": 6863,
      "ड्र": 6864,
      "सार्वभौ": 6865,
      "मर्या": 6866,
      "डीको": 6867,
      "पुगि": 6868,
      "महत्त्व": 6869,
      "नपाउने": 6870,
      "रहस्य": 6871,
      "अर्या": 6872,
      "ट्रिक": 6873,
      "घघ": 6874,
      "गरिसकेका": 6875,
      "मेट्रो": 6876,
      "डिन": 6877,
      "समुदायमा": 6878,
      "लव": 6879,
      "जनाएका": 6880,
      "रेमि": 6881,
      "ल्याएर": 6882,
      "बोध": 6883,
      "महंगो": 6884,
      "पूजाहारी": 6885,
      "गर्भव": 6886,
      "अना": 6887,
      "प्रतिफल": 6888,
      "साइड": 6889,
      "मोटरसाइकल": 6890,
      "/-": 6891,
      "हलमा": 6892,
      "शिशु": 6893,
      "छोरो": 6894,
      "वर्गी": 6895,
      "मनाउने": 6896,
      "७३ट": 6897,
      "टेटेटेटे": 6898,
      "सेन्टर": 6899,
      "NE": 6900,
      "New": 6901,
      "शरा": 6902,
      "गर्नेछौं": 6903,
      "हटाउने": 6904,
      "दाउ": 6905,
      "जेट": 6906,
      "इस्ला": 6907,
      "ठगी": 6908,
      "बताइन्": 6909,
      "झ्ा": 6910,
      "अला": 6911,
      "मं": 6912,
      "लेट": 6913,
      "पुँजी": 6914,
      "गुणस्तरीय": 6915,
      "व्यवसायमा": 6916,
      "हिमालय": 6917,
      "तापक्रम": 6918,
      "ध्रु": 6919,
      "न्यौ": 6920,
      "देख्नु": 6921,
      "सैन्य": 6922,
      "फ्रान्सि": 6923,
      "खपत": 6924,
      "रुचा": 6925,
      "बिर्स": 6926,
      "विश्वासी": 6927,
      "विषयवस्तु": 6928,
      "शोक": 6929,
      "देवता": 6930,
      "सिमाना": 6931,
      "उर्": 6932,
      "ृद्ध": 6933,
      "कुट": 6934,
      "भत्का": 6935,
      "महिलाहरू": 6936,
      "छलफ": 6937,
      "अष्": 6938,
      "नेन्द्र": 6939,
      "त्यसबाट": 6940,
      "फाँ": 6941,
      "विभागको": 6942,
      "नसक्दा": 6943,
      "काँग": 6944,
      "स्क्रि": 6945,
      "समाविष्ट": 6946,
      "बीस": 6947,
      "राख्छन्": 6948,
      "फर्कने": 6949,
      "वामा": 6950,
      "उमेरका": 6951,
      "SE": 6952,
      "तिनलाई": 6953,
      "सदस्यहरू": 6954,
      "रियन": 6955,
      "बिहा": 6956,
      "ट्री": 6957,
      "कफी": 6958,
      "लगाउनु": 6959,
      "निष्कासन": 6960,
      "गडा": 6961,
      "रहेकी": 6962,
      "रौ": 6963,
      "विभेद": 6964,
      "हरूमाथि": 6965,
      "घोडा": 6966,
      "पाएँ": 6967,
      "पाठ्यक्रम": 6968,
      "इन्जिनियर": 6969,
      "PRNew": 6970,
      "PRNewire": 6971,
      "जेने": 6972,
      "मरेका": 6973,
      "कथित": 6974,
      "रूसी": 6975,
      "मस्": 6976,
      "नाल्ड": 6977,
      "उस्तै": 6978,
      "दिँदा": 6979,
      "पानीमा": 6980,
      "५९": 6981,
      "बैंकिङ": 6982,
      "करा": 6983,
      "दायाँ": 6984,
      "युए": 6985,
      "५७": 6986,
      "काय": 6987,
      "त्यसकारण": 6988,
      "रुपले": 6989,
      "गठबन्धन": 6990,
      "इम": 6991,
      "ताल्चा": 6992,
      "फोटोग्रा": 6993,
      "आत्मनिर्भर": 6994,
      "४००": 6995,
      "भाँडा": 6996,
      "एनसी": 6997,
      "धुम्रपान": 6998,
      "://": 6999,
      "बज": 7000,
      "बुझि": 7001,
      "डाय": 7002,
      "दुर्गम": 7003,
      "दूतावास": 7004,
      "पहें": 7005,
      "मार्गदर्शन": 7006,
      "सिनेटर": 7007,
      "तत": 7008,
      "यरू": 7009,
      "न्सी": 7010,
      "वारे": 7011,
      "अञ्चलको": 7012,
      "छछघघ": 7013,
      "दवा": 7014,
      "७३टछछघघ": 7015,
      "सभ्य": 7016,
      "वर्षहरूमा": 7017,
      "फ्रेम": 7018,
      "कञ्चन": 7019,
      "हड्": 7020,
      "खोल्": 7021,
      "नौलो": 7022,
      "निजको": 7023,
      "रिचार्ड": 7024,
      "हुनसक्ने": 7025,
      "भोग्नु": 7026,
      "क्षय": 7027,
      "छोडि": 7028,
      "बीउ": 7029,
      "द्वीप": 7030,
      "पीएम": 7031,
      "शुरू": 7032,
      "कौ": 7033,
      "सरुवा": 7034,
      "ट्टी": 7035,
      "पाइप": 7036,
      "वास्तवमै": 7037,
      "उल्टो": 7038,
      "बहुदलीय": 7039,
      "बोर्डले": 7040,
      "काँग्रे": 7041,
      "खालको": 7042,
      "जेम्स": 7043,
      "एसएल": 7044,
      "एन्ज": 7045,
      "नस": 7046,
      "बक्स": 7047,
      "दरखास्त": 7048,
      "विघटन": 7049,
      "टोल": 7050,
      "दर्जा": 7051,
      "घरबार": 7052,
      "सहयोगको": 7053,
      "नामाकरण": 7054,
      "नरहेको": 7055,
      "अनिश्चित": 7056,
      "यात्रामा": 7057,
      "फाइनलमा": 7058,
      "लगइन": 7059,
      "अपमान": 7060,
      "बसाइँ": 7061,
      "ललितपुर": 7062,
      "आखि": 7063,
      "षड": 7064,
      "गर्नको": 7065,
      "पारेर": 7066,
      "सद्भावना": 7067,
      "पक्षलाई": 7068,
      "निरीक्षक": 7069,
      "समावेशी": 7070,
      "स्वे": 7071,
      "तीस": 7072,
      "जान्": 7073,
      "तरल": 7074,
      "पाउण्ड": 7075,
      "अधो": 7076,
      "रहेर": 7077,
      "हुनुभन्दा": 7078,
      "केन्द्रको": 7079,
      "विषयलाई": 7080,
      "परिवारमा": 7081,
      "एमालेका": 7082,
      "बाजा": 7083,
      "अले": 7084,
      "अद्वि": 7085,
      "रूद्ध": 7086,
      "गिरिजा": 7087,
      "्यारि": 7088,
      "बेहो": 7089,
      "पट्टि": 7090,
      "आक्रो": 7091,
      "रत्न": 7092,
      "सनको": 7093,
      "विषा": 7094,
      "उदाहरणका": 7095,
      "ट्युब": 7096,
      "दलाल": 7097,
      "शंकर": 7098,
      "प्रयोगमा": 7099,
      "मानिसहरूको": 7100,
      "डलरभन्दा": 7101,
      "ारि": 7102,
      "वामपन्थी": 7103,
      "अफ्रिकी": 7104,
      "लिङ्ग": 7105,
      "लार्": 7106,
      "अप्ठ्यारो": 7107,
      "गर्भवती": 7108,
      "मूलत": 7109,
      "मन्त्रालयमा": 7110,
      "सोचाइ": 7111,
      "बस्नु": 7112,
      "साहित्यकार": 7113,
      "तिर्न": 7114,
      "दिनपछि": 7115,
      "टाइम्स": 7116,
      "उद्योगमा": 7117,
      "UR": 7118,
      "म्यानमा": 7119,
      "८८": 7120,
      "शालामा": 7121,
      "सत्तामा": 7122,
      "पद्धति": 7123,
      "फड्": 7124,
      "ह्र": 7125,
      "मुद्दाको": 7126,
      "जनगणना": 7127,
      "पार्नु": 7128,
      "दृष्टा": 7129,
      "बस्छन्": 7130,
      "झरेको": 7131,
      "इन्डो": 7132,
      "ष्य": 7133,
      "सागर": 7134,
      "केहि": 7135,
      "देखिँदैन": 7136,
      "राख्दछ": 7137,
      "कस्मिक": 7138,
      "विचलित": 7139,
      "सुनुवाइ": 7140,
      "ँदैनन्": 7141,
      "संग्रह": 7142,
      "आयु": 7143,
      "गण्ड": 7144,
      "बराम": 7145,
      "बापत": 7146,
      "संगै": 7147,
      "लागेर": 7148,
      "कुटनीति": 7149,
      "ंगु": 7150,
      "ह्यु": 7151,
      "निकुञ्ज": 7152,
      "५१": 7153,
      "५को": 7154,
      "मृत्युको": 7155,
      "येशूले": 7156,
      "प्रशो": 7157,
      "पाका": 7158,
      "झू": 7159,
      "मनको": 7160,
      "देहायका": 7161,
      "बंगलादेश": 7162,
      "अग्लो": 7163,
      "नगर्न": 7164,
      "गोविन्द": 7165,
      "दृष्टान्त": 7166,
      "तल्ला": 7167,
      "लागु": 7168,
      "डेमो": 7169,
      "गतिशील": 7170,
      "सत्तारु": 7171,
      "हाले": 7172,
      "कोलम्": 7173,
      "काण्ड": 7174,
      "ड्या": 7175,
      "म्प्": 7176,
      "चाप": 7177,
      "प्रतिकूल": 7178,
      "उड्ड": 7179,
      "मदन": 7180,
      "हातह": 7181,
      "किन्न": 7182,
      "हारिक": 7183,
      "हेर्नु": 7184,
      "सत्तारुढ": 7185,
      "बलको": 7186,
      "याउने": 7187,
      "दिक": 7188,
      "सदस्यहरूले": 7189,
      "परिणामस्वरूप": 7190,
      "१९९०": 7191,
      "भक्तपुर": 7192,
      "यरूशले": 7193,
      "धातु": 7194,
      "डाटा": 7195,
      "खानी": 7196,
      "अलिकति": 7197,
      "वत": 7198,
      "सीडी": 7199,
      "पुनरावलोकन": 7200,
      "वस्था": 7201,
      "नेताले": 7202,
      "जनताका": 7203,
      "खोजिरहेको": 7204,
      "न्यौपा": 7205,
      "हातहतियार": 7206,
      "हेल": 7207,
      "पहेंलो": 7208,
      "जागिर": 7209,
      "विल्": 7210,
      "फर्किए": 7211,
      "इकाई": 7212,
      "७ग्": 7213,
      "ण्डी": 7214,
      "निर्माणका": 7215,
      "कम्पनीहरूले": 7216,
      "क्लिन्टन": 7217,
      "लामि": 7218,
      "टिएको": 7219,
      "बुँदा": 7220,
      "प्रहरीलाई": 7221,
      "मतलब": 7222,
      "प्रकोप": 7223,
      "हेक्टर": 7224,
      "पोखरेल": 7225,
      "अष्च": 7226,
      "दस्तु": 7227,
      "आग": 7228,
      "भीम": 7229,
      "कार्यान्वयनमा": 7230,
      "भुटायो": 7231,
      "च्याम्प": 7232,
      "प्वाल": 7233,
      "जेनेर": 7234,
      "तथ्यांक": 7235,
      "कूटनीतिक": 7236,
      "छात्र": 7237,
      "सोको": 7238,
      "लन्डन": 7239,
      "िया": 7240,
      "तात्": 7241,
      "अर्जे": 7242,
      "महतो": 7243,
      "अभिप्राय": 7244,
      "७ग्अष्च": 7245,
      "कपाल": 7246,
      "यहा": 7247,
      "लेले": 7248,
      "स्कुल": 7249,
      "प्रौ": 7250,
      "ल्याइएको": 7251,
      "वाँ": 7252,
      "उनीहरूसँग": 7253,
      "ज्ञानेन्द्र": 7254,
      "आठौं": 7255,
      "झन": 7256,
      "सेल्": 7257,
      "ग्राह": 7258,
      "टोलीका": 7259,
      "चलचित्रमा": 7260,
      "अन्वेषण": 7261,
      "स्तन": 7262,
      "लुट": 7263,
      "भारतबाट": 7264,
      "आरोपमा": 7265,
      "कार्यक्रमका": 7266,
      "जगे": 7267,
      "भ्रमणका": 7268,
      "गेट": 7269,
      "ठ्": 7270,
      "मुलुकका": 7271,
      "लुम्बिनी": 7272,
      "आक्रा": 7273,
      "खन्या": 7274,
      "पाउँ": 7275,
      "ध्याय": 7276,
      "गोर्खा": 7277,
      "अक्षम": 7278,
      "बित्तिकै": 7279,
      "सिंहले": 7280,
      "भगवान": 7281,
      "पत्रिकाको": 7282,
      "घटाउने": 7283,
      "ारोपण": 7284,
      "?\"": 7285,
      "क्वि": 7286,
      "हिन्दु": 7287,
      "बौद्धिक": 7288,
      "ड्रि": 7289,
      "स्कू": 7290,
      "चले": 7291,
      "बारी": 7292,
      "परिषद्ले": 7293,
      "मूलतः": 7294,
      "फमा": 7295,
      "पाट": 7296,
      "खेल्": 7297,
      "ल्यायो": 7298,
      "वर्क": 7299,
      "बुढा": 7300,
      "खोल्ने": 7301,
      "परिषद": 7302,
      "शासनको": 7303,
      "एकदमै": 7304,
      "गई": 7305,
      "ढका": 7306,
      "ध्यानमा": 7307,
      "१५०": 7308,
      "प्रोफाइल": 7309,
      "साध": 7310,
      "गाय": 7311,
      "एकाइ": 7312,
      "बच्न": 7313,
      "दूतावा": 7314,
      "खुल्ला": 7315,
      "स्र": 7316,
      "सङ्ग्रह": 7317,
      "प्यानल": 7318,
      "नदीमा": 7319,
      "राख्दै": 7320,
      "फेब्रुअरी": 7321,
      "आमाले": 7322,
      "विद्यालयको": 7323,
      "नक्": 7324,
      "निस्कि": 7325,
      "न्दी": 7326,
      "कृषक": 7327,
      "भूमिगत": 7328,
      "पन्त": 7329,
      "मकै": 7330,
      "वर्तित": 7331,
      "७ग्अष्चअस": 7332,
      "णु": 7333,
      "सुनको": 7334,
      "देशभरि": 7335,
      "पैठ": 7336,
      "उड्डयन": 7337,
      "कोशी": 7338,
      "रोटी": 7339,
      "हँ": 7340,
      "एकातिर": 7341,
      "आलोचनात्मक": 7342,
      "रोज्": 7343,
      "खिल": 7344,
      "महाधिवेशन": 7345,
      "पारदर्शी": 7346,
      "ङ्कमा": 7347,
      "बेन": 7348,
      "जुम्": 7349,
      "गुठी": 7350,
      "सर्वा": 7351,
      "ङ्कर": 7352,
      "सेकेन्ड": 7353,
      "बरामद": 7354,
      "गभर्": 7355,
      "ँगो": 7356,
      "त्वमा": 7357,
      "कर्पोरेट": 7358,
      "अचम्": 7359,
      "नवल": 7360,
      "सुशील": 7361,
      "समर्थित": 7362,
      "सान्त्व": 7363,
      "राप्र": 7364,
      "सकेसम्म": 7365,
      "आन्दोलनका": 7366,
      "822": 7367,
      "सिटी": 7368,
      "चाहिं": 7369,
      "जनतामा": 7370,
      "उल्लिखित": 7371,
      "प्रौढ": 7372,
      "छाडेर": 7373,
      "मध्यस्थ": 7374,
      "ओलीको": 7375,
      "मुना": 7376,
      "हुर्": 7377,
      "छाने": 7378,
      "सिनेट": 7379,
      "बाध्यता": 7380,
      "सिकागो": 7381,
      "लगायो": 7382,
      "ढङ्ग": 7383,
      "विधान": 7384,
      "स्थगित": 7385,
      "सदस्यले": 7386,
      "सिंगा": 7387,
      "सेन्स": 7388,
      "दर्ु": 7389,
      "यातना": 7390,
      "ंच": 7391,
      "ठहर": 7392,
      "यां": 7393,
      "उत्पादित": 7394,
      "बढाएको": 7395,
      "धरान": 7396,
      "ING": 7397,
      "एकेडे": 7398,
      "जन्मि": 7399,
      "दौडमा": 7400,
      "पिङ": 7401,
      "विद्यार्थीको": 7402,
      "राजविराज": 7403,
      "अभिनेता": 7404,
      "पुर्याएको": 7405,
      "प्रदायक": 7406,
      "वर्गीकरण": 7407,
      "खर्": 7408,
      "पाएपछि": 7409,
      "जग्गाको": 7410,
      "स्फी": 7411,
      "पाउँछन्": 7412,
      "देखायो": 7413,
      "पदार्थको": 7414,
      "सिमेन्ट": 7415,
      "तुरुन्त": 7416,
      "कान्तिपुर": 7417,
      "छनोट": 7418,
      "लगानीको": 7419,
      "दलहरू": 7420,
      "नँ": 7421,
      "प्रदर्शनी": 7422,
      "५४": 7423,
      "रिसा": 7424,
      "शरीरमा": 7425,
      "५३": 7426,
      "मिठा": 7427,
      "क्रिके": 7428,
      "मल्ल": 7429,
      "ौला": 7430,
      "निमन्त्र": 7431,
      "यसबाहेक": 7432,
      "विभाजित": 7433,
      "बार्सिलो": 7434,
      "प्राप्ति": 7435,
      "श्रोता": 7436,
      "रहन्छन्": 7437,
      "बैठकको": 7438,
      "डरले": 7439,
      "एन्टि": 7440,
      "थन": 7441,
      "गिउ": 7442,
      "प्रेमी": 7443,
      "खल": 7444,
      "बायाँ": 7445,
      "बोर्डमा": 7446,
      "सिलसि": 7447,
      "अगस्टमा": 7448,
      "भल्भ": 7449,
      "जेनेरल": 7450,
      "असक्षम": 7451,
      "धनु": 7452,
      "प्रवि": 7453,
      "दाँ": 7454,
      "नेताहरु": 7455,
      "पुनरावेदन": 7456,
      "विस": 7457,
      "लिन्छन्": 7458,
      "न्यानो": 7459,
      "विरुद्धको": 7460,
      "उहां": 7461,
      "id": 7462,
      "खरै": 7463,
      "केसीले": 7464,
      "ण्डि": 7465,
      "द्धारा": 7466,
      "आतंकवादी": 7467,
      "शमशेर": 7468,
      "वनमा": 7469,
      "विरूद्ध": 7470,
      "न्छु": 7471,
      "मेट": 7472,
      "संसदको": 7473,
      "अक्टोबरमा": 7474,
      "चल्": 7475,
      "सुन्ने": 7476,
      "इलेक्": 7477,
      "सक्तैन": 7478,
      "गइ": 7479,
      "सुत्": 7480,
      "भित्री": 7481,
      "दिइनेछ": 7482,
      "प्रस्तुति": 7483,
      "अा": 7484,
      "नगरपालिकाका": 7485,
      "अपराधी": 7486,
      "जरा": 7487,
      "प्रस्ट": 7488,
      "पाँचौ": 7489,
      "संविधानले": 7490,
      "ER": 7491,
      "लेन्स": 7492,
      "पर्सा": 7493,
      "त्यहा": 7494,
      "रोल्पा": 7495,
      "सार्क": 7496,
      "स्टाइनी": 7497,
      "कोर": 7498,
      "ब्ला": 7499,
      "एनए": 7500,
      "देखाउनुहोस्": 7501,
      "छोड्ने": 7502,
      "पाकिस्तानी": 7503,
      "वर्षका": 7504,
      "उपाध्याय": 7505,
      "जोड्ने": 7506,
      "बन्दे": 7507,
      "जीवनशैली": 7508,
      "वर्गीय": 7509,
      "मन्दिरमा": 7510,
      "सार्न": 7511,
      "मोटो": 7512,
      "बोल्": 7513,
      "२०१४": 7514,
      "मुद्रास्फी": 7515,
      "भण्डारीले": 7516,
      "उनीहरूका": 7517,
      "गराएका": 7518,
      "न्युयोर्कमा": 7519,
      "चल्छ": 7520,
      "नरेन्द्र": 7521,
      "विद्यार्थीले": 7522,
      "चेक": 7523,
      "वद्ध": 7524,
      "टेलिकम": 7525,
      "म्यारी": 7526,
      "लारी": 7527,
      "गोष्ठ": 7528,
      "तीनवटा": 7529,
      "निकायमा": 7530,
      "एमालेको": 7531,
      "वासिङटन": 7532,
      "सङ्कलन": 7533,
      "पढाइ": 7534,
      "on": 7535,
      "आरोह": 7536,
      "दमन": 7537,
      "६२": 7538,
      "यसैले": 7539,
      "महत्वा": 7540,
      "पंक्ति": 7541,
      "एडवार्ड": 7542,
      "स्त्री": 7543,
      "पार्नुहोस्": 7544,
      "ढल": 7545,
      "पुतली": 7546,
      "क्रू": 7547,
      "नगरपालिकाको": 7548,
      "पचास": 7549,
      "ज्योति": 7550,
      "बटन": 7551,
      "रुत्": 7552,
      "अनुभूति": 7553,
      "छाती": 7554,
      "ढुवानी": 7555,
      "दोहोरो": 7556,
      "यहूदा": 7557,
      "अझ्ै": 7558,
      "स्न्या": 7559,
      "भेग": 7560,
      "फैसला": 7561,
      "निमन्त्रणा": 7562,
      "अभावले": 7563,
      "महसुल": 7564,
      "इलाका": 7565,
      "पेट्रोलियम": 7566,
      "अद्वितिय": 7567,
      "बाख": 7568,
      "डाइरे": 7569,
      "पिउने": 7570,
      "ब्रह्": 7571,
      "हेड": 7572,
      "ण्डित": 7573,
      "वनस्प": 7574,
      "बाँच्न": 7575,
      "गिउलिया": 7576,
      "सनीय": 7577,
      "रोगी": 7578,
      "स्वर": 7579,
      "दिनअघि": 7580,
      "साम्रा": 7581,
      "भदौ": 7582,
      "स्थानको": 7583,
      "कानुनको": 7584,
      "ट्रेड": 7585,
      "सान्त्वना": 7586,
      "गर्नबाट": 7587,
      "जोडी": 7588,
      "स्लाइ": 7589,
      "सास": 7590,
      "सिल्": 7591,
      "फिलिपि": 7592,
      "अत्याव": 7593,
      "लेखेका": 7594,
      "सीका": 7595,
      "खाले": 7596,
      "लगे": 7597,
      "सङ्कट": 7598,
      "पैठारी": 7599,
      "ञ्छ": 7600,
      "बढीमा": 7601,
      "पहिरन": 7602,
      "फेसन": 7603,
      "भोक": 7604,
      "मिर": 7605,
      "साथमा": 7606,
      "बन्दर": 7607,
      "परीक्षामा": 7608,
      "बिन्दुमा": 7609,
      "केन्या": 7610,
      "शब्दको": 7611,
      "अत्यन्तै": 7612,
      "कारको": 7613,
      "रेश": 7614,
      "भएदेखि": 7615,
      "बिरा": 7616,
      "प्रतियोगिताको": 7617,
      "विन्दु": 7618,
      "दैछ": 7619,
      "नेपालीले": 7620,
      "काँध": 7621,
      "अमूर्त": 7622,
      "हतार": 7623,
      "दिया": 7624,
      "रहेकाले": 7625,
      "कैदी": 7626,
      "इन्स": 7627,
      "चुरो": 7628,
      "मालि": 7629,
      "भइसकेका": 7630,
      "आइरहेको": 7631,
      "दिन्छु": 7632,
      "न्सको": 7633,
      "प्रतिमा": 7634,
      "समतल": 7635,
      "सिक्न": 7636,
      "बेपत्ता": 7637,
      "अधिवेशन": 7638,
      "्नुहोस्": 7639,
      "घरबारविहीन": 7640,
      "टोलीमा": 7641,
      "प्रचण्डले": 7642,
      "लहर": 7643,
      "निर्णा": 7644,
      "बनाउँदै": 7645,
      "कारोबारमा": 7646,
      "भरी": 7647,
      "विद्यालयका": 7648,
      "कं": 7649,
      "प्रविष्ट": 7650,
      "सहकर्मी": 7651,
      "टरमा": 7652,
      "संस्थाका": 7653,
      "निरपेक्ष": 7654,
      "अङ्ग": 7655,
      "िम": 7656,
      "समात्न": 7657,
      "जुत्ता": 7658,
      "लरले": 7659,
      "गन्ध": 7660,
      "गुम्बा": 7661,
      "लैजाने": 7662,
      "बाँड": 7663,
      "लियत": 7664,
      "निर्दोष": 7665,
      "जोर": 7666,
      "यार": 7667,
      "सेवन": 7668,
      "वैत": 7669,
      "भ्रम": 7670,
      "एल्बम": 7671,
      "ुर्ुर्ुर्ुर्ुर्ुर्ुर्ुर्ुर्ुर्ुर्ुर्ुर्ुर्ुर्ुर्ुर्ुर्ुर्ुर्ुर्ुर्ुर्ुर्ुर्ुर्ुर्ुर्ुर्ुर्ुर्ुर्": 7672,
      "क्सिको": 7673,
      "बत्ती": 7674,
      "छिन": 7675,
      "केन्द्रले": 7676,
      "चरम": 7677,
      "ङका": 7678,
      "क्वे": 7679,
      "दुष्ट": 7680,
      "प्रदर्शनकारी": 7681,
      "सेयरधनी": 7682,
      "निराश": 7683,
      "सिए": 7684,
      "वीरेन्द्र": 7685,
      "मिश्रित": 7686,
      "समारोहमा": 7687,
      "कष्ट": 7688,
      "जम्": 7689,
      "षित": 7690,
      "८५": 7691,
      "न्का": 7692,
      "नुभन्दा": 7693,
      "फार्": 7694,
      "मन्त्रीले": 7695,
      "मानिसहरु": 7696,
      "काउन्टी": 7697,
      "एनएनएनएनएनएनएनएन": 7698,
      "न्यौपाने": 7699,
      "ेल": 7700,
      "देखिए": 7701,
      "करणको": 7702,
      "सम्झ्": 7703,
      "दूरी": 7704,
      "वर्गमा": 7705,
      "दिशामा": 7706,
      "बन्दरगाह": 7707,
      "६१": 7708,
      "औचि": 7709,
      "जम": 7710,
      "म्यु": 7711,
      "रक": 7712,
      "सिपा": 7713,
      "वर्षभित्र": 7714,
      "बाह्र": 7715,
      "ग्यारेन्टी": 7716,
      "दीपक": 7717,
      "संस्थालाई": 7718,
      "सम्पत्तिको": 7719,
      "कठिनाइ": 7720,
      "अन्तर्रर्ाट्रय": 7721,
      "बढ्नु": 7722,
      "ण्डर": 7723,
      "डोनाल्ड": 7724,
      "कुखुरा": 7725,
      "गण्डकी": 7726,
      "an": 7727,
      "निर्मित": 7728,
      "अमर": 7729,
      "न्टो": 7730,
      "मोशा": 7731,
      "उत्साहित": 7732,
      "जोखिममा": 7733,
      "इटालियन": 7734,
      "दस्तुर": 7735,
      "हुनुको": 7736,
      "सदस्यको": 7737,
      "विभागमा": 7738,
      "उद्योगको": 7739,
      "प्रतिस्पर्धात्मक": 7740,
      "मिल्दैन": 7741,
      "ंस": 7742,
      "प्रजन": 7743,
      "भएकोमा": 7744,
      "बाक्लो": 7745,
      "अधिकारीको": 7746,
      "शहरका": 7747,
      "वसन्त": 7748,
      "तीर्थ": 7749,
      "आँसु": 7750,
      "मामिला": 7751,
      "छेउ": 7752,
      "भेदभाव": 7753,
      "िकरण": 7754,
      "रोचक": 7755,
      "देखिन": 7756,
      "बेवास्ता": 7757,
      "डेल्": 7758,
      "भ्रमणको": 7759,
      "किसिमले": 7760,
      "अर्थतन्त्रमा": 7761,
      "अंशको": 7762,
      "बखत": 7763,
      "सँ": 7764,
      "काला": 7765,
      "सम्मका": 7766,
      "अधिलेखन": 7767,
      "दलहरूले": 7768,
      "भर्खरै": 7769,
      "प्रशंसक": 7770,
      "विश्वासको": 7771,
      "स्वदेशी": 7772,
      "परिमार्जन": 7773,
      "न्मुख": 7774,
      "सुक": 7775,
      "ग्रन्थ": 7776,
      "बीएस": 7777,
      "नागरिकको": 7778,
      "समर्पण": 7779,
      "सेर": 7780,
      "जनमत": 7781,
      "परामर्शदाता": 7782,
      "कम्युनिस्ट": 7783,
      "ब्यूरो": 7784,
      "अत्यावश्यक": 7785,
      "मिलि": 7786,
      "अनौपचारिक": 7787,
      "सहि": 7788,
      "ण्ण्": 7789,
      "साम्राज्य": 7790,
      "लीका": 7791,
      "आखिर": 7792,
      "झगडा": 7793,
      "रिहा": 7794,
      "सिँ": 7795,
      "कीर्ति": 7796,
      "सौर्य": 7797,
      "सक्नुहुन्न": 7798,
      "ड्रो": 7799,
      "९९": 7800,
      "सुम्पि": 7801,
      "स्थायि": 7802,
      "सडकको": 7803,
      "राष्ट्रपतिको": 7804,
      "गाविसमा": 7805,
      "स्वाय": 7806,
      "पदक": 7807,
      "00": 7808,
      "अडियो": 7809,
      "जमिन": 7810,
      "बित": 7811,
      "बाबा": 7812,
      "चित्रण": 7813,
      "प्रतिक्षा": 7814,
      "बैंकका": 7815,
      "हिरास": 7816,
      "पर्यटकीय": 7817,
      "शव": 7818,
      "मार्फत्": 7819,
      "दिइरहेको": 7820,
      "महिनापछि": 7821,
      "इस्लामिक": 7822,
      "वाल्": 7823,
      "खनाल": 7824,
      "डेरी": 7825,
      "तका": 7826,
      "कोषमा": 7827,
      "नित": 7828,
      "सता": 7829,
      "७६": 7830,
      "सेवाका": 7831,
      "पारेका": 7832,
      "ब्याज": 7833,
      "काउ": 7834,
      "सरसफाइ": 7835,
      "निर्णायक": 7836,
      "साढे": 7837,
      "वैद्य": 7838,
      "दर्जनौं": 7839,
      "बायो": 7840,
      "मेक्सिको": 7841,
      "विश्वकप": 7842,
      "इमान्दार": 7843,
      "अधोरे": 7844,
      "भिक": 7845,
      "वचन": 7846,
      "बैंकमा": 7847,
      "प्रतीक": 7848,
      "बालुवा": 7849,
      "”,": 7850,
      "समुदायलाई": 7851,
      "हिरासतमा": 7852,
      "अधोरेखित": 7853,
      "दिरा": 7854,
      "भाउ": 7855,
      "ग्रही": 7856,
      "देउवाले": 7857,
      "भरे": 7858,
      "बाद": 7859,
      "बीबीसी": 7860,
      "बालक": 7861,
      "भर्जि": 7862,
      "स्वायत्त": 7863,
      "विश्रा": 7864,
      "आदान": 7865,
      "चमा": 7866,
      "पुस": 7867,
      "केहीले": 7868,
      "लौ": 7869,
      "अन्या": 7870,
      "जन्मा": 7871,
      "ईश्वर": 7872,
      "बले": 7873,
      "ट्वी": 7874,
      "वर्गको": 7875,
      "साइज": 7876,
      "अर्कालाई": 7877,
      "पुछ": 7878,
      "आन्दोलनलाई": 7879,
      "ग्याँ": 7880,
      "दुर्गा": 7881,
      "युवराज": 7882,
      "होल": 7883,
      "वातावरणमा": 7884,
      "वास्तविकता": 7885,
      "मजदुर": 7886,
      "आरोहण": 7887,
      "बिहे": 7888,
      "पैदा": 7889,
      "अर्थमा": 7890,
      "असन्तुष्ट": 7891,
      "इं": 7892,
      "जित्": 7893,
      "सकिएन": 7894,
      "लाग्दा": 7895,
      "खोज्दा": 7896,
      "सोच्न": 7897,
      "औचित्य": 7898,
      "औषधिको": 7899,
      "डम्": 7900,
      "पाहुना": 7901,
      "कार्यक्रमलाई": 7902,
      "पारिश्रमिक": 7903,
      "बेरोजगार": 7904,
      "पर्खिरहेका": 7905,
      "तस्करी": 7906,
      "आस्था": 7907,
      "गाडीमा": 7908,
      "मिस": 7909,
      "भरका": 7910,
      "हिन्दी": 7911,
      "क्ष्ँ": 7912,
      "प्यालेस्टाइनी": 7913,
      "आक्रामक": 7914,
      "चाँदी": 7915,
      "नानी": 7916,
      "नामको": 7917,
      "आप्रवासी": 7918,
      "पारिएको": 7919,
      "कर्ताले": 7920,
      "सदस्यीय": 7921,
      "मुटुको": 7922,
      "द्र्धन": 7923,
      "बाख्रा": 7924,
      "नभएकाले": 7925,
      "रजि": 7926,
      "लड्न": 7927,
      "दुईजना": 7928,
      "बृह": 7929,
      "परिसर": 7930,
      "आफैंलाई": 7931,
      "चुनावको": 7932,
      "छवटा": 7933,
      "डेका": 7934,
      "देब्रे": 7935,
      "त्यहाँबाट": 7936,
      "एमाओवादी": 7937,
      "६८": 7938,
      "खालका": 7939,
      "राईले": 7940,
      "घण्टी": 7941,
      "ट्रम्पले": 7942,
      "खनिज": 7943,
      "थारु": 7944,
      "७८": 7945,
      "९५": 7946,
      "टरको": 7947,
      "समुदायका": 7948,
      "ँदैछ": 7949,
      "सिनेमा": 7950,
      "अख": 7951,
      "कही": 7952,
      "सिक्ने": 7953,
      "सक्दैनौं": 7954,
      "फलफूल": 7955,
      "बुझ्नु": 7956,
      "दिइन्छ": 7957,
      "विश्वविद्यालयको": 7958,
      "ओगटेको": 7959,
      "अनुमानित": 7960,
      "स्ट्रिट": 7961,
      "इन्जिनियरिङ": 7962,
      "हटाइ": 7963,
      "प्रकाशक": 7964,
      "पुगेपछि": 7965,
      "बढिरहेको": 7966,
      "शैलीमा": 7967,
      "अपाङ्ग": 7968,
      "दाऊद": 7969,
      "अर्जेन्टि": 7970,
      "वर्ड": 7971,
      "सबैमा": 7972,
      "शिक्ष": 7973,
      "विराम": 7974,
      "कुम": 7975,
      "गर्नेछु": 7976,
      "नीतिको": 7977,
      "प्रचलन": 7978,
      "क्सले": 7979,
      "लगाई": 7980,
      "बस्नेत": 7981,
      "उसका": 7982,
      "जता": 7983,
      "टाउने": 7984,
      "डीमा": 7985,
      "आक्रमणको": 7986,
      "दिइरहेका": 7987,
      "श्रृङ्ख": 7988,
      "अवश्य": 7989,
      "न्ध्र": 7990,
      "निश": 7991,
      "सापे": 7992,
      "जुनमा": 7993,
      "स्कटल्यान्ड": 7994,
      "मान्न": 7995,
      "टायर": 7996,
      "दुर्घटनामा": 7997,
      "परिवेश": 7998,
      "बढुवा": 7999,
      "सुदृढी": 8000,
      "मधुमेह": 8001,
      "हले": 8002,
      "भनें": 8003,
      "भएँ": 8004,
      "ब्लक": 8005,
      "समाजले": 8006,
      "फर्किने": 8007,
      "नसक्नु": 8008,
      "वाङ": 8009,
      "क्ष्य": 8010,
      "सिरिया": 8011,
      "वर्ती": 8012,
      "स्वच्छ": 8013,
      "स्थलको": 8014,
      "साँघु": 8015,
      "गर्भपतन": 8016,
      "आश्रय": 8017,
      "ाा": 8018,
      "८००": 8019,
      "चेस्टर": 8020,
      "राजालाई": 8021,
      "त्यहाँका": 8022,
      "कमै": 8023,
      "व्यवस्थाको": 8024,
      "तहका": 8025,
      "प्याक": 8026,
      "ज्याक": 8027,
      "मर्ने": 8028,
      "भूइँमा": 8029,
      "राप्रपा": 8030,
      "याले": 8031,
      "रोक": 8032,
      "तयारीमा": 8033,
      "च्यु": 8034,
      "विदेशमन्त्री": 8035,
      "७१": 8036,
      "न्देही": 8037,
      "गरेकाले": 8038,
      "चरणको": 8039,
      "संकटकाल": 8040,
      "देख्दा": 8041,
      "प्यारा": 8042,
      "प्रशोधन": 8043,
      "भर्जिनिया": 8044,
      "जानेछ": 8045,
      "नोद": 8046,
      "सम्झौतामा": 8047,
      "व्यावहारिक": 8048,
      "वैतनिक": 8049,
      "स्थायित्व": 8050,
      "लाका": 8051,
      "खाँ": 8052,
      "लैजान": 8053,
      "मोर्चाका": 8054,
      "अपिल": 8055,
      "ऋषि": 8056,
      "तालि": 8057,
      "अनुसारको": 8058,
      "नेपालबाट": 8059,
      "करको": 8060,
      "आराम": 8061,
      "नगरिएको": 8062,
      "टेक": 8063,
      "ऐनमा": 8064,
      "कोले": 8065,
      "सियन": 8066,
      "प्रश्नको": 8067,
      "जोनसन": 8068,
      "एण्ड": 8069,
      "रथ": 8070,
      "नेल": 8071,
      "जुलुस": 8072,
      "वाञ्छ": 8073,
      "एटला": 8074,
      "बन्देज": 8075,
      "ईं": 8076,
      "गान": 8077,
      "प्रतिवादी": 8078,
      "संस्थामा": 8079,
      "६३": 8080,
      "आशावादी": 8081,
      "अस्पष्ट": 8082,
      "्यौ": 8083,
      "वेत": 8084,
      "स्वभाव": 8085,
      "समुदायले": 8086,
      "मुद्रास्फीति": 8087,
      "मानमा": 8088,
      "परिस्थितिमा": 8089,
      "बीपी": 8090,
      "भेडा": 8091,
      "ग्लोबल": 8092,
      "७४": 8093,
      "बान": 8094,
      "गरिनु": 8095,
      "व्यायाम": 8096,
      "अधिकारीहरूलाई": 8097,
      "रहेन": 8098,
      "चम्किलो": 8099,
      "ब्यु": 8100,
      "सिम": 8101,
      "समानु": 8102,
      "झुण्ड": 8103,
      "छापि": 8104,
      "उठेको": 8105,
      "रिपब्लिकन": 8106,
      "गरिरहनु": 8107,
      "खेलकू": 8108,
      "ग्रो": 8109,
      "अन्याय": 8110,
      "घरमै": 8111,
      "नियामक": 8112,
      "आस": 8113,
      "सुत्ने": 8114,
      "जेलमा": 8115,
      "महँगो": 8116,
      "गाउँका": 8117,
      "होटलमा": 8118,
      "विजयी": 8119,
      "मार्न": 8120,
      "सीमान्त": 8121,
      "पराजु": 8122,
      "टेका": 8123,
      "मान्ने": 8124,
      "प्ती": 8125,
      "ङ्ध": 8126,
      "पिका": 8127,
      "अध्यक्षतामा": 8128,
      "डोमेन": 8129,
      "सदस्यता": 8130,
      "आईटी": 8131,
      "पार्टमेन्ट": 8132,
      "चल्न": 8133,
      "पठाउनु": 8134,
      "बेच्न": 8135,
      "च्याम्पिय": 8136,
      "-\"": 8137,
      "ES": 8138,
      "नर्स": 8139,
      "ङ्के": 8140,
      "हिंड्": 8141,
      "फ्याँकिदिए": 8142,
      "कोलम्बिया": 8143,
      "शिक्षित": 8144,
      "भेट्": 8145,
      "भित्रि": 8146,
      "लेखेको": 8147,
      "लगानीमा": 8148,
      "किने": 8149,
      "अनुशासन": 8150,
      "पार्छ": 8151,
      "नामले": 8152,
      "पाइलट": 8153,
      "अपी": 8154,
      "पण्डित": 8155,
      "भेक्टर": 8156,
      "भावनात्मक": 8157,
      "व्यवहारमा": 8158,
      "अगुवा": 8159,
      "मर्यादा": 8160,
      "लू": 8161,
      "सतर्क": 8162,
      "निवार": 8163,
      "याउन": 8164,
      "टावर": 8165,
      "ब्बा": 8166,
      "लुङ": 8167,
      "वैध": 8168,
      "नाटकीय": 8169,
      "म्पा": 8170,
      "हार्ड": 8171,
      "दुल": 8172,
      "चुना": 8173,
      "फिल्मको": 8174,
      "प्रमाणीकरण": 8175,
      "प्यान": 8176,
      "आतंकवाद": 8177,
      "सृजना": 8178,
      "बोन्ड": 8179,
      "पुस्तकमा": 8180,
      "cf": 8181,
      "फेसबुक": 8182,
      "सुख्": 8183,
      "गोदा": 8184,
      "त्यहाँको": 8185,
      "पेट्रोल": 8186,
      "स्मिथ": 8187,
      "परिषद्का": 8188,
      "हाइलाइट": 8189,
      "वेबसाइट": 8190,
      "पाण्डेले": 8191,
      "नगरेसम्म": 8192,
      "हारा": 8193,
      "देऊ": 8194,
      "सम्मानित": 8195,
      "गीतमा": 8196,
      "युरोपमा": 8197,
      "फला": 8198,
      "लोन": 8199,
      "सिनो": 8200,
      "चीज": 8201,
      "नेताहरूको": 8202,
      "करले": 8203,
      "स्वतन्त्रताको": 8204,
      "गौत": 8205,
      "मिले": 8206,
      "होलान्": 8207,
      "वञ्चित": 8208,
      "साधनको": 8209,
      "सुफ": 8210,
      "खेले": 8211,
      "पहाडमा": 8212,
      "यिनै": 8213,
      "अवार्ड": 8214,
      "वहन": 8215,
      "कार्यहरू": 8216,
      "घाम": 8217,
      "प्रथा": 8218,
      "जात्रा": 8219,
      "२०११": 8220,
      "औषध": 8221,
      "मानको": 8222,
      "न्ना": 8223,
      "हिम": 8224,
      "कुटा": 8225,
      "सिलसिलामा": 8226,
      "वनस्पति": 8227,
      "गाली": 8228,
      "फोनमा": 8229,
      "हितमा": 8230,
      "मनोवैज्ञानिक": 8231,
      "क्यारे": 8232,
      "छर्": 8233,
      "सच्या": 8234,
      "न्धी": 8235,
      "२०१९": 8236,
      "माना": 8237,
      "सरे": 8238,
      "आज्ञा": 8239,
      "६००": 8240,
      "नियन": 8241,
      "गभर्नर": 8242,
      "६४": 8243,
      "गर्नै": 8244,
      "चिलो": 8245,
      "हुँदैछ": 8246,
      "सुदृढीकरण": 8247,
      "प्रदेशको": 8248,
      "कुलपति": 8249,
      "समानुपा": 8250,
      "माई": 8251,
      "प्रविष्टि": 8252,
      "सापेक्षिक": 8253,
      "AL": 8254,
      "कसू": 8255,
      "खस": 8256,
      "ाधिकार": 8257,
      "बढ्यो": 8258,
      "अभिवृद्धि": 8259,
      "दददददददद": 8260,
      "लामिछाने": 8261,
      "आईभी": 8262,
      "खेलाडीको": 8263,
      "लन्डनमा": 8264,
      "सहु": 8265,
      "लिएपछि": 8266,
      "कपिल": 8267,
      "लाभान्": 8268,
      "भित्रका": 8269,
      "गृहमन्त्री": 8270,
      "फ्लोरिडा": 8271,
      "खेलेको": 8272,
      "स्टल": 8273,
      "दरले": 8274,
      "सङ्गठन": 8275,
      "तिनीहरूका": 8276,
      "भ्रष्ट": 8277,
      "निकायका": 8278,
      "प्रजनन": 8279,
      "निवारण": 8280,
      "सारी": 8281,
      "काजी": 8282,
      "साप्ता": 8283,
      "बाउ": 8284,
      "मेडि": 8285,
      "आयोजनामा": 8286,
      "व्यवसायीको": 8287,
      "्छ": 8288,
      "एकेडेमी": 8289,
      "सवै": 8290,
      "मिलाउन": 8291,
      "अडान": 8292,
      "ओभर": 8293,
      "झै": 8294,
      "रज": 8295,
      "कलेजमा": 8296,
      "विचारमा": 8297,
      "राम्रै": 8298,
      "लाभान्वित": 8299,
      "शम्": 8300,
      "र्यो": 8301,
      "समात्": 8302,
      "मैना": 8303,
      "माओवादीलाई": 8304,
      "बढ्छ": 8305,
      "फाइनल": 8306,
      "तारो": 8307,
      "विज्ञाप": 8308,
      "कार्कीले": 8309,
      "फौज": 8310,
      "कलि": 8311,
      "६९": 8312,
      "संलग्नता": 8313,
      "तिनै": 8314,
      "सीआई": 8315,
      "स्याउ": 8316,
      "बनेर": 8317,
      "प्रतिष्ठान": 8318,
      "सत्तारू": 8319,
      "महाशाखा": 8320,
      "सन्तुष्ट": 8321,
      "सृष्टि": 8322,
      "थपे": 8323,
      "भद्र": 8324,
      "वनको": 8325,
      "बाँधि": 8326,
      "महिनाभित्र": 8327,
      "थप्न": 8328,
      "पुनःस्थापना": 8329,
      "भैरह": 8330,
      "अफ्रिका": 8331,
      "खति": 8332,
      "पक्कै": 8333,
      "सम्हा": 8334,
      "होस": 8335,
      "स्वतः": 8336,
      "हप्तासम्म": 8337,
      "भोलिपल्ट": 8338,
      "पितृ": 8339,
      "भिसा": 8340,
      "सोभियत": 8341,
      "गुप्त": 8342,
      "विगतका": 8343,
      "औँ": 8344,
      "डिस्": 8345,
      "पिटर": 8346,
      "हिमाली": 8347,
      "टार": 8348,
      "तेर": 8349,
      "जनाए": 8350,
      "ल्याएका": 8351,
      "चुम्ब": 8352,
      "सकिनेछ": 8353,
      "समूहलाई": 8354,
      "दृश्या": 8355,
      "नागरिकलाई": 8356,
      "शब्दमा": 8357,
      "युनाइ": 8358,
      "तपाईँसँग": 8359,
      "स्थितिको": 8360,
      "सत्तारूढ": 8361,
      "आकांक्षा": 8362,
      "झण्डै": 8363,
      "भले": 8364,
      "मनाइ": 8365,
      "पोखरेलले": 8366,
      "सेनाका": 8367,
      "श्रद्धा": 8368,
      "जितेका": 8369,
      "at": 8370,
      "गुरुङले": 8371,
      "राख्दा": 8372,
      "होल्": 8373,
      "वारिक": 8374,
      "डेमोक्र्या": 8375,
      "अस्ट्रे": 8376,
      "अन्तर्वार्ता": 8377,
      "नगरपालिकाले": 8378,
      "गर्दथे": 8379,
      "सुख्खा": 8380,
      "गएपछि": 8381,
      "गंगा": 8382,
      "नहुन": 8383,
      "अनुरूप": 8384,
      "घटेर": 8385,
      "कचौ": 8386,
      "परेन": 8387,
      "पठाउँ": 8388,
      "अभियानको": 8389,
      "मासा": 8390,
      "लिटर": 8391,
      "मेनु": 8392,
      "उँछिन्": 8393,
      "नीतिगत": 8394,
      "कहिलेकाहीँ": 8395,
      "वका": 8396,
      "नुसार": 8397,
      "बासी": 8398,
      "रोनाल्": 8399,
      "विस्तारै": 8400,
      "१९९९": 8401,
      "अस्पतालको": 8402,
      "राष्ट्रसंघ": 8403,
      "बुटी": 8404,
      "तरु": 8405,
      "मुर्": 8406,
      "अधिवक्ता": 8407,
      "पुर्खा": 8408,
      "रका": 8409,
      "काठमाण्ड": 8410,
      "सहुलियत": 8411,
      "बाजी": 8412,
      "बेच्ने": 8413,
      "टाले": 8414,
      "गर्दैछ": 8415,
      "पार्टीलाई": 8416,
      "भेटघाट": 8417,
      "मन्त": 8418,
      "कोइला": 8419,
      "डिएको": 8420,
      "बोलाए": 8421,
      "च्ची": 8422,
      "इस्राएली": 8423,
      "दह": 8424,
      "त्कृष्ट": 8425,
      "युने": 8426,
      "कुराले": 8427,
      "भन्नेमा": 8428,
      "र्थक": 8429,
      "कम्पनीलाई": 8430,
      "मन्दिरको": 8431,
      "अपील": 8432,
      "समृद्ध": 8433,
      "दिनेश": 8434,
      "पोष्टलाई": 8435,
      "भएकै": 8436,
      "राजनीतिको": 8437,
      "क्रियाशील": 8438,
      "हप्ताअघि": 8439,
      "बोर्डको": 8440,
      "एक्का": 8441,
      "मनाउन": 8442,
      "काङ्ग्रेस": 8443,
      "भन्छ": 8444,
      "धादि": 8445,
      "स्ट्र": 8446,
      "नायिका": 8447,
      "जगेडा": 8448,
      "वालमा": 8449,
      "रिएको": 8450,
      "दिएँ": 8451,
      "संस्कृत": 8452,
      "बहुमूल्य": 8453,
      "अनौठो": 8454,
      "लिप": 8455,
      "किया": 8456,
      "लगाइ": 8457,
      "झोला": 8458,
      "रान": 8459,
      "पुनर्जीवित": 8460,
      "अपेक्षित": 8461,
      "पुरुषको": 8462,
      "अर्थतन्त्रको": 8463,
      "पारिवारिक": 8464,
      "स्वयंसेवक": 8465,
      "सार्वभौम": 8466,
      "नत्र": 8467,
      "नात्मक": 8468,
      "क्रिस्": 8469,
      "वस्तुहरू": 8470,
      "cfm": 8471,
      "पाल्पा": 8472,
      "मिङ": 8473,
      "महानिर्देशक": 8474,
      "उठाएका": 8475,
      "घुमा": 8476,
      "ढाँचामा": 8477,
      "२००९": 8478,
      "६६": 8479,
      "मुशरा": 8480,
      "विश्वसनीय": 8481,
      "त्यसमाथि": 8482,
      "///": 8483,
      "गाँउ": 8484,
      "चन्दा": 8485,
      "निस्कने": 8486,
      "सत्याग्रही": 8487,
      "भ्रे": 8488,
      "निर्णयको": 8489,
      "नियन्त्रित": 8490,
      "बिरामीको": 8491,
      "समानुपातिक": 8492,
      "ह्रा": 8493,
      "सुरू": 8494,
      "प्रापक": 8495,
      "भागे": 8496,
      "चको": 8497,
      "ब्यारे": 8498,
      "डुङ्गा": 8499,
      "बाथ": 8500,
      "पुस्ति": 8501,
      "चुहा": 8502,
      "लाइसेन्स": 8503,
      "शान्तिको": 8504,
      "मिश्रण": 8505,
      "आपत्ति": 8506,
      "शार": 8507,
      "प्लो": 8508,
      "डीपी": 8509,
      "टरले": 8510,
      "कैयौँ": 8511,
      "इतिहासको": 8512,
      "सुनसरी": 8513,
      "नासाथ": 8514,
      "पूर्वमा": 8515,
      "महानगर": 8516,
      "घातक": 8517,
      "फ्ले": 8518,
      "मारियो": 8519,
      "दर्ुइ": 8520,
      "डिरहेका": 8521,
      "परेमा": 8522,
      "साँच्चै": 8523,
      "ताना": 8524,
      "पाण्ड": 8525,
      "ब्ल": 8526,
      "गराए": 8527,
      "तिमीहरूको": 8528,
      "अग्": 8529,
      "पेरि": 8530,
      "प्रमुखको": 8531,
      "द्रिक": 8532,
      "उठाउँ": 8533,
      "नदिन": 8534,
      "प्रसङ्ग": 8535,
      "किल": 8536,
      "गुमाएका": 8537,
      "दिनहरूमा": 8538,
      "व्यवसायको": 8539,
      "मूल्यांकन": 8540,
      "उही": 8541,
      "सम्भार": 8542,
      "डीले": 8543,
      "फेल": 8544,
      "मुद्दाहरू": 8545,
      "चरणबद्ध": 8546,
      "युनाइटेड": 8547,
      "क्षेत्रले": 8548,
      "नेताहरूलाई": 8549,
      "सर्वोत्कृष्ट": 8550,
      "बुद्धिजीवी": 8551,
      "छलफलमा": 8552,
      "घाउ": 8553,
      "एजेन्डा": 8554,
      "चर्को": 8555,
      "घाँस": 8556,
      "विस्फोटन": 8557,
      "घात": 8558,
      "मुलुकलाई": 8559,
      "स्कोट्सम्यान": 8560,
      "असन्तुष्टि": 8561,
      "मस्तिष्क": 8562,
      "खेलकूद": 8563,
      "जडी": 8564,
      "जसका": 8565,
      "नियमन": 8566,
      "धनगढी": 8567,
      "शरीरको": 8568,
      "वववव": 8569,
      "जागृत": 8570,
      "प्रशासक": 8571,
      "निजले": 8572,
      "नुअघि": 8573,
      "कुरी": 8574,
      "एकले": 8575,
      "अनुपात": 8576,
      "गन्ज": 8577,
      "इजरायली": 8578,
      "en": 8579,
      "सुहा": 8580,
      "सर्तमा": 8581,
      "राष्ट्रपतिले": 8582,
      "लेखिएका": 8583,
      "शपथ": 8584,
      "पाइन्": 8585,
      "डिभिजन": 8586,
      "ख्यात": 8587,
      "माइक्रोसफ्ट": 8588,
      "हुँदाहुँदै": 8589,
      "ट्याग": 8590,
      "छैटौं": 8591,
      "मबाट": 8592,
      "जनाइएको": 8593,
      "ज्व": 8594,
      "उल्लेख्य": 8595,
      "साँढे": 8596,
      "जगत": 8597,
      "२०१३": 8598,
      "फ्रान्क": 8599,
      "थिइनँ": 8600,
      "आया": 8601,
      "थाल्": 8602,
      "रुख": 8603,
      "पहिरो": 8604,
      "दिनुभएको": 8605,
      "ज्याला": 8606,
      "हुनै": 8607,
      "श्रीलंका": 8608,
      "पन्ध्र": 8609,
      "कुँ": 8610,
      "मानले": 8611,
      "्योगी": 8612,
      "ड्ढ": 8613,
      "ऋणको": 8614,
      "बडा": 8615,
      "सञ्चि": 8616,
      "नेताहरुले": 8617,
      "आदिको": 8618,
      "आप्र": 8619,
      "तला": 8620,
      "सुन्त": 8621,
      "श्मी": 8622,
      "कार्यलाई": 8623,
      "अराज": 8624,
      "क्षु": 8625,
      "समया": 8626,
      "टिका": 8627,
      "उहाँका": 8628,
      "जग्गामा": 8629,
      "सिपाही": 8630,
      "झुण्ड्या": 8631,
      "खतिवडा": 8632,
      "ाध्यक्ष": 8633,
      "२५०": 8634,
      "संहि": 8635,
      "रोकथा": 8636,
      "ताररहित": 8637,
      "दृश्यमा": 8638,
      "हिंसाको": 8639,
      "इन्जिन": 8640,
      "अन्ध": 8641,
      "al": 8642,
      "तीले": 8643,
      "बोक्न": 8644,
      "भेटे": 8645,
      "अवस्थाको": 8646,
      "जबसम्म": 8647,
      "स्तरका": 8648,
      "महाराजा": 8649,
      "हप्तामा": 8650,
      "हङकङ": 8651,
      "बाग्": 8652,
      "घाँटी": 8653,
      "प्रदीप": 8654,
      "द्दी": 8655,
      "उँथे": 8656,
      "केन्द्रीकरण": 8657,
      "थापाको": 8658,
      "भिन": 8659,
      "अर्कै": 8660,
      "ज्ञापन": 8661,
      "विषयको": 8662,
      "उभिएका": 8663,
      "च्छु": 8664,
      "ट्टे": 8665,
      "संघीयता": 8666,
      "NEW": 8667,
      "डाइरेक्ट": 8668,
      "निक्षेप": 8669,
      "हिरो": 8670,
      "जाँ": 8671,
      "दुब": 8672,
      "उनेछ": 8673,
      "उभिएको": 8674,
      "संचार": 8675,
      "जिन्द": 8676,
      "धनकुटा": 8677,
      "फ्ल्या": 8678,
      "डका": 8679,
      "बढे": 8680,
      "निर्णयमा": 8681,
      "परियोजनाको": 8682,
      "छोडेको": 8683,
      "एन्ड्रि": 8684,
      "पचाप": 8685,
      ",,": 8686,
      "प्न": 8687,
      "६७": 8688,
      "बोले": 8689,
      "उत्पत्ति": 8690,
      "इसाई": 8691,
      "ोस्": 8692,
      "भात": 8693,
      "भन्नेबारे": 8694,
      "इरानी": 8695,
      "दास्पद": 8696,
      "त्र्चा": 8697,
      "कुना": 8698,
      "सिप": 8699,
      "क्रिस": 8700,
      "ख्री": 8701,
      "स्वर्ण": 8702,
      "कीले": 8703,
      "उत्सुक": 8704,
      "टेस्ट": 8705,
      "क्षमताको": 8706,
      "पोर्चु": 8707,
      "उम्": 8708,
      "तरा": 8709,
      "नभएमा": 8710,
      "लिनेछ": 8711,
      "सिफिक": 8712,
      "धिराज": 8713,
      "लेख्नु": 8714,
      "फर्किन": 8715,
      "ल्युसन": 8716,
      "SO": 8717,
      "मेलमिला": 8718,
      "पुष्पकमल": 8719,
      "वाले": 8720,
      "जाय": 8721,
      "अन्धा": 8722,
      "तिमीहरूका": 8723,
      "लिगमा": 8724,
      "ढकालले": 8725,
      "ढकाल": 8726,
      "सञ्चालनको": 8727,
      "प्रधानन्यायाधीश": 8728,
      "अध्यावधिक": 8729,
      "पश्चात्": 8730,
      "धनमा": 8731,
      "सेवी": 8732,
      "कामका": 8733,
      "दिइयो": 8734,
      "शिविरमा": 8735,
      "मसला": 8736,
      "िन्": 8737,
      "टिएका": 8738,
      "खेतमा": 8739,
      "कृया": 8740,
      "पहिलोपटक": 8741,
      "न्तिक": 8742,
      "फिल्टर": 8743,
      "धोका": 8744,
      "विवादास्पद": 8745,
      "बेरोजगारी": 8746,
      "जमि": 8747,
      "पम्प": 8748,
      "यज्ञ": 8749,
      "मिड": 8750,
      "रेट": 8751,
      "टोम": 8752,
      "पुनर्संरचना": 8753,
      "ऋणपत्र": 8754,
      "गाडीको": 8755,
      "बुटवल": 8756,
      "गहना": 8757,
      "विवेक": 8758,
      "बस्तु": 8759,
      "हालत": 8760,
      "मानिएको": 8761,
      "दक्षिणमा": 8762,
      "झूटो": 8763,
      "मिलन": 8764,
      "लेख्": 8765,
      "२०१२": 8766,
      "ंगी": 8767,
      "कक्षामा": 8768,
      "लम्बाइ": 8769,
      "चौधरीले": 8770,
      "»»": 8771,
      "निएका": 8772,
      "नियाँ": 8773,
      "नाट": 8774,
      "पठाए": 8775,
      "बयान": 8776,
      "लान": 8777,
      "२०१०": 8778,
      "दलहरु": 8779,
      "एफए": 8780,
      "गल्फ": 8781,
      "विद्वान्": 8782,
      "गल्ली": 8783,
      "केले": 8784,
      "बेल्": 8785,
      "फिया": 8786,
      "लगानीकर्ताहरूले": 8787,
      "अनुहारमा": 8788,
      "प्रशासनको": 8789,
      "हको": 8790,
      "बादल": 8791,
      "पेन्ट": 8792,
      "मनपर्ने": 8793,
      "खर्चको": 8794,
      "टाइम": 8795,
      "मरेको": 8796,
      "प्रयोजनको": 8797,
      "विकेट": 8798,
      "सम्बन्धलाई": 8799,
      "जाँचबुझ": 8800,
      "ग्याँस": 8801,
      "नाति": 8802,
      "श्रीमान्": 8803,
      "प्यासिफिक": 8804,
      "विवादमा": 8805,
      "वेक्षक": 8806,
      "कम्पनीमा": 8807,
      "चोर": 8808,
      "उठाए": 8809,
      "कार्बन": 8810,
      "ल्याइ": 8811,
      "पदयात्रा": 8812,
      "टाइप": 8813,
      "एड्स": 8814,
      "सराइ": 8815,
      "बाहु": 8816,
      "मिशन": 8817,
      "मार्टिन": 8818,
      "देखाउनु": 8819,
      "लेखापरीक्षण": 8820,
      "विश्राम": 8821,
      "दस": 8822,
      "शही": 8823,
      "नान्तर": 8824,
      "दृढ": 8825,
      "बर्न": 8826,
      "डुब": 8827,
      "ख्रीष्ट": 8828,
      "नुन": 8829,
      "चलचित्रको": 8830,
      "रोनाल्डो": 8831,
      "कात्ति": 8832,
      "पीपी": 8833,
      "विधेयकमा": 8834,
      "गढ": 8835,
      "गराएर": 8836,
      "मालपो": 8837,
      "संस्कृतिको": 8838,
      "अर्थशास्त्री": 8839,
      "अविश्वासी": 8840,
      "कालि": 8841,
      "टिभ": 8842,
      "खेलाडीले": 8843,
      "सञ्जालमा": 8844,
      "-‘": 8845,
      "सेमि": 8846,
      "छुट्याइएको": 8847,
      "ध्रुव": 8848,
      "उर्जा": 8849,
      "कहा": 8850,
      "बब": 8851,
      "मोर्": 8852,
      "सैद्धा": 8853,
      "अन्तर्गतको": 8854,
      "स्कटिश": 8855,
      "तँ": 8856,
      "लबाट": 8857,
      "गोल्": 8858,
      "रामचन्द्र": 8859,
      "पाना": 8860,
      "पट्टी": 8861,
      "एसो": 8862,
      "७९": 8863,
      "चारवटा": 8864,
      "मकवान": 8865,
      "डाउनलोड": 8866,
      "इलेक्ट्रो": 8867,
      "र्जन": 8868,
      "खोले": 8869,
      "आन्दोलनकारी": 8870,
      "सिंहदरबार": 8871,
      "कोइरालाको": 8872,
      "खाएर": 8873,
      "डोर": 8874,
      "थोक": 8875,
      "प्रकारले": 8876,
      "आक्रमणमा": 8877,
      "निधन": 8878,
      "प्ः": 8879,
      "पार्दछ": 8880,
      "दिनदेखि": 8881,
      "सुपरि": 8882,
      "अर्जुन": 8883,
      "टेक्सास": 8884,
      "क्यारो": 8885,
      "टेक्": 8886,
      "ङ्गे": 8887,
      "अर्काको": 8888,
      "साप्ताहिक": 8889,
      "चारु": 8890,
      "क्रमित": 8891,
      "फाँड": 8892,
      "पाकिस्तानको": 8893,
      "ण्ा": 8894,
      "कुराहरु": 8895,
      "ल्याउँछ": 8896,
      "न्युजि": 8897,
      "न्यूनवैतनिक": 8898,
      "मूर्ख": 8899,
      "फरा": 8900,
      "न्की": 8901,
      "क्ल": 8902,
      "जनप्रतिनिधि": 8903,
      "पोखरामा": 8904,
      "प्रतिद्वन्द्व": 8905,
      "उत्थान": 8906,
      "हेन": 8907,
      "पोशा": 8908,
      "तुलनात्मक": 8909,
      "मसा": 8910,
      "याङ्के": 8911,
      "परेर": 8912,
      "भारतलाई": 8913,
      "खत्री": 8914,
      "र्त": 8915,
      "कार्यक्रमले": 8916,
      "कुशल": 8917,
      "सैद्धान्तिक": 8918,
      "मापन": 8919,
      "न्नु": 8920,
      "कानिम्ति": 8921,
      "याकू": 8922,
      "क्षेत्री": 8923,
      "अन्तर्वार्तामा": 8924,
      "निकायलाई": 8925,
      "षडयन्त्र": 8926,
      "नवलपरा": 8927,
      "TON": 8928,
      "अगम": 8929,
      "क्षमा": 8930,
      "राजपत्रमा": 8931,
      "अवकाश": 8932,
      "खुलेको": 8933,
      "गराइएको": 8934,
      "न्डा": 8935,
      "यतिबेला": 8936,
      "ar": 8937,
      "मीठो": 8938,
      "उपेन्द्र": 8939,
      "बताउने": 8940,
      "आवरण": 8941,
      "साह्रै": 8942,
      "कारबाहीको": 8943,
      "कसको": 8944,
      "सल्": 8945,
      "मावि": 8946,
      "कालको": 8947,
      "दिएनन्": 8948,
      "म्याग्": 8949,
      "टोलीलाई": 8950,
      "नगरपालिकामा": 8951,
      "कार्यकर्तालाई": 8952,
      "मालसामान": 8953,
      "विनियोजन": 8954,
      "फ्री": 8955,
      "हरूद्वारा": 8956,
      "निकाले": 8957,
      "हरूसँगै": 8958,
      "बिरामीलाई": 8959,
      "आशंका": 8960,
      "दायर": 8961,
      "उनै": 8962,
      "सिलि": 8963,
      "जोन्स": 8964,
      "फिफा": 8965,
      "मौद्रिक": 8966,
      "खोज्नु": 8967,
      "खी": 8968,
      "सियो": 8969,
      "रुपान्तरण": 8970,
      "वर्षौं": 8971,
      "सम्भाव्यता": 8972,
      "साँघुरो": 8973,
      "सवमा": 8974,
      "नाश": 8975,
      "सिएको": 8976,
      "राजु": 8977,
      "इन्च": 8978,
      "यतिखेर": 8979,
      "भूमिकामा": 8980,
      "मितिले": 8981,
      "वीरगञ्ज": 8982,
      "नोभेम्बरमा": 8983,
      "२०४६": 8984,
      "अपार्टमेन्ट": 8985,
      "माग्": 8986,
      "राज्यपाल": 8987,
      "प्रतिशतको": 8988,
      "व्यवसायीलाई": 8989,
      "अन्तरराष्ट्रिय": 8990,
      "परेपछि": 8991,
      "तटस्थ": 8992,
      "परित": 8993,
      "ग्लै": 8994,
      "न्दर्भिक": 8995,
      "ब्राउज": 8996,
      "सान्दर्भिक": 8997,
      "थालिएको": 8998,
      "घण्टासम्म": 8999,
      "खोज्दै": 9000,
      "सिँचाइ": 9001,
      "घर्": 9002,
      "लीलाई": 9003,
      "टोन": 9004,
      "चुपचाप": 9005,
      "दुवैले": 9006,
      "कपमा": 9007,
      "युएस": 9008,
      "वेल": 9009,
      "पार्किङ": 9010,
      "हेलिक": 9011,
      "तीनजना": 9012,
      "निर्देशित": 9013,
      "रकमको": 9014,
      "तुलसी": 9015,
      "प्रान्तमा": 9016,
      "जनयुद्ध": 9017,
      "गर्दछु": 9018,
      "तर्फी": 9019,
      "पुर्‍": 9020,
      "रुपियाँ": 9021,
      "ग्लास": 9022,
      "ब्राउन": 9023,
      "सप्तरीका": 9024,
      "पायो": 9025,
      "हाते": 9026,
      "ण्ठ": 9027,
      "बीए": 9028,
      "२०५६": 9029,
      "पश्चात": 9030,
      "लिइ": 9031,
      "सुनेर": 9032,
      "अमेरिकाका": 9033,
      "जीवनका": 9034,
      "अनुचित": 9035,
      "हेल्": 9036,
      "महासंघका": 9037,
      "स्वीकार्": 9038,
      "खेलका": 9039,
      "जानकारीका": 9040,
      "सहमतिमा": 9041,
      "सर्वाधिक": 9042,
      "गड": 9043,
      "कोड": 9044,
      "संवत्": 9045,
      "र्डन": 9046,
      "भनिने": 9047,
      "खोजीमा": 9048,
      "अम्": 9049,
      "रियो": 9050,
      "अवरुद्ध": 9051,
      "कमध्ये": 9052,
      "महिनादेखि": 9053,
      "संकटमा": 9054,
      "शाहले": 9055,
      "चालू": 9056,
      "भक्ति": 9057,
      "सिग": 9058,
      "स्थानिय": 9059,
      "प्रतिशतमा": 9060,
      "कथामा": 9061,
      "केशव": 9062,
      "ठुलो": 9063,
      "बको": 9064,
      "नेपालीहरू": 9065,
      "खेलाडीलाई": 9066,
      "न्यायपालिका": 9067,
      "मेट्रोपोलि": 9068,
      "एन्जल्स": 9069,
      "पन्छ": 9070,
      "्यारी": 9071,
      "लिना": 9072,
      "भालु": 9073,
      "देखिन्थे": 9074,
      "योजनाबद्ध": 9075,
      "ंगे": 9076,
      "रूस": 9077,
      "गुल्": 9078,
      "गराइ": 9079,
      "साथीहरू": 9080,
      "st": 9081,
      "दाङ": 9082,
      "शिक्षामा": 9083,
      "न्यायाधि": 9084,
      "ठेक्का": 9085,
      "।’": 9086,
      "र्नु": 9087,
      "निहित": 9088,
      "सम्वाद": 9089,
      "उँदैनन्": 9090,
      "शिला": 9091,
      "प्रक्रियाको": 9092,
      "झ्ण्डै": 9093,
      "गाउं": 9094,
      "हप्ताको": 9095,
      "उनि": 9096,
      "तेर्": 9097,
      "अध्यक्षले": 9098,
      "म्याच": 9099,
      "समस्यालाई": 9100,
      "हिंड्ने": 9101,
      "मिठाई": 9102,
      "भिल": 9103,
      "लगायतले": 9104,
      "नयन": 9105,
      "परोप": 9106,
      "निदान": 9107,
      "नीतिमा": 9108,
      "संस्थानको": 9109,
      "आमालाई": 9110,
      "org": 9111,
      "छिट्टै": 9112,
      "जिज्ञा": 9113,
      "मोडेल": 9114,
      "गुट": 9115,
      "वृद्ध": 9116,
      "प्राधिकरणको": 9117,
      "खड्काले": 9118,
      "दम्पति": 9119,
      "एसएलसी": 9120,
      "जवान": 9121,
      "कर्मा": 9122,
      "वेज": 9123,
      "लुइस": 9124,
      "चित्रकला": 9125,
      "टाइम्": 9126,
      "बाबुको": 9127,
      "स्ट्रिङ": 9128,
      "हानिकारक": 9129,
      "AT": 9130,
      "जाऊ": 9131,
      "सुब्बा": 9132,
      "विश्वभरि": 9133,
      "सर्ग": 9134,
      "सम्मेलनको": 9135,
      "मन्त्रीको": 9136,
      "उद्योगी": 9137,
      "विविधता": 9138,
      "निराशाजनक": 9139,
      "शनल": 9140,
      "सम्झौताको": 9141,
      "हातले": 9142,
      "इस्मास": 9143,
      "दूरसञ्चार": 9144,
      "ेन": 9145,
      "निक्स": 9146,
      "ताइ": 9147,
      "अन्यो": 9148,
      "जुङ": 9149,
      "कांक्षी": 9150,
      "ग्याल": 9151,
      "मान्छेको": 9152,
      "अफगानिस्तानमा": 9153,
      "बाँडफाँड": 9154,
      "यको": 9155,
      "वटै": 9156,
      "चाई": 9157,
      "श्रेष्ठको": 9158,
      "जरको": 9159,
      "निवास": 9160,
      "जाल": 9161,
      "अवधिको": 9162,
      "हल्का": 9163,
      "काइ": 9164,
      "पिच": 9165,
      "सकिन्न": 9166,
      "उल्लं": 9167,
      "रोयटर्स": 9168,
      "रुपियां": 9169,
      "७३टछछघघस": 9170,
      "निएको": 9171,
      "महर्जन": 9172,
      "पस्": 9173,
      "काबारेमा": 9174,
      "मेरोलागि": 9175,
      "जोडिएका": 9176,
      "मातह": 9177,
      "मुस्ता": 9178,
      "पेस": 9179,
      "समितिलाई": 9180,
      "कोषाध्यक्ष": 9181,
      "भूकम्पले": 9182,
      "ठहरा": 9183,
      "धारी": 9184,
      "यहो": 9185,
      "क्सो": 9186,
      "परिकार": 9187,
      "गुफा": 9188,
      "देखाए": 9189,
      "सक्छौ": 9190,
      "एमएस": 9191,
      "शहरहरूमा": 9192,
      "भर्न": 9193,
      "मिल्दो": 9194,
      "डेमोक्र्याट": 9195,
      "प्रयासको": 9196,
      "छोराको": 9197,
      "ढङ्गले": 9198,
      "जिन्दगी": 9199,
      "तिन": 9200,
      "सुले": 9201,
      "डाँ": 9202,
      "पार्नेछ": 9203,
      "जुनियर": 9204,
      "पेन्द्र": 9205,
      "थोम्प्": 9206,
      "झ्ैँ": 9207,
      "रचनात्मक": 9208,
      "विश्लेषकहरूले": 9209,
      "थ्रे": 9210,
      "लज्": 9211,
      "पाटन": 9212,
      "थिई": 9213,
      "लागतमा": 9214,
      "सनल": 9215,
      "साहित्यको": 9216,
      "छात्रवृत्ति": 9217,
      "शहीद": 9218,
      "लाभा": 9219,
      "गाउने": 9220,
      "मिसाइ": 9221,
      "टामा": 9222,
      "पेरिस": 9223,
      "रुपन्देही": 9224,
      "रिरिरिरिरिरिरिरि": 9225,
      "इलि": 9226,
      "नसकेका": 9227,
      "पयोग": 9228,
      "स्टिल": 9229,
      "राना": 9230,
      "खर्चमा": 9231,
      "अनन्त": 9232,
      "जोगाउन": 9233,
      "फेरी": 9234,
      "स्पा": 9235,
      "खानु": 9236,
      "भारतसँग": 9237,
      "कलम": 9238,
      "लागिएको": 9239,
      "जिर": 9240,
      "प्राणी": 9241,
      "बताइन्छ": 9242,
      "स्थे": 9243,
      "हिंडे": 9244,
      "हडता": 9245,
      "प्रवद्र्धन": 9246,
      "नक्कल": 9247,
      "प्रशिक्षा": 9248,
      "पर्थ्यो": 9249,
      "पत्रा": 9250,
      "निकाल्ने": 9251,
      "बताउनुहुन्छ": 9252,
      "स्क्रिप्ट": 9253,
      "अखबार": 9254,
      "डर्": 9255,
      "बडी": 9256,
      "लेबुल": 9257,
      "कामहरू": 9258,
      "नियल": 9259,
      "कम्पनीहरू": 9260,
      "प्रस्तावमा": 9261,
      "डिसेम्बरमा": 9262,
      "डिएका": 9263,
      "नेपालीलाई": 9264,
      "प्रस्तावको": 9265,
      "अग्रिम": 9266,
      "उत्र": 9267,
      "सापको": 9268,
      "क्षणमा": 9269,
      "विद्यालयले": 9270,
      "पढ्दा": 9271,
      "पछाडिको": 9272,
      "निर्वाचनको": 9273,
      "जीओ": 9274,
      "मानिनेछ": 9275,
      "दलहरूको": 9276,
      "स्तरवृद्धि": 9277,
      "आपसमा": 9278,
      "लोभ": 9279,
      "कतार": 9280,
      "पक्षबाट": 9281,
      "व्यवस्थापिका": 9282,
      "फर्काउन": 9283,
      "सुवा": 9284,
      "गर्नुभन्दा": 9285,
      "सुधारको": 9286,
      "स्टाइन": 9287,
      "चुनावी": 9288,
      "अस्ट्रेलिया": 9289,
      "12": 9290,
      "ङ्गला": 9291,
      "काट्ने": 9292,
      "लाप": 9293,
      "पालो": 9294,
      "थाल्छ": 9295,
      "दिइन्": 9296,
      "कार्वाही": 9297,
      "बोकेको": 9298,
      "स्याङ्": 9299,
      "घटनाले": 9300,
      "अधी": 9301,
      "लाही": 9302,
      "दातृ": 9303,
      "रिपोर्ट": 9304,
      "सिय्": 9305,
      "रेन": 9306,
      "भोजन": 9307,
      "वासिङ्टनमा": 9308,
      "अवास्तविक": 9309,
      "हुू": 9310,
      "फर्कियो": 9311,
      "मान्छेले": 9312,
      "कामदारको": 9313,
      "ताबाट": 9314,
      "नुवाको": 9315,
      "देखाउँदै": 9316,
      "पासवर्ड": 9317,
      "अलग्": 9318,
      "उद्यम": 9319,
      "कारागारमा": 9320,
      "चिन्तन": 9321,
      "गूगल": 9322,
      "ताप्ले": 9323,
      "पुच्छ": 9324,
      "सिद्धि": 9325,
      "आजसम्म": 9326,
      "दृश्यात्मक": 9327,
      ".,": 9328,
      "बरी": 9329,
      "ौटी": 9330,
      "निकी": 9331,
      "ट्याक्सी": 9332,
      "त्रास": 9333,
      "खुट्टामा": 9334,
      "छैठ": 9335,
      "तत्कालै": 9336,
      "चलाइ": 9337,
      "बोसो": 9338,
      "बोतल": 9339,
      "बोकेका": 9340,
      "पत्रकारिता": 9341,
      "कार्यालयबाट": 9342,
      "स्वयम्": 9343,
      "प्रशिक्षार्थी": 9344,
      "इलाम": 9345,
      "फ्र": 9346,
      "बाल्": 9347,
      "साँचो": 9348,
      "रिन": 9349,
      "सफलतापूर्वक": 9350,
      "दृष्टिकोणले": 9351,
      "व्याजदर": 9352,
      "कार्यक्रमहरु": 9353,
      "पातलो": 9354,
      "na": 9355,
      "बन्छ": 9356,
      "प्रकरण": 9357,
      "निवेद": 9358,
      "पार्कमा": 9359,
      "प्रश्नमा": 9360,
      "सहमतिको": 9361,
      "मृतशरीर": 9362,
      "चब": 9363,
      "भैं": 9364,
      "यिक": 9365,
      "कास्की": 9366,
      "हिन": 9367,
      "सुशासन": 9368,
      "सुचारु": 9369,
      "मागे": 9370,
      "सभासद": 9371,
      "अतिथि": 9372,
      "रौतह": 9373,
      "उत्ते": 9374,
      "उठाएर": 9375,
      "एन्फा": 9376,
      "नियो": 9377,
      "प्रत्यारोपण": 9378,
      "शोध": 9379,
      "आइपुगे": 9380,
      "पहिलेको": 9381,
      "मोर्चाले": 9382,
      "ध्वस्त": 9383,
      "मालपोत": 9384,
      "विपरित": 9385,
      "एकको": 9386,
      "खाँचो": 9387,
      "जोडामा": 9388,
      "बेग्लै": 9389,
      "पार्यो": 9390,
      "पारा": 9391,
      "कार्यक्रमहरू": 9392,
      "प्रजाति": 9393,
      "कथाहरू": 9394,
      "एजेण्डा": 9395,
      "मस्जि": 9396,
      "कुनामा": 9397,
      "अवय": 9398,
      "शुल्": 9399,
      "किनारमा": 9400,
      "प्रक्रियालाई": 9401,
      "२०५९": 9402,
      "नयां": 9403,
      "नहर": 9404,
      "सरस्व": 9405,
      "टोनी": 9406,
      "सम्बन्धको": 9407,
      "तिम्रा": 9408,
      "उठायो": 9409,
      "उपचारको": 9410,
      "गुमाए": 9411,
      "पाउल": 9412,
      "नक": 9413,
      "फन": 9414,
      "रुग्": 9415,
      "परिप्रे": 9416,
      "पुरका": 9417,
      "मार्गमा": 9418,
      "चिनिन्छ": 9419,
      "क्याम्पसमा": 9420,
      "नहुनु": 9421,
      "न्द्रा": 9422,
      "मूत्र": 9423,
      "स्पट": 9424,
      "बाँच्ने": 9425,
      "मागेका": 9426,
      "निजीकरण": 9427,
      "१९९८": 9428,
      "ट्रान्स": 9429,
      "उपन्यासकार": 9430,
      "घिमिरेले": 9431,
      "त्र्चाइ": 9432,
      "le": 9433,
      "उनुभयो": 9434,
      "बोली": 9435,
      "भवनमा": 9436,
      "हेरी": 9437,
      "एफसी": 9438,
      "आँखामा": 9439,
      "आएमा": 9440,
      "क्र्यास": 9441,
      "फड्का": 9442,
      "साले": 9443,
      "आफैले": 9444,
      "ग्राही": 9445,
      "मूल्यको": 9446,
      "स्पो": 9447,
      "उँछौं": 9448,
      "उपमहानगरपालिका": 9449,
      "वर्षौँ": 9450,
      "व्यापारमा": 9451,
      "ब्रुस": 9452,
      "युएई": 9453,
      "लेवी": 9454,
      "हिलारी": 9455,
      "मिनल": 9456,
      "कुर्दि": 9457,
      "AM": 9458,
      "अमा": 9459,
      "उत्रि": 9460,
      "७७": 9461,
      "विनोद": 9462,
      "वासमा": 9463,
      "क्यारेक्टर": 9464,
      "कश्मी": 9465,
      "मदिरा": 9466,
      "लिइरहेका": 9467,
      "छुट्टा": 9468,
      "१९८०": 9469,
      "प्राथमिकतामा": 9470,
      "ग्रिन": 9471,
      "सद्भाव": 9472,
      "जाँदै": 9473,
      "बिहार": 9474,
      "खातामा": 9475,
      "मनु": 9476,
      "माफी": 9477,
      "साटो": 9478,
      "पत्रपत्रिका": 9479,
      "एउटी": 9480,
      "दुवैको": 9481,
      "आक्रोश": 9482,
      "अक्षर": 9483,
      "भास": 9484,
      "लोजी": 9485,
      "सिस्ट": 9486,
      "अनुसन्धानकर्ता": 9487,
      "गाविसका": 9488,
      "भयभी": 9489,
      "अण्डा": 9490,
      "किट": 9491,
      "मुम्ब": 9492,
      "क्रमबद्ध": 9493,
      "भेन": 9494,
      "महाकाली": 9495,
      "औषधी": 9496,
      "टाउकोमा": 9497,
      "साग": 9498,
      "जिन्": 9499,
      "जनस्वास्थ्य": 9500,
      "संस्थाहरू": 9501,
      "आयोगमा": 9502,
      "स्केल": 9503,
      "जापानको": 9504,
      "आलु": 9505,
      "फ्याक्स": 9506,
      "घन्टा": 9507,
      "९८": 9508,
      "माने": 9509,
      "मेस्": 9510,
      "खेलेका": 9511,
      "यरले": 9512,
      "ष्ठित": 9513,
      "दाउरा": 9514,
      "खभ": 9515,
      "ड्रे": 9516,
      "बटु": 9517,
      "मही": 9518,
      "रहर": 9519,
      "लड्ने": 9520,
      "खानामा": 9521,
      "उपरी": 9522,
      "हाँस्": 9523,
      "मार्गदर्शक": 9524,
      "फ्रेड": 9525,
      "विनाशकारी": 9526,
      "तारी": 9527,
      "हुु": 9528,
      "मुलुकबाट": 9529,
      "रेग्मी": 9530,
      "घरका": 9531,
      "नामबाट": 9532,
      "सदस्यहरूलाई": 9533,
      "बोर्डका": 9534,
      "वाञ्छित": 9535,
      "तन्का": 9536,
      "निबन्ध": 9537,
      "ंकी": 9538,
      "घार": 9539,
      "नपाएको": 9540,
      "न्सि": 9541,
      "लिज": 9542,
      "अन्ना": 9543,
      "ब्लो": 9544,
      "भाग्न": 9545,
      "ड्नु": 9546,
      "गाउँको": 9547,
      "............": 9548,
      "परियोजनामा": 9549,
      "मिलाएर": 9550,
      "महाधिवेश": 9551,
      "IS": 9552,
      "थारू": 9553,
      "पक्व": 9554,
      "मन्ड": 9555,
      "सीई": 9556,
      "ाराम": 9557,
      "फिल्डमा": 9558,
      "साहित्यमा": 9559,
      "च्छुक": 9560,
      "कने": 9561,
      "ततै": 9562,
      "सना": 9563,
      "रीका": 9564,
      "मानन्ध": 9565,
      "देखाएर": 9566,
      "संविधानसभाको": 9567,
      "आबद्ध": 9568,
      "निवृत्त": 9569,
      "केस": 9570,
      "देखाइएको": 9571,
      "हत्याको": 9572,
      "वुड": 9573,
      "न्समा": 9574,
      "केन": 9575,
      "सम्झा": 9576,
      "हेलिको": 9577,
      "वृक्ष": 9578,
      "मुलुकले": 9579,
      "युद्धविराम": 9580,
      "चीनसँग": 9581,
      "एटी": 9582,
      "फन्ट": 9583,
      "जापानमा": 9584,
      "काट्न": 9585,
      "पाएनन्": 9586,
      "बियन": 9587,
      "बीको": 9588,
      "बीले": 9589,
      "व्यक्तिहरूको": 9590,
      "सम्पत्तिमा": 9591,
      "ईई": 9592,
      "दबा": 9593,
      "फुर्": 9594,
      "सक्नुपर्छ": 9595,
      "राष्ट्रका": 9596,
      "फलस्वरूप": 9597,
      "मारेर": 9598,
      "चाडपर्व": 9599,
      "मङ्": 9600,
      "हमा": 9601,
      "नीका": 9602,
      "फाइटर": 9603,
      "चार्ल्स": 9604,
      "राख्नुहोस्": 9605,
      "क्रुद्ध": 9606,
      "सार्थक": 9607,
      "ष्न": 9608,
      "मास्टर": 9609,
      "विल": 9610,
      "यसपा": 9611,
      "राजेश": 9612,
      "वैचारिक": 9613,
      "पक्षका": 9614,
      "अपवाद": 9615,
      "नेतृत्वले": 9616,
      "हराइरहेको": 9617,
      "अधिराज्य": 9618,
      "पुराण": 9619,
      "खनालले": 9620,
      "ट्रिगर": 9621,
      "म्युजिक": 9622,
      "रोकथाम": 9623,
      "आईडी": 9624,
      "अरुण": 9625,
      "ग्राहकहरूलाई": 9626,
      "निगमले": 9627,
      "बाला": 9628,
      "पुलिस": 9629,
      "सहसचिव": 9630,
      "पियन": 9631,
      "दायक": 9632,
      "बजेसम्म": 9633,
      "हेरिरहेका": 9634,
      "IT": 9635,
      "पद्": 9636,
      "जुवा": 9637,
      "ब्याट्री": 9638,
      "इस्लाम": 9639,
      "प्लेटफर्म": 9640,
      "सदु": 9641,
      "तारि": 9642,
      "रोकियो": 9643,
      "ौता": 9644,
      "निगम": 9645,
      "सुक्": 9646,
      "टोपी": 9647,
      "शिख": 9648,
      "ग्ध": 9649,
      "ट्वि": 9650,
      "वृद्धिको": 9651,
      "पैसाको": 9652,
      "भविष्यको": 9653,
      "अन्तराष्ट्रिय": 9654,
      "आउँदै": 9655,
      "एर्": 9656,
      "८३": 9657,
      "वास्तु": 9658,
      "भनेपछि": 9659,
      "पहिल्यै": 9660,
      "खुम्": 9661,
      "दरवार": 9662,
      "चलाएको": 9663,
      "उठ्ने": 9664,
      "तिब्बत": 9665,
      "बाल्य": 9666,
      "उपग्रह": 9667,
      "घट्ने": 9668,
      "ध्याना": 9669,
      "म्यानचेस्टर": 9670,
      "विष्फो": 9671,
      "अधीनमा": 9672,
      "क्समा": 9673,
      "कुवा": 9674,
      "मिलेको": 9675,
      "फर्के": 9676,
      "लगेर": 9677,
      "यात्राको": 9678,
[...]
