{
  "version": "1.0",
  "truncation": null,
  "padding": null,
  "added_tokens": [
    {
      "id": 0,
      "content": "[UNK]",
      "single_word": false,
      "lstrip": false,
      "rstrip": false,
      "normalized": false,
      "special": true
    },
    {
      "id": 1,
      "content": "[PAD]",
      "single_word": false,
      "lstrip": false,
      "rstrip": false,
      "normalized": false,
      "special": true
    },
    {
      "id": 2,
      "content": "[EOS]",
      "single_word": false,
      "lstrip": false,
      "rstrip": false,
      "normalized": false,
      "special": true
    },
    {
      "id": 3,
      "content": "[EN]",
      "single_word": false,
      "lstrip": false,
      "rstrip": false,
      "normalized": false,
      "special": true
    },
    {
      "id": 4,
      "content": "[NE]",
      "single_word": false,
      "lstrip": false,
      "rstrip": false,
      "normalized": false,
      "special": true
    }
  ],
  "normalizer": null,
  "pre_tokenizer": {
    "type": "Whitespace"
  },
  "post_processor": null,
  "decoder": null,
  "model": {
    "type": "BPE",
    "dropout": null,
    "unk_token": "[UNK]",
    "continuing_subword_prefix": null,
    "end_of_word_suffix": null,
    "fuse_unk": false,
    "byte_fallback": false,
    "ignore_merges": false,
    "vocab": {
      "[UNK]": 0,
      "[PAD]": 1,
      "[EOS]": 2,
      "[EN]": 3,
      "[NE]": 4,
      "!": 5,
      "\"": 6,
      "#": 7,
      "$": 8,
      "%": 9,
      "&": 10,
      "'": 11,
      "(": 12,
      ")": 13,
      "*": 14,
      "+": 15,
      ",": 16,
      "-": 17,
      ".": 18,
      "/": 19,
      "0": 20,
      "1": 21,
      "2": 22,
      "3": 23,
      "4": 24,
      "5": 25,
      "6": 26,
      "7": 27,
      "8": 28,
      "9": 29,
      ":": 30,
      ";": 31,
      "<": 32,
      "=": 33,
      ">": 34,
      "?": 35,
      "@": 36,
      "A": 37,
      "B": 38,
      "C": 39,
      "D": 40,
      "E": 41,
      "F": 42,
      "G": 43,
      "H": 44,
      "I": 45,
      "J": 46,
      "K": 47,
      "L": 48,
      "M": 49,
      "N": 50,
      "O": 51,
      "P": 52,
      "Q": 53,
      "R": 54,
      "S": 55,
      "T": 56,
      "U": 57,
      "V": 58,
      "W": 59,
      "X": 60,
      "Y": 61,
      "Z": 62,
      "[": 63,
      "\\": 64,
      "]": 65,
      "^": 66,
      "_": 67,
      "`": 68,
      "a": 69,
      "b": 70,
      "c": 71,
      "d": 72,
      "e": 73,
      "f": 74,
      "g": 75,
      "h": 76,
      "i": 77,
      "j": 78,
      "k": 79,
      "l": 80,
      "m": 81,
      "n": 82,
      "o": 83,
      "p": 84,
      "q": 85,
      "r": 86,
      "s": 87,
      "t": 88,
      "u": 89,
      "v": 90,
      "w": 91,
      "x": 92,
      "y": 93,
      "z": 94,
      "{": 95,
      "|": 96,
      "}": 97,
      "~": 98,
      "": 99,
      "¡": 100,
      "¢": 101,
      "£": 102,
      "¤": 103,
      "¥": 104,
      "¦": 105,
      "¨": 106,
      "©": 107,
      "ª": 108,
      "«": 109,
      "¬": 110,
      "­": 111,
      "®": 112,
      "°": 113,
      "±": 114,
      "²": 115,
      "³": 116,
      "´": 117,
      "µ": 118,
      "¶": 119,
      "·": 120,
      "¸": 121,
      "¹": 122,
      "º": 123,
      "»": 124,
      "¼": 125,
      "½": 126,
      "¾": 127,
      "¿": 128,
      "À": 129,
      "Á": 130,
      "Â": 131,
      "Ã": 132,
      "Ä": 133,
      "Å": 134,
      "Æ": 135,
      "Ç": 136,
      "È": 137,
      "É": 138,
      "Ê": 139,
      "Ë": 140,
      "Ì": 141,
      "Í": 142,
      "Î": 143,
      "Ï": 144,
      "Ð": 145,
      "Ñ": 146,
      "Ò": 147,
      "Ó": 148,
      "Ô": 149,
      "Õ": 150,
      "Ö": 151,
      "×": 152,
      "Ø": 153,
      "Ù": 154,
      "Ú": 155,
      "Û": 156,
      "Ü": 157,
      "Ý": 158,
      "Þ": 159,
      "ß": 160,
      "à": 161,
      "á": 162,
      "â": 163,
      "ã": 164,
      "ä": 165,
      "å": 166,
      "æ": 167,
      "ç": 168,
      "è": 169,
      "é": 170,
      "ê": 171,
      "ë": 172,
      "ì": 173,
      "í": 174,
      "î": 175,
      "ï": 176,
      "ð": 177,
      "ñ": 178,
      "ò": 179,
      "ó": 180,
      "ô": 181,
      "õ": 182,
      "ö": 183,
      "ø": 184,
      "ù": 185,
      "ú": 186,
      "û": 187,
      "ü": 188,
      "ý": 189,
      "þ": 190,
      "ÿ": 191,
      "ā": 192,
      "Ă": 193,
      "ă": 194,
      "č": 195,
      "ę": 196,
      "ğ": 197,
      "ł": 198,
      "ń": 199,
      "Ō": 200,
      "ō": 201,
      "ő": 202,
      "Œ": 203,
      "œ": 204,
      "Ř": 205,
      "Ş": 206,
      "ş": 207,
      "Š": 208,
      "š": 209,
      "Ţ": 210,
      "ţ": 211,
      "ƒ": 212,
      "˜": 213,
      "́": 214,
      "Μ": 215,
      "ά": 216,
      "α": 217,
      "β": 218,
      "η": 219,
      "θ": 220,
      "μ": 221,
      "π": 222,
      "ρ": 223,
      "ς": 224,
      "τ": 225,
      "В": 226,
      "М": 227,
      "а": 228,
      "в": 229,
      "е": 230,
      "з": 231,
      "и": 232,
      "к": 233,
      "л": 234,
      "н": 235,
      "р": 236,
      "т": 237,
      "у": 238,
      "ц": 239,
      "ч": 240,
      "ш": 241,
      "ر": 242,
      "ع": 243,
      "م": 244,
      "ه": 245,
      "ُ": 246,
      "۩": 247,
      "ँ": 248,
      "ं": 249,
      "ः": 250,
      "अ": 251,
      "आ": 252,
      "इ": 253,
      "ई": 254,
      "उ": 255,
      "ऊ": 256,
      "ऋ": 257,
      "ए": 258,
      "ऐ": 259,
      "ओ": 260,
      "औ": 261,
      "क": 262,
      "ख": 263,
      "ग": 264,
      "घ": 265,
      "च": 266,
      "छ": 267,
      "ज": 268,
      "ञ": 269,
      "ट": 270,
      "ठ": 271,
      "ड": 272,
      "ढ": 273,
      "ण": 274,
      "त": 275,
      "थ": 276,
      "द": 277,
      "ध": 278,
      "न": 279,
      "प": 280,
      "फ": 281,
      "ब": 282,
      "भ": 283,
      "म": 284,
      "य": 285,
      "र": 286,
      "ल": 287,
      "व": 288,
      "श": 289,
      "ष": 290,
      "स": 291,
      "ह": 292,
      "ा": 293,
      "ि": 294,
      "ी": 295,
      "ु": 296,
      "ृ": 297,
      "े": 298,
      "ै": 299,
      "ो": 300,
      "ौ": 301,
      "्": 302,
      "।": 303,
      "०": 304,
      "१": 305,
      "२": 306,
      "३": 307,
      "४": 308,
      "५": 309,
      "६": 310,
      "७": 311,
      "८": 312,
      "९": 313,
      "ḥ": 314,
      "​": 315,
      "‎": 316,
      "‐": 317,
      "–": 318,
      "—": 319,
      "―": 320,
      "‘": 321,
      "’": 322,
      "‚": 323,
      "“": 324,
      "”": 325,
      "†": 326,
      "•": 327,
      "…": 328,
      "‪": 329,
      "‬": 330,
      "‰": 331,
      "′": 332,
      "‹": 333,
      "›": 334,
      "‽": 335,
      "⁄": 336,
      "⁇": 337,
      "₪": 338,
      "₫": 339,
      "€": 340,
      "™": 341,
      "→": 342,
      "√": 343,
      "∞": 344,
      "∶": 345,
      "▲": 346,
      "▽": 347,
      "●": 348,
      "★": 349,
      "☺": 350,
      "♣": 351,
      "♥": 352,
      "♦": 353,
      "♫": 354,
      "⚡": 355,
      "➡": 356,
      "⭐": 357,
      "「": 358,
      "」": 359,
      "い": 360,
      "う": 361,
      "お": 362,
      "く": 363,
      "さ": 364,
      "じ": 365,
      "た": 366,
      "ち": 367,
      "っ": 368,
      "な": 369,
      "に": 370,
      "の": 371,
      "ぺ": 372,
      "め": 373,
      "ゃ": 374,
      "ょ": 375,
      "よ": 376,
      "れ": 377,
      "を": 378,
      "ん": 379,
      "ア": 380,
      "キ": 381,
      "ラ": 382,
      "ー": 383,
      "一": 384,
      "三": 385,
      "不": 386,
      "世": 387,
      "人": 388,
      "住": 389,
      "便": 390,
      "公": 391,
      "営": 392,
      "地": 393,
      "坊": 394,
      "型": 395,
      "大": 396,
      "宅": 397,
      "害": 398,
      "弾": 399,
      "戦": 400,
      "所": 401,
      "新": 402,
      "材": 403,
      "次": 404,
      "汚": 405,
      "浄": 406,
      "溜": 407,
      "災": 408,
      "爆": 409,
      "界": 410,
      "禾": 411,
      "秒": 412,
      "第": 413,
      "肥": 414,
      "逸": 415,
      "離": 416,
      "": 417,
      "": 418,
      "": 419,
      "": 420,
      "": 421,
      "": 422,
      "": 423,
      "": 424,
      "": 425,
      "": 426,
      "": 427,
      "": 428,
      "": 429,
      "": 430,
      "": 431,
      "": 432,
      "": 433,
      "": 434,
      "": 435,
      "": 436,
      "": 437,
      "": 438,
      "": 439,
      "": 440,
      "": 441,
      "": 442,
      "": 443,
      "": 444,
      "": 445,
      "": 446,
      "": 447,
      "": 448,
      "": 449,
      "": 450,
      "": 451,
      "": 452,
      "": 453,
      "": 454,
      "": 455,
      "️": 456,
      "﻿": 457,
      "！": 458,
      "ﾉ": 459,
      "�": 460,
      "🎂": 461,
      "🏻": 462,
      "🐘": 463,
      "🐦": 464,
      "👏": 465,
      "💦": 466,
      "🗣": 467,
      "😃": 468,
      "😍": 469,
      "🙏": 470,
      "🤔": 471,
      "🤳": 472,
      "🥳": 473,
      "th": 474,
      "in": 475,
      "the": 476,
      "an": 477,
      "er": 478,
      "on": 479,
      "re": 480,
      "en": 481,
      "at": 482,
      "al": 483,
      "is": 484,
      "ed": 485,
      "or": 486,
      "ar": 487,
      "of": 488,
      "es": 489,
      "to": 490,
      "as": 491,
      "ing": 492,
      "it": 493,
      "and": 494,
      "ou": 495,
      "ion": 496,
      "ic": 497,
      "ent": 498,
      "le": 499,
      "om": 500,
      "st": 501,
      "he": 502,
      "il": 503,
      "be": 504,
      "ad": 505,
      "ve": 506,
      "id": 507,
      "se": 508,
      "ac": 509,
      "ro": 510,
      "am": 511,
      "for": 512,
      "ay": 513,
      "ation": 514,
      "ter": 515,
      "im": 516,
      "ur": 517,
      "no": 518,
      "ch": 519,
      "ol": 520,
      "ha": 521,
      "ct": 522,
      "ly": 523,
      "un": 524,
      "ment": 525,
      "ver": 526,
      "lo": 527,
      "that": 528,
      "tr": 529,
      "wh": 530,
      "con": 531,
      "ag": 532,
      "ir": 533,
      "ut": 534,
      "de": 535,
      "ig": 536,
      "The": 537,
      "res": 538,
      "ce": 539,
      "com": 540,
      "are": 541,
      "ill": 542,
      "pro": 543,
      "et": 544,
      "ab": 545,
      "su": 546,
      "ep": 547,
      "has": 548,
      "sh": 549,
      "ith": 550,
      "was": 551,
      "not": 552,
      "pe": 553,
      "ak": 554,
      "ld": 555,
      "with": 556,
      "ers": 557,
      "op": 558,
      "mo": 559,
      "te": 560,
      "ul": 561,
      "fr": 562,
      "so": 563,
      "oun": 564,
      "us": 565,
      "all": 566,
      "sa": 567,
      "ts": 568,
      "ne": 569,
      "by": 570,
      "we": 571,
      "li": 572,
      "ate": 573,
      "po": 574,
      "ain": 575,
      "est": 576,
      "ity": 577,
      "have": 578,
      "di": 579,
      "go": 580,
      "art": 581,
      "ere": 582,
      "In": 583,
      "our": 584,
      "said": 585,
      "ther": 586,
      "ap": 587,
      "pl": 588,
      "from": 589,
      "Nep": 590,
      "Nepal": 591,
      "his": 592,
      "ex": 593,
      "ess": 594,
      "em": 595,
      "ies": 596,
      "igh": 597,
      "iv": 598,
      "ould": 599,
      "one": 600,
      "ear": 601,
      "out": 602,
      "ow": 603,
      "ice": 604,
      "wor": 605,
      "pr": 606,
      "ive": 607,
      "man": 608,
      "will": 609,
      "od": 610,
      "end": 611,
      "been": 612,
      "this": 613,
      "per": 614,
      "if": 615,
      "por": 616,
      "dis": 617,
      "ial": 618,
      "ra": 619,
      "act": 620,
      "du": 621,
      "qu": 622,
      "ant": 623,
      "day": 624,
      "gr": 625,
      "ud": 626,
      "also": 627,
      "who": 628,
      "ist": 629,
      "ff": 630,
      "um": 631,
      "gh": 632,
      "ang": 633,
      "me": 634,
      "str": 635,
      "age": 636,
      "ip": 637,
      "Th": 638,
      "cl": 639,
      "ong": 640,
      "ord": 641,
      "ime": 642,
      "ore": 643,
      "ame": 644,
      "ke": 645,
      "do": 646,
      "ard": 647,
      "ction": 648,
      "part": 649,
      "ary": 650,
      "had": 651,
      "year": 652,
      "up": 653,
      "fter": 654,
      "00": 655,
      "ll": 656,
      "ated": 657,
      "vern": 658,
      "ure": 659,
      "iz": 660,
      "ie": 661,
      "port": 662,
      "but": 663,
      "ous": 664,
      "pres": 665,
      "au": 666,
      "cre": 667,
      "fe": 668,
      "ast": 669,
      "ub": 670,
      "ome": 671,
      "cr": 672,
      "ish": 673,
      "ev": 674,
      "can": 675,
      "Ch": 676,
      "pol": 677,
      "work": 678,
      "ach": 679,
      "vernment": 680,
      "ough": 681,
      "co": 682,
      "ich": 683,
      "ans": 684,
      "other": 685,
      "und": 686,
      "any": 687,
      "coun": 688,
      "ical": 689,
      "ok": 690,
      "form": 691,
      "comp": 692,
      "ight": 693,
      "ber": 694,
      "ople": 695,
      "were": 696,
      "ot": 697,
      "try": 698,
      "ack": 699,
      "inis": 700,
      "there": 701,
      "off": 702,
      "you": 703,
      "ake": 704,
      "ide": 705,
      "comm": 706,
      "now": 707,
      "government": 708,
      "He": 709,
      "after": 710,
      "cent": 711,
      "ict": 712,
      "their": 713,
      "its": 714,
      "el": 715,
      "av": 716,
      "people": 717,
      "ident": 718,
      "they": 719,
      "It": 720,
      "which": 721,
      "ib": 722,
      "ass": 723,
      "ign": 724,
      "ound": 725,
      "ade": 726,
      "ition": 727,
      "ace": 728,
      "pre": 729,
      "ge": 730,
      "ance": 731,
      "time": 732,
      "ence": 733,
      "ren": 734,
      "ine": 735,
      "able": 736,
      "fore": 737,
      "ree": 738,
      "bo": 739,
      "br": 740,
      "aw": 741,
      "..": 742,
      "low": 743,
      "ari": 744,
      "pos": 745,
      "wo": 746,
      "ile": 747,
      "old": 748,
      "ind": 749,
      "ser": 750,
      "new": 751,
      "ath": 752,
      "very": 753,
      "Pr": 754,
      "say": 755,
      "ational": 756,
      "more": 757,
      "sp": 758,
      "about": 759,
      "should": 760,
      "ire": 761,
      "cial": 762,
      "inter": 763,
      "ah": 764,
      "ark": 765,
      "ect": 766,
      "her": 767,
      "ase": 768,
      "ult": 769,
      "aj": 770,
      "cord": 771,
      "cur": 772,
      "ust": 773,
      "ia": 774,
      "ations": 775,
      "Wh": 776,
      "come": 777,
      "ci": 778,
      "ail": 779,
      "ck": 780,
      "only": 781,
      "int": 782,
      "prov": 783,
      "ions": 784,
      "cess": 785,
      "mon": 786,
      "ild": 787,
      "lop": 788,
      "some": 789,
      "lic": 790,
      "two": 791,
      "get": 792,
      "than": 793,
      "Indi": 794,
      "under": 795,
      "fir": 796,
      "own": 797,
      "velop": 798,
      "But": 799,
      "ue": 800,
      "ho": 801,
      "spe": 802,
      "him": 803,
      "my": 804,
      "lead": 805,
      "ater": 806,
      "ank": 807,
      "As": 808,
      "med": 809,
      "such": 810,
      "ress": 811,
      "Sh": 812,
      "way": 813,
      "ri": 814,
      "cont": 815,
      "would": 816,
      "when": 817,
      "Com": 818,
      "like": 819,
      "inister": 820,
      "inv": 821,
      "An": 822,
      "gan": 823,
      "country": 824,
      "ens": 825,
      "them": 826,
      "ele": 827,
      "ating": 828,
      "stit": 829,
      "over": 830,
      "made": 831,
      "rel": 832,
      "ally": 833,
      "years": 834,
      "ities": 835,
      "cus": 836,
      "ning": 837,
      "mand": 838,
      "att": 839,
      ",\"": 840,
      "cording": 841,
      "add": 842,
      "cal": 843,
      "reg": 844,
      "pa": 845,
      "ors": 846,
      "stru": 847,
      "There": 848,
      "ful": 849,
      "cted": 850,
      "again": 851,
      "ution": 852,
      "king": 853,
      "thing": 854,
      "We": 855,
      "rit": 856,
      "De": 857,
      "This": 858,
      "ists": 859,
      "play": 860,
      "ted": 861,
      "St": 862,
      "first": 863,
      "even": 864,
      "ublic": 865,
      "polit": 866,
      "pers": 867,
      "ple": 868,
      "serv": 869,
      "ener": 870,
      "ty": 871,
      "ces": 872,
      "iss": 873,
      "ory": 874,
      "19": 875,
      "distr": 876,
      "ob": 877,
      "wer": 878,
      "state": 879,
      "develop": 880,
      "land": 881,
      "national": 882,
      "Ma": 883,
      "sel": 884,
      "vis": 885,
      "air": 886,
      "Nepali": 887,
      "ting": 888,
      "main": 889,
      "bu": 890,
      "Un": 891,
      "tain": 892,
      "ick": 893,
      "ced": 894,
      "cer": 895,
      "fin": 896,
      "person": 897,
      "gram": 898,
      "shall": 899,
      "ite": 900,
      "mer": 901,
      "she": 902,
      "ned": 903,
      "ship": 904,
      "ject": 905,
      "pp": 906,
      "ise": 907,
      "bet": 908,
      "pur": 909,
      "ters": 910,
      "did": 911,
      "incl": 912,
      "could": 913,
      "vel": 914,
      "ose": 915,
      "col": 916,
      "Minister": 917,
      "cau": 918,
      "sy": 919,
      "red": 920,
      "par": 921,
      "20": 922,
      "ased": 923,
      "row": 924,
      "ates": 925,
      "dec": 926,
      "incre": 927,
      "ble": 928,
      "ven": 929,
      "Ne": 930,
      "mem": 931,
      "rough": 932,
      "tee": 933,
      "arm": 934,
      "know": 935,
      "cho": 936,
      "call": 937,
      "ash": 938,
      "India": 939,
      "may": 940,
      "organ": 941,
      "party": 942,
      "diff": 943,
      "ese": 944,
      "Comm": 945,
      "200": 946,
      "arr": 947,
      "start": 948,
      "into": 949,
      "uring": 950,
      "program": 951,
      "Ac": 952,
      "ited": 953,
      "tak": 954,
      "illion": 955,
      "mark": 956,
      "fo": 957,
      "many": 958,
      "cause": 959,
      "ouse": 960,
      "plo": 961,
      "ons": 962,
      "ital": 963,
      "ctor": 964,
      "If": 965,
      "Ho": 966,
      "ai": 967,
      "cons": 968,
      "led": 969,
      "offic": 970,
      "hand": 971,
      "reat": 972,
      "produ": 973,
      "lish": 974,
      "oper": 975,
      "while": 976,
      "cond": 977,
      "read": 978,
      "through": 979,
      "ents": 980,
      "tur": 981,
      "ek": 982,
      "Ar": 983,
      "public": 984,
      "tal": 985,
      "where": 986,
      "ments": 987,
      "Se": 988,
      "ittee": 989,
      "ik": 990,
      "high": 991,
      "three": 992,
      "ince": 993,
      "last": 994,
      "bus": 995,
      "good": 996,
      "ved": 997,
      "dr": 998,
      "ied": 999,
      "ism": 1000,
      "what": 1001,
      "chang": 1002,
      "wom": 1003,
      "ph": 1004,
      "ix": 1005,
      "For": 1006,
      "road": 1007,
      "includ": 1008,
      "vers": 1009,
      "uch": 1010,
      "your": 1011,
      "make": 1012,
      "issu": 1013,
      "sur": 1014,
      "power": 1015,
      "vi": 1016,
      "Mao": 1017,
      "against": 1018,
      "most": 1019,
      "ward": 1020,
      "stitution": 1021,
      "vie": 1022,
      "sub": 1023,
      "invest": 1024,
      "set": 1025,
      "organiz": 1026,
      "ility": 1027,
      "ving": 1028,
      "soci": 1029,
      "used": 1030,
      "cle": 1031,
      "long": 1032,
      "ian": 1033,
      "need": 1034,
      "min": 1035,
      "alth": 1036,
      "meet": 1037,
      "ms": 1038,
      "hu": 1039,
      "ative": 1040,
      "sto": 1041,
      "fl": 1042,
      "cy": 1043,
      "gy": 1044,
      "same": 1045,
      "ered": 1046,
      "stud": 1047,
      "came": 1048,
      "cap": 1049,
      "har": 1050,
      "child": 1051,
      "hel": 1052,
      "fer": 1053,
      "cour": 1054,
      "every": 1055,
      "being": 1056,
      "move": 1057,
      "self": 1058,
      "arch": 1059,
      "month": 1060,
      "stand": 1061,
      "iness": 1062,
      "dire": 1063,
      "According": 1064,
      "aff": 1065,
      "development": 1066,
      "political": 1067,
      "just": 1068,
      "des": 1069,
      "pt": 1070,
      "leg": 1071,
      "place": 1072,
      "wever": 1073,
      "ual": 1074,
      "present": 1075,
      "law": 1076,
      "cor": 1077,
      "these": 1078,
      "Con": 1079,
      "ef": 1080,
      "ten": 1081,
      "though": 1082,
      "press": 1083,
      "take": 1084,
      "trans": 1085,
      "ween": 1086,
      "giv": 1087,
      "clo": 1088,
      "Chin": 1089,
      "sit": 1090,
      "percent": 1091,
      "says": 1092,
      "Fr": 1093,
      "ible": 1094,
      "found": 1095,
      "oup": 1096,
      "world": 1097,
      "head": 1098,
      "between": 1099,
      "fam": 1100,
      "ific": 1101,
      "ploy": 1102,
      "mak": 1103,
      "chool": 1104,
      "ink": 1105,
      "ug": 1106,
      "icip": 1107,
      "use": 1108,
      "local": 1109,
      "Mo": 1110,
      "New": 1111,
      "Al": 1112,
      "back": 1113,
      "ural": 1114,
      "market": 1115,
      "well": 1116,
      "mat": 1117,
      "Kath": 1118,
      "Re": 1119,
      "ality": 1120,
      "ily": 1121,
      "esh": 1122,
      "those": 1123,
      "house": 1124,
      "adh": 1125,
      "before": 1126,
      "cut": 1127,
      "proble": 1128,
      "then": 1129,
      "mandu": 1130,
      "On": 1131,
      "Kathmandu": 1132,
      "due": 1133,
      "conom": 1134,
      "gu": 1135,
      "peri": 1136,
      "stem": 1137,
      "reach": 1138,
      "ss": 1139,
      "does": 1140,
      "mocr": 1141,
      "ief": 1142,
      "resident": 1143,
      "num": 1144,
      "district": 1145,
      "war": 1146,
      "writ": 1147,
      "ices": 1148,
      "put": 1149,
      "tern": 1150,
      "four": 1151,
      "inform": 1152,
      "gener": 1153,
      "ission": 1154,
      "plan": 1155,
      "After": 1156,
      "open": 1157,
      "ort": 1158,
      "lar": 1159,
      "ner": 1160,
      "sup": 1161,
      "Tr": 1162,
      "ft": 1163,
      "Go": 1164,
      "les": 1165,
      "don": 1166,
      "less": 1167,
      "including": 1168,
      "ics": 1169,
      "differ": 1170,
      "However": 1171,
      "million": 1172,
      "And": 1173,
      "hal": 1174,
      "because": 1175,
      "run": 1176,
      "look": 1177,
      "rent": 1178,
      "view": 1179,
      "meeting": 1180,
      "sc": 1181,
      "ves": 1182,
      "level": 1183,
      "curity": 1184,
      "commun": 1185,
      "resp": 1186,
      "fil": 1187,
      "tem": 1188,
      ".\"": 1189,
      "ush": 1190,
      "ided": 1191,
      "They": 1192,
      "ann": 1193,
      "team": 1194,
      "eng": 1195,
      "started": 1196,
      "life": 1197,
      "econom": 1198,
      "point": 1199,
      "name": 1200,
      "police": 1201,
      "system": 1202,
      "business": 1203,
      "ness": 1204,
      "ights": 1205,
      "og": 1206,
      "Ba": 1207,
      "how": 1208,
      "als": 1209,
      "Mr": 1210,
      "called": 1211,
      "thor": 1212,
      "ung": 1213,
      "during": 1214,
      "fol": 1215,
      "rece": 1216,
      "see": 1217,
      "show": 1218,
      "son": 1219,
      "ask": 1220,
      "vo": 1221,
      "down": 1222,
      "help": 1223,
      "leader": 1224,
      "char": 1225,
      "abab": 1226,
      "lack": 1227,
      "order": 1228,
      "week": 1229,
      "edu": 1230,
      "Cha": 1231,
      "ax": 1232,
      "women": 1233,
      "arly": 1234,
      "action": 1235,
      "rest": 1236,
      "So": 1237,
      "exp": 1238,
      "xt": 1239,
      "water": 1240,
      "uation": 1241,
      "ious": 1242,
      "kill": 1243,
      "constitution": 1244,
      "No": 1245,
      "school": 1246,
      "president": 1247,
      "ya": 1248,
      "At": 1249,
      "sm": 1250,
      "ives": 1251,
      "cret": 1252,
      "ave": 1253,
      "comple": 1254,
      "report": 1255,
      "constru": 1256,
      "Pol": 1257,
      "home": 1258,
      "10": 1259,
      "000": 1260,
      "Off": 1261,
      "....": 1262,
      "icult": 1263,
      "want": 1264,
      "here": 1265,
      "ision": 1266,
      "vill": 1267,
      "import": 1268,
      "dustr": 1269,
      "ared": 1270,
      "ati": 1271,
      "group": 1272,
      "area": 1273,
      "--": 1274,
      "sha": 1275,
      "Man": 1276,
      "ody": 1277,
      "der": 1278,
      "cam": 1279,
      "lit": 1280,
      "employ": 1281,
      "ived": 1282,
      "cation": 1283,
      "days": 1284,
      "Pro": 1285,
      "official": 1286,
      "ures": 1287,
      "children": 1288,
      "acy": 1289,
      "ather": 1290,
      "number": 1291,
      "ins": 1292,
      "Rs": 1293,
      "Prime": 1294,
      "ants": 1295,
      "pass": 1296,
      "sing": 1297,
      "fac": 1298,
      "security": 1299,
      "taken": 1300,
      "ali": 1301,
      "line": 1302,
      "going": 1303,
      "happ": 1304,
      "parties": 1305,
      "ament": 1306,
      "ason": 1307,
      "health": 1308,
      "minis": 1309,
      "imes": 1310,
      "oney": 1311,
      "without": 1312,
      "Be": 1313,
      "project": 1314,
      "han": 1315,
      "outh": 1316,
      "within": 1317,
      "tries": 1318,
      "ys": 1319,
      "hold": 1320,
      "ying": 1321,
      "ety": 1322,
      "contr": 1323,
      "consid": 1324,
      "poss": 1325,
      "dra": 1326,
      "let": 1327,
      "la": 1328,
      "election": 1329,
      "member": 1330,
      "tion": 1331,
      "sol": 1332,
      "become": 1333,
      "case": 1334,
      "mit": 1335,
      "current": 1336,
      "car": 1337,
      "ior": 1338,
      "ibut": 1339,
      "much": 1340,
      "quest": 1341,
      "bank": 1342,
      "five": 1343,
      "different": 1344,
      "China": 1345,
      "bas": 1346,
      "right": 1347,
      "vari": 1348,
      "sure": 1349,
      "company": 1350,
      "Cong": 1351,
      "istr": 1352,
      "retur": 1353,
      "Bo": 1354,
      "second": 1355,
      "body": 1356,
      "prom": 1357,
      "seem": 1358,
      "tle": 1359,
      "Congress": 1360,
      "follow": 1361,
      "situation": 1362,
      "ings": 1363,
      "post": 1364,
      "men": 1365,
      "),": 1366,
      "given": 1367,
      "pect": 1368,
      "process": 1369,
      "En": 1370,
      "jo": 1371,
      "support": 1372,
      "another": 1373,
      "iate": 1374,
      "ised": 1375,
      "mb": 1376,
      "appe": 1377,
      "book": 1378,
      "del": 1379,
      "change": 1380,
      "democr": 1381,
      "ention": 1382,
      "six": 1383,
      "hak": 1384,
      "ired": 1385,
      "ature": 1386,
      "che": 1387,
      "colle": 1388,
      "ready": 1389,
      "contin": 1390,
      "beli": 1391,
      "polic": 1392,
      "eas": 1393,
      "both": 1394,
      "fact": 1395,
      "To": 1396,
      "bers": 1397,
      "val": 1398,
      "coming": 1399,
      "Ad": 1400,
      "ages": 1401,
      "sign": 1402,
      "pay": 1403,
      "ues": 1404,
      "Indian": 1405,
      "money": 1406,
      "aim": 1407,
      "Bh": 1408,
      "Par": 1409,
      "ought": 1410,
      "President": 1411,
      "demand": 1412,
      "ablish": 1413,
      "tra": 1414,
      "imple": 1415,
      "cas": 1416,
      "mil": 1417,
      "countries": 1418,
      "Le": 1419,
      "Is": 1420,
      "ular": 1421,
      "gg": 1422,
      "ru": 1423,
      "committee": 1424,
      "build": 1425,
      "mar": 1426,
      "foreign": 1427,
      "tech": 1428,
      "Sub": 1429,
      "since": 1430,
      "She": 1431,
      "according": 1432,
      "went": 1433,
      "az": 1434,
      "office": 1435,
      "ized": 1436,
      "ago": 1437,
      "ination": 1438,
      "ird": 1439,
      "service": 1440,
      "concer": 1441,
      "inc": 1442,
      "industr": 1443,
      "ield": 1444,
      "hadur": 1445,
      "15": 1446,
      "contro": 1447,
      "establish": 1448,
      "leaders": 1449,
      "wal": 1450,
      "Bahadur": 1451,
      "vir": 1452,
      "eder": 1453,
      "Maoists": 1454,
      "bro": 1455,
      "nor": 1456,
      "Act": 1457,
      "mor": 1458,
      "atic": 1459,
      "os": 1460,
      "various": 1461,
      "village": 1462,
      "nal": 1463,
      "tour": 1464,
      "social": 1465,
      "imil": 1466,
      "lim": 1467,
      "cil": 1468,
      "still": 1469,
      "aut": 1470,
      "activ": 1471,
      "Sun": 1472,
      "Raj": 1473,
      "Madh": 1474,
      "information": 1475,
      "ense": 1476,
      "construction": 1477,
      "discus": 1478,
      "working": 1479,
      "bor": 1480,
      "blo": 1481,
      "ize": 1482,
      "Amer": 1483,
      "author": 1484,
      "ines": 1485,
      "ering": 1486,
      "Mah": 1487,
      "prof": 1488,
      "ball": 1489,
      "Americ": 1490,
      "today": 1491,
      "interest": 1492,
      "cretary": 1493,
      "family": 1494,
      "suc": 1495,
      "half": 1496,
      "consu": 1497,
      "pop": 1498,
      "Ro": 1499,
      "na": 1500,
      "hi": 1501,
      "top": 1502,
      "Committee": 1503,
      "spital": 1504,
      "big": 1505,
      "hist": 1506,
      "ency": 1507,
      "US": 1508,
      "Police": 1509,
      "ond": 1510,
      "held": 1511,
      "National": 1512,
      "Wor": 1513,
      "When": 1514,
      "win": 1515,
      "ways": 1516,
      "What": 1517,
      "ral": 1518,
      "ajor": 1519,
      "United": 1520,
      "augh": 1521,
      "compet": 1522,
      "sal": 1523,
      "told": 1524,
      "liament": 1525,
      "position": 1526,
      "months": 1527,
      "Pe": 1528,
      "ged": 1529,
      "ator": 1530,
      "plac": 1531,
      "around": 1532,
      "gun": 1533,
      "ton": 1534,
      "far": 1535,
      "game": 1536,
      "Ram": 1537,
      "ike": 1538,
      "left": 1539,
      "ey": 1540,
      "eff": 1541,
      "Coun": 1542,
      "rights": 1543,
      "making": 1544,
      "fri": 1545,
      "trad": 1546,
      "spo": 1547,
      "friend": 1548,
      "You": 1549,
      "saying": 1550,
      "search": 1551,
      "anch": 1552,
      "Lo": 1553,
      "aren": 1554,
      "tre": 1555,
      "tha": 1556,
      "ana": 1557,
      "discuss": 1558,
      "keep": 1559,
      "ks": 1560,
      "remain": 1561,
      "uk": 1562,
      "human": 1563,
      "implement": 1564,
      "ling": 1565,
      "clear": 1566,
      "Dep": 1567,
      "period": 1568,
      "Nepalese": 1569,
      "ars": 1570,
      "ross": 1571,
      "That": 1572,
      "ric": 1573,
      "cept": 1574,
      "think": 1575,
      "agree": 1576,
      "general": 1577,
      "ham": 1578,
      "ended": 1579,
      "Now": 1580,
      "city": 1581,
      "major": 1582,
      "ivers": 1583,
      "Ex": 1584,
      "Jo": 1585,
      "oung": 1586,
      "til": 1587,
      "international": 1588,
      "problem": 1589,
      "Maoist": 1590,
      "bring": 1591,
      "done": 1592,
      "give": 1593,
      "necess": 1594,
      "equ": 1595,
      "bre": 1596,
      "former": 1597,
      "ML": 1598,
      "recent": 1599,
      "Dr": 1600,
      "past": 1601,
      "ides": 1602,
      "ports": 1603,
      "ified": 1604,
      "vict": 1605,
      "respons": 1606,
      "plain": 1607,
      "got": 1608,
      "Tha": 1609,
      "gre": 1610,
      "ris": 1611,
      "ministr": 1612,
      "issue": 1613,
      "list": 1614,
      "Distr": 1615,
      "field": 1616,
      "ancial": 1617,
      "bal": 1618,
      "cannot": 1619,
      "cult": 1620,
      "requ": 1621,
      "class": 1622,
      "few": 1623,
      "wa": 1624,
      "exam": 1625,
      "allow": 1626,
      "grow": 1627,
      "special": 1628,
      "custo": 1629,
      "enter": 1630,
      "12": 1631,
      "small": 1632,
      "movement": 1633,
      "capital": 1634,
      "each": 1635,
      "economic": 1636,
      "minister": 1637,
      "adi": 1638,
      "amp": 1639,
      "seen": 1640,
      "visit": 1641,
      "bur": 1642,
      "net": 1643,
      "quar": 1644,
      "Jan": 1645,
      "Sing": 1646,
      "ibility": 1647,
      "Office": 1648,
      "next": 1649,
      "ange": 1650,
      "sent": 1651,
      "pend": 1652,
      "ont": 1653,
      "priv": 1654,
      "ls": 1655,
      "tru": 1656,
      "ala": 1657,
      "ste": 1658,
      "policy": 1659,
      "rul": 1660,
      "cu": 1661,
      "angu": 1662,
      "ani": 1663,
      "cover": 1664,
      "test": 1665,
      "train": 1666,
      "ional": 1667,
      "mother": 1668,
      "Au": 1669,
      "claim": 1670,
      "ames": 1671,
      "great": 1672,
      "particip": 1673,
      "District": 1674,
      "UML": 1675,
      "direct": 1676,
      "important": 1677,
      "ication": 1678,
      "decision": 1679,
      "prote": 1680,
      "side": 1681,
      "food": 1682,
      "Minis": 1683,
      "urs": 1684,
      "peace": 1685,
      "possible": 1686,
      "received": 1687,
      "onment": 1688,
      "ata": 1689,
      "Ministry": 1690,
      "lot": 1691,
      "young": 1692,
      "increased": 1693,
      "sector": 1694,
      "officials": 1695,
      "ources": 1696,
      "Madhes": 1697,
      ").": 1698,
      "Bank": 1699,
      "conf": 1700,
      "among": 1701,
      "elect": 1702,
      "Commission": 1703,
      "treat": 1704,
      "society": 1705,
      "def": 1706,
      "fall": 1707,
      "atives": 1708,
      "father": 1709,
      "Rep": 1710,
      "necessary": 1711,
      "cit": 1712,
      "igation": 1713,
      "bar": 1714,
      "rele": 1715,
      "ork": 1716,
      "word": 1717,
      "took": 1718,
      "ry": 1719,
      "16": 1720,
      "understand": 1721,
      "reached": 1722,
      "proper": 1723,
      "30": 1724,
      "large": 1725,
      "hy": 1726,
      "ousand": 1727,
      "adv": 1728,
      "ref": 1729,
      "imp": 1730,
      "agement": 1731,
      "education": 1732,
      "hic": 1733,
      "care": 1734,
      "Develop": 1735,
      "Mon": 1736,
      "uro": 1737,
      "express": 1738,
      "night": 1739,
      "ama": 1740,
      "oc": 1741,
      "aged": 1742,
      "mediate": 1743,
      "attack": 1744,
      "members": 1745,
      "suff": 1746,
      "rup": 1747,
      "tar": 1748,
      "langu": 1749,
      "unicip": 1750,
      "pract": 1751,
      "product": 1752,
      "invol": 1753,
      "With": 1754,
      "based": 1755,
      "tax": 1756,
      "announ": 1757,
      "basis": 1758,
      "hether": 1759,
      "ability": 1760,
      "idd": 1761,
      "sociation": 1762,
      "light": 1763,
      "Government": 1764,
      "app": 1765,
      "ror": 1766,
      "ley": 1767,
      "amoun": 1768,
      "financial": 1769,
      "won": 1770,
      "Development": 1771,
      "dom": 1772,
      "iday": 1773,
      "propos": 1774,
      "chief": 1775,
      "role": 1776,
      "Cl": 1777,
      "ivil": 1778,
      "ched": 1779,
      "unity": 1780,
      "ute": 1781,
      "increas": 1782,
      "condu": 1783,
      "students": 1784,
      "things": 1785,
      "areas": 1786,
      "His": 1787,
      "feel": 1788,
      "nes": 1789,
      "bl": 1790,
      "paign": 1791,
      "teach": 1792,
      "increase": 1793,
      "Even": 1794,
      "statement": 1795,
      "ending": 1796,
      "yal": 1797,
      "employe": 1798,
      "arrest": 1799,
      "ets": 1800,
      "pursu": 1801,
      "real": 1802,
      "Shres": 1803,
      "third": 1804,
      "provide": 1805,
      "fail": 1806,
      "Shrestha": 1807,
      "All": 1808,
      "vironment": 1809,
      "Co": 1810,
      "ually": 1811,
      "endra": 1812,
      "ically": 1813,
      "news": 1814,
      "18": 1815,
      "ici": 1816,
      "democracy": 1817,
      "mus": 1818,
      "success": 1819,
      "jour": 1820,
      "court": 1821,
      "already": 1822,
      "ept": 1823,
      "vision": 1824,
      "nolo": 1825,
      "known": 1826,
      "Council": 1827,
      "difficult": 1828,
      "comes": 1829,
      "Ko": 1830,
      "ests": 1831,
      "init": 1832,
      "fill": 1833,
      "Pras": 1834,
      "gin": 1835,
      "11": 1836,
      "considered": 1837,
      "problems": 1838,
      "decl": 1839,
      "free": 1840,
      "strong": 1841,
      "sen": 1842,
      "ival": 1843,
      "ured": 1844,
      "Bar": 1845,
      "ben": 1846,
      "Gener": 1847,
      "too": 1848,
      "Pl": 1849,
      "room": 1850,
      "ban": 1851,
      "World": 1852,
      "campaign": 1853,
      "tel": 1854,
      "private": 1855,
      "lect": 1856,
      "brought": 1857,
      "pain": 1858,
      "mi": 1859,
      "Kum": 1860,
      "milit": 1861,
      "addition": 1862,
      "killed": 1863,
      "film": 1864,
      "dies": 1865,
      "Me": 1866,
      "abababab": 1867,
      "deter": 1868,
      "cost": 1869,
      "Oli": 1870,
      "fund": 1871,
      "ising": 1872,
      "effect": 1873,
      "Some": 1874,
      "viol": 1875,
      "using": 1876,
      "depend": 1877,
      "ederal": 1878,
      "ground": 1879,
      "appoint": 1880,
      "tail": 1881,
      "face": 1882,
      "ca": 1883,
      "nation": 1884,
      "ats": 1885,
      "organization": 1886,
      "represent": 1887,
      "ude": 1888,
      "idence": 1889,
      "means": 1890,
      "Part": 1891,
      "must": 1892,
      "Prasad": 1893,
      "spec": 1894,
      "div": 1895,
      "Simil": 1896,
      "loc": 1897,
      "aring": 1898,
      "artment": 1899,
      "50": 1900,
      "ale": 1901,
      "find": 1902,
      "workers": 1903,
      "forward": 1904,
      "fort": 1905,
      "mind": 1906,
      "thousand": 1907,
      "fur": 1908,
      "hol": 1909,
      "Inter": 1910,
      "foot": 1911,
      "immediate": 1912,
      "ried": 1913,
      "seven": 1914,
      "media": 1915,
      "Sat": 1916,
      "community": 1917,
      "sho": 1918,
      "services": 1919,
      "ublish": 1920,
      "lt": 1921,
      "2007": 1922,
      "ilities": 1923,
      "citiz": 1924,
      "Brit": 1925,
      "added": 1926,
      "...": 1927,
      "Similarly": 1928,
      "taking": 1929,
      "others": 1930,
      "fire": 1931,
      "miss": 1932,
      "living": 1933,
      "amount": 1934,
      "language": 1935,
      "Sha": 1936,
      "Gr": 1937,
      "times": 1938,
      "met": 1939,
      "inking": 1940,
      "along": 1941,
      "arma": 1942,
      "stre": 1943,
      "ulation": 1944,
      "died": 1945,
      "imal": 1946,
      "ened": 1947,
      "Thapa": 1948,
      "crit": 1949,
      "ards": 1950,
      "vehic": 1951,
      "vol": 1952,
      "ization": 1953,
      "ns": 1954,
      "publish": 1955,
      "AN": 1956,
      "formed": 1957,
      "commit": 1958,
      "mber": 1959,
      "environment": 1960,
      "seems": 1961,
      "Res": 1962,
      "atch": 1963,
      "redu": 1964,
      "why": 1965,
      "ney": 1966,
      "ecut": 1967,
      "Eng": 1968,
      "fut": 1969,
      "Association": 1970,
      "hour": 1971,
      "semb": 1972,
      "17": 1973,
      "uary": 1974,
      "later": 1975,
      "hospital": 1976,
      "sell": 1977,
      "undred": 1978,
      "central": 1979,
      "agar": 1980,
      "administr": 1981,
      "appro": 1982,
      "General": 1983,
      "ps": 1984,
      "condition": 1985,
      "billion": 1986,
      "experi": 1987,
      "wise": 1988,
      "operation": 1989,
      "little": 1990,
      "unicipality": 1991,
      "away": 1992,
      "iversity": 1993,
      "itive": 1994,
      "Euro": 1995,
      "control": 1996,
      "opport": 1997,
      "legal": 1998,
      "soon": 1999,
      "cture": 2000,
      "agreement": 2001,
      "ister": 2002,
      "ference": 2003,
      "lier": 2004,
      "ife": 2005,
      "nology": 2006,
      "vice": 2007,
      "non": 2008,
      "season": 2009,
      "compan": 2010,
      "South": 2011,
      "death": 2012,
      "pursuant": 2013,
      "Department": 2014,
      "record": 2015,
      "farm": 2016,
      "became": 2017,
      "jud": 2018,
      "section": 2019,
      "crib": 2020,
      "Ira": 2021,
      "best": 2022,
      "Although": 2023,
      "cing": 2024,
      "yet": 2025,
      "until": 2026,
      "bit": 2027,
      "song": 2028,
      "Chief": 2029,
      "Iraq": 2030,
      "One": 2031,
      "Am": 2032,
      "Therefore": 2033,
      "Col": 2034,
      "study": 2035,
      "earth": 2036,
      "ury": 2037,
      "Fore": 2038,
      "fun": 2039,
      "itor": 2040,
      "always": 2041,
      "distribut": 2042,
      "kind": 2043,
      "den": 2044,
      "investment": 2045,
      "14": 2046,
      "gl": 2047,
      "ison": 2048,
      "ceed": 2049,
      "Te": 2050,
      "Ser": 2051,
      "speak": 2052,
      "grap": 2053,
      "conne": 2054,
      "inj": 2055,
      "CP": 2056,
      "dro": 2057,
      "question": 2058,
      "pected": 2059,
      "How": 2060,
      "100": 2061,
      "stu": 2062,
      "issues": 2063,
      "chair": 2064,
      "istan": 2065,
      "never": 2066,
      "ential": 2067,
      "concerned": 2068,
      "States": 2069,
      "ran": 2070,
      "civil": 2071,
      "hit": 2072,
      "bud": 2073,
      "following": 2074,
      "dest": 2075,
      "woman": 2076,
      "Nor": 2077,
      "incident": 2078,
      "ma": 2079,
      "future": 2080,
      "sed": 2081,
      "dam": 2082,
      "sk": 2083,
      "live": 2084,
      "short": 2085,
      "ayan": 2086,
      "reed": 2087,
      "tell": 2088,
      "assist": 2089,
      "affect": 2090,
      "People": 2091,
      "kes": 2092,
      "Friday": 2093,
      "May": 2094,
      "wards": 2095,
      "increasing": 2096,
      "pped": 2097,
      "outs": 2098,
      "Chair": 2099,
      "ountain": 2100,
      "Mar": 2101,
      "iding": 2102,
      "production": 2103,
      "Europe": 2104,
      "........": 2105,
      "gest": 2106,
      "sembly": 2107,
      "band": 2108,
      "tor": 2109,
      "Or": 2110,
      "etc": 2111,
      "ones": 2112,
      "Monday": 2113,
      "paren": 2114,
      "Po": 2115,
      "avail": 2116,
      "ordin": 2117,
      "benef": 2118,
      "Not": 2119,
      "trying": 2120,
      "Spe": 2121,
      "price": 2122,
      "force": 2123,
      "Wed": 2124,
      "competition": 2125,
      "anda": 2126,
      "total": 2127,
      "Ab": 2128,
      "least": 2129,
      "job": 2130,
      "industry": 2131,
      "lab": 2132,
      "Pok": 2133,
      "military": 2134,
      "ger": 2135,
      "near": 2136,
      "goods": 2137,
      "Bir": 2138,
      "rule": 2139,
      "whether": 2140,
      "accoun": 2141,
      "ext": 2142,
      "acc": 2143,
      "asked": 2144,
      "key": 2145,
      "river": 2146,
      "Wednes": 2147,
      "nat": 2148,
      "DC": 2149,
      "tt": 2150,
      "Wednesday": 2151,
      "love": 2152,
      "aid": 2153,
      "active": 2154,
      "building": 2155,
      "reason": 2156,
      "places": 2157,
      "story": 2158,
      "leadership": 2159,
      "rate": 2160,
      "liter": 2161,
      "fav": 2162,
      "Secretary": 2163,
      "Sunday": 2164,
      "once": 2165,
      "aper": 2166,
      "vious": 2167,
      "ump": 2168,
      "hon": 2169,
      "arai": 2170,
      "Cor": 2171,
      "pose": 2172,
      "Thurs": 2173,
      "Singh": 2174,
      "cting": 2175,
      "involved": 2176,
      "ges": 2177,
      "13": 2178,
      "Yah": 2179,
      "hundred": 2180,
      "Thursday": 2181,
      "budget": 2182,
      "nam": 2183,
      "Cour": 2184,
      "Tues": 2185,
      "politics": 2186,
      "sat": 2187,
      "final": 2188,
      "carr": 2189,
      "Tuesday": 2190,
      "certain": 2191,
      "prep": 2192,
      "American": 2193,
      "gn": 2194,
      "army": 2195,
      "flow": 2196,
      "related": 2197,
      "cused": 2198,
      "expected": 2199,
      "Kumar": 2200,
      "ij": 2201,
      "heart": 2202,
      "mers": 2203,
      "ctions": 2204,
      "While": 2205,
      "hard": 2206,
      "address": 2207,
      "serious": 2208,
      "ta": 2209,
      "My": 2210,
      "site": 2211,
      "companies": 2212,
      "draw": 2213,
      "God": 2214,
      "appl": 2215,
      "return": 2216,
      "icket": 2217,
      "written": 2218,
      "gress": 2219,
      "aly": 2220,
      "history": 2221,
      "Yad": 2222,
      "treatment": 2223,
      "relig": 2224,
      "tele": 2225,
      "Party": 2226,
      "agr": 2227,
      "located": 2228,
      "arrested": 2229,
      "prove": 2230,
      "Pak": 2231,
      "achie": 2232,
      "imate": 2233,
      "profess": 2234,
      "depart": 2235,
      "Do": 2236,
      "remo": 2237,
      "provided": 2238,
      "stat": 2239,
      "ctors": 2240,
      "sex": 2241,
      "gar": 2242,
      "complete": 2243,
      "vent": 2244,
      "activities": 2245,
      "works": 2246,
      "center": 2247,
      "rish": 2248,
      "hous": 2249,
      "separ": 2250,
      "Chinese": 2251,
      "step": 2252,
      "submit": 2253,
      "organized": 2254,
      "music": 2255,
      "gether": 2256,
      "selves": 2257,
      "established": 2258,
      "199": 2259,
      "ences": 2260,
      "mis": 2261,
      ".,": 2262,
      "Yadav": 2263,
      "victim": 2264,
      "25": 2265,
      "cribed": 2266,
      "deal": 2267,
      "management": 2268,
      "adding": 2269,
      "aughter": 2270,
      "Bud": 2271,
      "Court": 2272,
      "weh": 2273,
      "training": 2274,
      "break": 2275,
      "Yahweh": 2276,
      "Sharma": 2277,
      "ances": 2278,
      "ined": 2279,
      "result": 2280,
      "Satur": 2281,
      "tradition": 2282,
      "bed": 2283,
      "je": 2284,
      "matter": 2285,
      "front": 2286,
      "available": 2287,
      "Reg": 2288,
      "Dev": 2289,
      "stay": 2290,
      "fest": 2291,
      "close": 2292,
      "lost": 2293,
      "trade": 2294,
      "goal": 2295,
      "technology": 2296,
      "together": 2297,
      "Dh": 2298,
      "amb": 2299,
      "date": 2300,
      "raised": 2301,
      "text": 2302,
      "Chand": 2303,
      "wel": 2304,
      "ester": 2305,
      "full": 2306,
      "apan": 2307,
      "played": 2308,
      "pati": 2309,
      "Since": 2310,
      "complain": 2311,
      "director": 2312,
      "mob": 2313,
      "Fin": 2314,
      "flo": 2315,
      "vention": 2316,
      "Saturday": 2317,
      "forest": 2318,
      "himself": 2319,
      "research": 2320,
      "deb": 2321,
      "border": 2322,
      "docu": 2323,
      "decided": 2324,
      "AT": 2325,
      "eve": 2326,
      "pen": 2327,
      "igr": 2328,
      "Japan": 2329,
      "Ph": 2330,
      "attr": 2331,
      "stead": 2332,
      "immediately": 2333,
      "share": 2334,
      "ints": 2335,
      "ecutive": 2336,
      "York": 2337,
      "brother": 2338,
      "mag": 2339,
      "Fe": 2340,
      "journal": 2341,
      "pread": 2342,
      "mater": 2343,
      "region": 2344,
      "morning": 2345,
      "sum": 2346,
      "ier": 2347,
      "cell": 2348,
      "Like": 2349,
      "nu": 2350,
      "ished": 2351,
      "bir": 2352,
      "olog": 2353,
      "cast": 2354,
      "San": 2355,
      "ators": 2356,
      "reli": 2357,
      "icts": 2358,
      "van": 2359,
      "mountain": 2360,
      "tit": 2361,
      "sl": 2362,
      "itation": 2363,
      "design": 2364,
      "parliament": 2365,
      "Gur": 2366,
      "mult": 2367,
      "Ju": 2368,
      "inst": 2369,
      "Air": 2370,
      "programs": 2371,
      "grad": 2372,
      "Su": 2373,
      "federal": 2374,
      "ensive": 2375,
      "chall": 2376,
      "cris": 2377,
      "looking": 2378,
      "aster": 2379,
      "mess": 2380,
      "wan": 2381,
      "weak": 2382,
      "sever": 2383,
      "prepar": 2384,
      "hoto": 2385,
      "proved": 2386,
      "House": 2387,
      "talks": 2388,
      "bill": 2389,
      "employees": 2390,
      "charac": 2391,
      "terror": 2392,
      "contract": 2393,
      "phone": 2394,
      "pite": 2395,
      "corrup": 2396,
      "maintain": 2397,
      "ager": 2398,
      "dou": 2399,
      "ina": 2400,
      "Nar": 2401,
      "pressure": 2402,
      "International": 2403,
      "announced": 2404,
      "sugg": 2405,
      "block": 2406,
      "Parliament": 2407,
      "born": 2408,
      "mention": 2409,
      "responsibility": 2410,
      "ored": 2411,
      "detail": 2412,
      "cient": 2413,
      "University": 2414,
      "lear": 2415,
      "term": 2416,
      "ease": 2417,
      "ene": 2418,
      ".'": 2419,
      "quarter": 2420,
      "course": 2421,
      "leave": 2422,
      "enc": 2423,
      "sele": 2424,
      "ague": 2425,
      "ricity": 2426,
      "bab": 2427,
      "Koir": 2428,
      "ays": 2429,
      "favor": 2430,
      "Koirala": 2431,
      "ww": 2432,
      "ials": 2433,
      "might": 2434,
      "players": 2435,
      "ti": 2436,
      "CPN": 2437,
      "outside": 2438,
      "laun": 2439,
      "believ": 2440,
      "cand": 2441,
      "everyone": 2442,
      "eat": 2443,
      "inal": 2444,
      "hara": 2445,
      "across": 2446,
      "income": 2447,
      "further": 2448,
      "nel": 2449,
      "fight": 2450,
      "natural": 2451,
      "pan": 2452,
      "early": 2453,
      "event": 2454,
      "Mad": 2455,
      "quake": 2456,
      "Mal": 2457,
      "posed": 2458,
      "These": 2459,
      "ification": 2460,
      "uss": 2461,
      "phas": 2462,
      "ensu": 2463,
      "hn": 2464,
      "From": 2465,
      "initi": 2466,
      "iving": 2467,
      "needs": 2468,
      "mean": 2469,
      "Bhatt": 2470,
      "Then": 2471,
      "wide": 2472,
      "believe": 2473,
      "round": 2474,
      "quality": 2475,
      "match": 2476,
      "doing": 2477,
      "projects": 2478,
      "Assembly": 2479,
      "exist": 2480,
      "Sep": 2481,
      "iddle": 2482,
      "Cent": 2483,
      "que": 2484,
      "something": 2485,
      "organizations": 2486,
      "Isra": 2487,
      "black": 2488,
      "Democr": 2489,
      "reported": 2490,
      "crim": 2491,
      "better": 2492,
      "ening": 2493,
      "didn": 2494,
      "respect": 2495,
      "contribut": 2496,
      "Offic": 2497,
      "Can": 2498,
      "prior": 2499,
      "ither": 2500,
      "audi": 2501,
      "pot": 2502,
      "Due": 2503,
      "ita": 2504,
      "Board": 2505,
      "Sy": 2506,
      "ara": 2507,
      "uty": 2508,
      "sw": 2509,
      "iting": 2510,
      "plans": 2511,
      "une": 2512,
      "mission": 2513,
      "VDC": 2514,
      "determin": 2515,
      "rishna": 2516,
      "utions": 2517,
      "previous": 2518,
      "spir": 2519,
      "abo": 2520,
      "ource": 2521,
      "transport": 2522,
      "crisis": 2523,
      "agricult": 2524,
      "themselves": 2525,
      "secretary": 2526,
      "opened": 2527,
      "completed": 2528,
      "continu": 2529,
      "Madhesi": 2530,
      "infl": 2531,
      "techn": 2532,
      "wife": 2533,
      "officer": 2534,
      "chan": 2535,
      "resources": 2536,
      "aily": 2537,
      "began": 2538,
      "Kh": 2539,
      "likely": 2540,
      "file": 2541,
      "lives": 2542,
      "begin": 2543,
      "forts": 2544,
      "Chairman": 2545,
      "published": 2546,
      "elections": 2547,
      "umb": 2548,
      "object": 2549,
      "expressed": 2550,
      "59": 2551,
      "points": 2552,
      "gir": 2553,
      "population": 2554,
      "shop": 2555,
      "reng": 2556,
      "itself": 2557,
      "anything": 2558,
      "During": 2559,
      "kept": 2560,
      "issued": 2561,
      "Gu": 2562,
      "aur": 2563,
      "districts": 2564,
      "authority": 2565,
      "youth": 2566,
      "vot": 2567,
      "ilt": 2568,
      "dead": 2569,
      "King": 2570,
      "migr": 2571,
      "strate": 2572,
      "promot": 2573,
      "fully": 2574,
      "Comp": 2575,
      "thought": 2576,
      "exper": 2577,
      "ka": 2578,
      "talk": 2579,
      "Kore": 2580,
      "relation": 2581,
      "By": 2582,
      "board": 2583,
      "economy": 2584,
      "tember": 2585,
      "target": 2586,
      "eight": 2587,
      "daughter": 2588,
      "lobal": 2589,
      "corpor": 2590,
      "24": 2591,
      "ults": 2592,
      "facilities": 2593,
      "famil": 2594,
      "hind": 2595,
      "candid": 2596,
      "phys": 2597,
      "administration": 2598,
      "ferred": 2599,
      "poor": 2600,
      "impact": 2601,
      "io": 2602,
      "risk": 2603,
      "neigh": 2604,
      "products": 2605,
      "supp": 2606,
      "tro": 2607,
      "lines": 2608,
      "Kar": 2609,
      "'.": 2610,
      "September": 2611,
      "relations": 2612,
      "Russ": 2613,
      "suggest": 2614,
      "uel": 2615,
      "aud": 2616,
      "akh": 2617,
      "fear": 2618,
      "Don": 2619,
      "gas": 2620,
      "cele": 2621,
      "orig": 2622,
      "flict": 2623,
      "streng": 2624,
      "aware": 2625,
      "pat": 2626,
      "abroad": 2627,
      "ken": 2628,
      "Foreign": 2629,
      "conference": 2630,
      "defe": 2631,
      "yle": 2632,
      "travel": 2633,
      "disease": 2634,
      "recomm": 2635,
      "football": 2636,
      "access": 2637,
      "practice": 2638,
      "wind": 2639,
      "celebr": 2640,
      "Sen": 2641,
      "appear": 2642,
      "oil": 2643,
      "giving": 2644,
      "shi": 2645,
      "Many": 2646,
      "vert": 2647,
      "staff": 2648,
      "schools": 2649,
      "attention": 2650,
      "culture": 2651,
      "register": 2652,
      "ga": 2653,
      "returned": 2654,
      "meas": 2655,
      "Sup": 2656,
      "inside": 2657,
      "drug": 2658,
      "reco": 2659,
      "ories": 2660,
      "efforts": 2661,
      "camp": 2662,
      "improve": 2663,
      "closed": 2664,
      "Aug": 2665,
      "democratic": 2666,
      "friends": 2667,
      "really": 2668,
      "vest": 2669,
      "rather": 2670,
      "Kam": 2671,
      "Pakistan": 2672,
      "continue": 2673,
      "spokes": 2674,
      "Section": 2675,
      "ler": 2676,
      "rain": 2677,
      "bad": 2678,
      "ensus": 2679,
      "loss": 2680,
      "paid": 2681,
      "wr": 2682,
      "resol": 2683,
      "regard": 2684,
      "anti": 2685,
      "growth": 2686,
      "mal": 2687,
      "Of": 2688,
      "opportunity": 2689,
      "estern": 2690,
      "hours": 2691,
      "accident": 2692,
      "having": 2693,
      "AP": 2694,
      "plant": 2695,
      "hus": 2696,
      "blood": 2697,
      "July": 2698,
      "above": 2699,
      "Ras": 2700,
      "gave": 2701,
      "British": 2702,
      "senior": 2703,
      "Ear": 2704,
      "gain": 2705,
      "conflict": 2706,
      "instit": 2707,
      "John": 2708,
      "wood": 2709,
      "Fo": 2710,
      "stop": 2711,
      "mp": 2712,
      "getting": 2713,
      "late": 2714,
      "Cup": 2715,
      "hor": 2716,
      "satis": 2717,
      "earthquake": 2718,
      "labor": 2719,
      "Dire": 2720,
      "Sap": 2721,
      "leav": 2722,
      "forced": 2723,
      "197": 2724,
      "thern": 2725,
      "Ger": 2726,
      "Lal": 2727,
      "built": 2728,
      "changed": 2729,
      "explo": 2730,
      "ender": 2731,
      "experience": 2732,
      "movie": 2733,
      "Mc": 2734,
      "deli": 2735,
      "eyes": 2736,
      "60": 2737,
      "govern": 2738,
      "anger": 2739,
      "popular": 2740,
      "ini": 2741,
      "data": 2742,
      "gold": 2743,
      "raj": 2744,
      "proposal": 2745,
      "ples": 2746,
      "strugg": 2747,
      "covered": 2748,
      "effective": 2749,
      "West": 2750,
      "ify": 2751,
      "stopped": 2752,
      "employment": 2753,
      "several": 2754,
      "af": 2755,
      "tri": 2756,
      "Plan": 2757,
      "husband": 2758,
      "Car": 2759,
      "Br": 2760,
      "ington": 2761,
      "arrange": 2762,
      "cases": 2763,
      "forces": 2764,
      "Tam": 2765,
      "touch": 2766,
      "Municipality": 2767,
      "mid": 2768,
      "Health": 2769,
      "playing": 2770,
      "parents": 2771,
      "hur": 2772,
      "crip": 2773,
      "State": 2774,
      "subject": 2775,
      "needed": 2776,
      "Med": 2777,
      "Krishna": 2778,
      "Sam": 2779,
      "beaut": 2780,
      "Army": 2781,
      "often": 2782,
      "Oc": 2783,
      "stitu": 2784,
      "Republic": 2785,
      "property": 2786,
      "40": 2787,
      "green": 2788,
      "Pre": 2789,
      "settle": 2790,
      "almost": 2791,
      "investigation": 2792,
      "North": 2793,
      "Moham": 2794,
      "vide": 2795,
      "surance": 2796,
      "forman": 2797,
      "accused": 2798,
      "happy": 2799,
      "recently": 2800,
      "29": 2801,
      "apur": 2802,
      "ging": 2803,
      "ems": 2804,
      "buy": 2805,
      "department": 2806,
      "Because": 2807,
      "tried": 2808,
      "cially": 2809,
      "opposition": 2810,
      "mentioned": 2811,
      "rist": 2812,
      "teen": 2813,
      "prepared": 2814,
      "threat": 2815,
      "dict": 2816,
      "adop": 2817,
      "Center": 2818,
      "check": 2819,
      "rules": 2820,
      "enough": 2821,
      "towards": 2822,
      "electricity": 2823,
      "photo": 2824,
      "letter": 2825,
      "contain": 2826,
      "voice": 2827,
      "common": 2828,
      "behind": 2829,
      "ever": 2830,
      "Bal": 2831,
      "prescribed": 2832,
      "Sur": 2833,
      "dre": 2834,
      "tober": 2835,
      "',": 2836,
      "banks": 2837,
      "ada": 2838,
      "heav": 2839,
      "Vice": 2840,
      "currently": 2841,
      "uba": 2842,
      "expect": 2843,
      "ahal": 2844,
      "required": 2845,
      "hope": 2846,
      "walk": 2847,
      "Israel": 2848,
      "energy": 2849,
      "ient": 2850,
      "heard": 2851,
      "Des": 2852,
      "emer": 2853,
      "created": 2854,
      "isions": 2855,
      "nothing": 2856,
      "hands": 2857,
      "Dav": 2858,
      "star": 2859,
      "Budd": 2860,
      "omet": 2861,
      "affected": 2862,
      "Bas": 2863,
      "account": 2864,
      "groups": 2865,
      "create": 2866,
      "October": 2867,
      "clean": 2868,
      "informed": 2869,
      "oud": 2870,
      "firm": 2871,
      "encies": 2872,
      "houses": 2873,
      "utes": 2874,
      "repe": 2875,
      "disput": 2876,
      "moder": 2877,
      "formation": 2878,
      "Author": 2879,
      "War": 2880,
      "pict": 2881,
      "espe": 2882,
      "Other": 2883,
      "cir": 2884,
      "quarters": 2885,
      "Gurung": 2886,
      "ledge": 2887,
      "Bhattarai": 2888,
      "thes": 2889,
      "respond": 2890,
      "Val": 2891,
      "ane": 2892,
      "Ap": 2893,
      "Pand": 2894,
      "era": 2895,
      "wit": 2896,
      "performan": 2897,
      "investig": 2898,
      "Rai": 2899,
      "prices": 2900,
      "ram": 2901,
      "adem": 2902,
      "alleg": 2903,
      "cert": 2904,
      "character": 2905,
      "fru": 2906,
      "dependent": 2907,
      "birth": 2908,
      "citizen": 2909,
      "esterday": 2910,
      "Gir": 2911,
      "reas": 2912,
      "institution": 2913,
      "Mus": 2914,
      "Im": 2915,
      "Hospital": 2916,
      "protect": 2917,
      "Per": 2918,
      "saw": 2919,
      "games": 2920,
      "daily": 2921,
      "corruption": 2922,
      "aging": 2923,
      "consider": 2924,
      "violence": 2925,
      "reven": 2926,
      "vehicles": 2927,
      "lam": 2928,
      "ped": 2929,
      "words": 2930,
      "21": 2931,
      "joint": 2932,
      "fulfill": 2933,
      "regular": 2934,
      "value": 2935,
      "Hin": 2936,
      "Shah": 2937,
      "signific": 2938,
      "separate": 2939,
      "ota": 2940,
      "pun": 2941,
      "Local": 2942,
      "progress": 2943,
      "higher": 2944,
      "especially": 2945,
      "vember": 2946,
      "Wash": 2947,
      "abababababababab": 2948,
      "tegr": 2949,
      "Sar": 2950,
      "failed": 2951,
      "developed": 2952,
      "mur": 2953,
      "conduct": 2954,
      "dol": 2955,
      "commer": 2956,
      "recogn": 2957,
      "model": 2958,
      "Bha": 2959,
      "satisf": 2960,
      "fair": 2961,
      "spread": 2962,
      "Commun": 2963,
      "details": 2964,
      "anyone": 2965,
      "auto": 2966,
      "middle": 2967,
      "writing": 2968,
      "November": 2969,
      "icated": 2970,
      "Em": 2971,
      "pet": 2972,
      "Austr": 2973,
      "gunj": 2974,
      "dist": 2975,
      "vement": 2976,
      "omb": 2977,
      "victims": 2978,
      "Every": 2979,
      "Del": 2980,
      "gone": 2981,
      "English": 2982,
      "families": 2983,
      "qual": 2984,
      "High": 2985,
      "istic": 2986,
      "magaz": 2987,
      "Why": 2988,
      "aul": 2989,
      "estic": 2990,
      "answer": 2991,
      "Mem": 2992,
      "gency": 2993,
      "pal": 2994,
      "leading": 2995,
      "defin": 2996,
      "Sher": 2997,
      "released": 2998,
      "terms": 2999,
      "Hu": 3000,
      "executive": 3001,
      "states": 3002,
      "ron": 3003,
      "pees": 3004,
      "Washington": 3005,
      "atory": 3006,
      "gen": 3007,
      "fa": 3008,
      "Bab": 3009,
      "farmers": 3010,
      "elected": 3011,
      "influ": 3012,
      "estim": 3013,
      "Just": 3014,
      "tow": 3015,
      "Pou": 3016,
      "easy": 3017,
      "cha": 3018,
      "spent": 3019,
      "example": 3020,
      "destro": 3021,
      "broad": 3022,
      "argu": 3023,
      "prime": 3024,
      "susp": 3025,
      "standing": 3026,
      "22": 3027,
      "Pal": 3028,
      "laws": 3029,
      ",'": 3030,
      "rid": 3031,
      "motor": 3032,
      "brid": 3033,
      "inated": 3034,
      "raise": 3035,
      "City": 3036,
      "Dahal": 3037,
      "Most": 3038,
      "injured": 3039,
      "mach": 3040,
      "owner": 3041,
      "sil": 3042,
      "tw": 3043,
      "expand": 3044,
      "festival": 3045,
      "partic": 3046,
      "irst": 3047,
      "positive": 3048,
      "passed": 3049,
      "ium": 3050,
      "fras": 3051,
      "weap": 3052,
      "divid": 3053,
      "ades": 3054,
      "January": 3055,
      "arya": 3056,
      "Post": 3057,
      "frastru": 3058,
      "Mor": 3059,
      "prene": 3060,
      "cred": 3061,
      "weeks": 3062,
      "March": 3063,
      "iscal": 3064,
      "usion": 3065,
      "watch": 3066,
      "ipur": 3067,
      "citizens": 3068,
      "release": 3069,
      "performance": 3070,
      "Her": 3071,
      "title": 3072,
      "airs": 3073,
      "running": 3074,
      "purpose": 3075,
      "Two": 3076,
      "BC": 3077,
      "appointed": 3078,
      "Officer": 3079,
      "simil": 3080,
      "iver": 3081,
      "wanted": 3082,
      "Our": 3083,
      "lying": 3084,
      "Poudel": 3085,
      "request": 3086,
      "Dal": 3087,
      "global": 3088,
      "results": 3089,
      "educ": 3090,
      "Himal": 3091,
      "Speak": 3092,
      "ometimes": 3093,
      "School": 3094,
      "regul": 3095,
      "medical": 3096,
      "vey": 3097,
      "wrong": 3098,
      "bodies": 3099,
      "vote": 3100,
      "August": 3101,
      "justice": 3102,
      "nature": 3103,
      "club": 3104,
      "parts": 3105,
      "Bag": 3106,
      "hom": 3107,
      "icle": 3108,
      "placed": 3109,
      "source": 3110,
      "Asia": 3111,
      "ahead": 3112,
      "cra": 3113,
      "charge": 3114,
      "sle": 3115,
      "udh": 3116,
      "amend": 3117,
      "personal": 3118,
      "Ru": 3119,
      "cad": 3120,
      "wish": 3121,
      "imum": 3122,
      "image": 3123,
      "command": 3124,
      "spect": 3125,
      "tourism": 3126,
      "Edu": 3127,
      "obtain": 3128,
      "HM": 3129,
      "Sco": 3130,
      "felt": 3131,
      "cience": 3132,
      "grand": 3133,
      "application": 3134,
      "park": 3135,
      "ends": 3136,
      "Invest": 3137,
      "acity": 3138,
      "yesterday": 3139,
      "player": 3140,
      "23": 3141,
      "worked": 3142,
      "shown": 3143,
      "print": 3144,
      "series": 3145,
      "implemented": 3146,
      "thinking": 3147,
      "Deuba": 3148,
      "dig": 3149,
      "Ge": 3150,
      "America": 3151,
      "materials": 3152,
      "MP": 3153,
      "message": 3154,
      "dy": 3155,
      "appropr": 3156,
      "urged": 3157,
      "prison": 3158,
      "modern": 3159,
      "lad": 3160,
      "whose": 3161,
      "lled": 3162,
      "physical": 3163,
      "medic": 3164,
      "claimed": 3165,
      "uter": 3166,
      "traff": 3167,
      "style": 3168,
      "Christ": 3169,
      "Mic": 3170,
      "structure": 3171,
      "load": 3172,
      "integr": 3173,
      "critic": 3174,
      "Feder": 3175,
      "Likewise": 3176,
      "safe": 3177,
      "advant": 3178,
      "coach": 3179,
      "AND": 3180,
      "Bush": 3181,
      "acted": 3182,
      "rise": 3183,
      "else": 3184,
      "successful": 3185,
      "path": 3186,
      "Prach": 3187,
      "relationship": 3188,
      "More": 3189,
      "riage": 3190,
      "mom": 3191,
      "Pokhara": 3192,
      "similar": 3193,
      "concl": 3194,
      "European": 3195,
      "chol": 3196,
      "responsible": 3197,
      "Dur": 3198,
      "Kal": 3199,
      "ension": 3200,
      "directly": 3201,
      "hib": 3202,
      "knowledge": 3203,
      "implementation": 3204,
      "Prachanda": 3205,
      "sold": 3206,
      "hat": 3207,
      "Khan": 3208,
      "discussion": 3209,
      "atter": 3210,
      "ret": 3211,
      "ony": 3212,
      "ech": 3213,
      "hab": 3214,
      "plom": 3215,
      "smo": 3216,
      "uses": 3217,
      "focus": 3218,
      "chairman": 3219,
      "bul": 3220,
      "itch": 3221,
      "significant": 3222,
      "link": 3223,
      "nine": 3224,
      "seek": 3225,
      "Group": 3226,
      "sens": 3227,
      "UN": 3228,
      "tari": 3229,
      "sea": 3230,
      "ption": 3231,
      "wers": 3232,
      "Public": 3233,
      "80": 3234,
      "except": 3235,
      "cross": 3236,
      "slow": 3237,
      "cked": 3238,
      "ministry": 3239,
      "limited": 3240,
      "agreed": 3241,
      "Central": 3242,
      "Shiv": 3243,
      "sales": 3244,
      "novel": 3245,
      "ili": 3246,
      "entered": 3247,
      "vehicle": 3248,
      "rural": 3249,
      "engine": 3250,
      "operating": 3251,
      "remember": 3252,
      "selected": 3253,
      "aran": 3254,
      "potential": 3255,
      "Tur": 3256,
      "royal": 3257,
      "hear": 3258,
      "occas": 3259,
      "purch": 3260,
      "residents": 3261,
      "هه": 3262,
      "ams": 3263,
      "Ed": 3264,
      "……": 3265,
      "quick": 3266,
      "uls": 3267,
      "student": 3268,
      "fiscal": 3269,
      "adio": 3270,
      "dollar": 3271,
      "swe": 3272,
      "ster": 3273,
      "stain": 3274,
      "sexual": 3275,
      "assistance": 3276,
      "host": 3277,
      "presented": 3278,
      "izing": 3279,
      "mill": 3280,
      "ties": 3281,
      "Home": 3282,
      "sof": 3283,
      "entire": 3284,
      "2006": 3285,
      "allowed": 3286,
      "Authority": 3287,
      "Ach": 3288,
      "included": 3289,
      "stock": 3290,
      "stituent": 3291,
      "provision": 3292,
      "capacity": 3293,
      "headquarters": 3294,
      "additional": 3295,
      "frastructure": 3296,
      "pted": 3297,
      "acce": 3298,
      "cious": 3299,
      "Jha": 3300,
      "earlier": 3301,
      "largest": 3302,
      "single": 3303,
      "Panch": 3304,
      "include": 3305,
      "Mean": 3306,
      "26": 3307,
      "omen": 3308,
      "Afr": 3309,
      "Such": 3310,
      "intro": 3311,
      "turn": 3312,
      "Mohamed": 3313,
      "changes": 3314,
      "traffic": 3315,
      "technical": 3316,
      "Austral": 3317,
      "fast": 3318,
      "hik": 3319,
      "runs": 3320,
      "cop": 3321,
      "providing": 3322,
      "typ": 3323,
      "deep": 3324,
      "Dece": 3325,
      "ods": 3326,
      "Bang": 3327,
      "scre": 3328,
      "institutions": 3329,
      "begun": 3330,
      "ira": 3331,
      "Dis": 3332,
      "1959": 3333,
      "eth": 3334,
      "Iran": 3335,
      "aries": 3336,
      "literature": 3337,
      "December": 3338,
      "crow": 3339,
      "arki": 3340,
      "histor": 3341,
      "struct": 3342,
      "wants": 3343,
      "AR": 3344,
      "Febr": 3345,
      "February": 3346,
      "Meanwhile": 3347,
      "500": 3348,
      "lies": 3349,
      "KAT": 3350,
      "havi": 3351,
      "First": 3352,
      "Gork": 3353,
      "coordin": 3354,
      "makes": 3355,
      "ological": 3356,
      "Up": 3357,
      "aver": 3358,
      "views": 3359,
      "Khad": 3360,
      "introdu": 3361,
      "becoming": 3362,
      "destroy": 3363,
      "ANDU": 3364,
      "KATHM": 3365,
      "nom": 3366,
      "Afric": 3367,
      "Education": 3368,
      "Har": 3369,
      "Jud": 3370,
      "KATHMANDU": 3371,
      "revenue": 3372,
      "27": 3373,
      "appropriate": 3374,
      "ogy": 3375,
      "28": 3376,
      "Let": 3377,
      "Corpor": 3378,
      "mes": 3379,
      "named": 3380,
      "beat": 3381,
      "Industr": 3382,
      "minutes": 3383,
      "squ": 3384,
      "Constituent": 3385,
      "however": 3386,
      "Chit": 3387,
      "Company": 3388,
      "shows": 3389,
      "Earlier": 3390,
      "marriage": 3391,
      "David": 3392,
      "June": 3393,
      "evening": 3394,
      "encour": 3395,
      "decre": 3396,
      "dev": 3397,
      "ixed": 3398,
      "worth": 3399,
      "sources": 3400,
      "west": 3401,
      "joy": 3402,
      "Are": 3403,
      "handari": 3404,
      "document": 3405,
      "Korea": 3406,
      "Director": 3407,
      "commercial": 3408,
      "monitor": 3409,
      "shot": 3410,
      "lower": 3411,
      "neighbor": 3412,
      "lap": 3413,
      "KC": 3414,
      "dial": 3415,
      "color": 3416,
      "fourth": 3417,
      "doz": 3418,
      "acting": 3419,
      "prevent": 3420,
      "fig": 3421,
      "diplom": 3422,
      "ession": 3423,
      "mass": 3424,
      "moving": 3425,
      "sper": 3426,
      "ules": 3427,
      "iple": 3428,
      "space": 3429,
      "throughout": 3430,
      "rob": 3431,
      "dem": 3432,
      "beginning": 3433,
      "industrial": 3434,
      "patients": 3435,
      "paper": 3436,
      "offer": 3437,
      "commission": 3438,
      "clim": 3439,
      "super": 3440,
      "operate": 3441,
      "accept": 3442,
      "door": 3443,
      "surpr": 3444,
      "ications": 3445,
      "consensus": 3446,
      "challeng": 3447,
      "ners": 3448,
      "convention": 3449,
      "conditions": 3450,
      "rebe": 3451,
      "happened": 3452,
      "award": 3453,
      "uli": 3454,
      "religious": 3455,
      "Prov": 3456,
      "analy": 3457,
      "secut": 3458,
      "uni": 3459,
      "cou": 3460,
      "ires": 3461,
      "send": 3462,
      "ato": 3463,
      "aspect": 3464,
      "revol": 3465,
      "90": 3466,
      "evidence": 3467,
      "profit": 3468,
      "extre": 3469,
      "certific": 3470,
      "proposed": 3471,
      "ju": 3472,
      "actions": 3473,
      "Ano": 3474,
      "internal": 3475,
      "Federation": 3476,
      "pack": 3477,
      "individ": 3478,
      "idea": 3479,
      "registered": 3480,
      "spr": 3481,
      "assad": 3482,
      "mist": 3483,
      "reme": 3484,
      "Narayan": 3485,
      "meth": 3486,
      "recommend": 3487,
      "passeng": 3488,
      "fif": 3489,
      "Tod": 3490,
      "behavi": 3491,
      "tourists": 3492,
      "ises": 3493,
      "rap": 3494,
      "submitted": 3495,
      "motion": 3496,
      "usu": 3497,
      "video": 3498,
      "uck": 3499,
      "type": 3500,
      "dress": 3501,
      "Ter": 3502,
      "enced": 3503,
      "Only": 3504,
      "Day": 3505,
      "protest": 3506,
      "whole": 3507,
      "regional": 3508,
      "scored": 3509,
      "Press": 3510,
      "mouth": 3511,
      "advis": 3512,
      "graph": 3513,
      "Another": 3514,
      "stitute": 3515,
      "Trans": 3516,
      "League": 3517,
      "magazine": 3518,
      "comb": 3519,
      "produced": 3520,
      "majority": 3521,
      "Bi": 3522,
      "domestic": 3523,
      "Karki": 3524,
      "fell": 3525,
      "anim": 3526,
      "strict": 3527,
      "employee": 3528,
      "repeated": 3529,
      "Bra": 3530,
      "fare": 3531,
      "makers": 3532,
      "manager": 3533,
      "ruling": 3534,
      "Ban": 3535,
      "Bhut": 3536,
      "Pat": 3537,
      "TV": 3538,
      "collect": 3539,
      "cure": 3540,
      "Chaudh": 3541,
      "IC": 3542,
      "launched": 3543,
      "hav": 3544,
      "Supreme": 3545,
      "ining": 3546,
      "agencies": 3547,
      "partner": 3548,
      "task": 3549,
      "sustain": 3550,
      "cultural": 3551,
      "generation": 3552,
      "context": 3553,
      "online": 3554,
      "appeared": 3555,
      "porters": 3556,
      "Gy": 3557,
      "push": 3558,
      "demanded": 3559,
      "murder": 3560,
      "export": 3561,
      "compared": 3562,
      "acts": 3563,
      "persons": 3564,
      "newsp": 3565,
      "policies": 3566,
      "ially": 3567,
      "doub": 3568,
      "occasion": 3569,
      "atn": 3570,
      "option": 3571,
      "ula": 3572,
      "individual": 3573,
      "initiative": 3574,
      "demands": 3575,
      "speech": 3576,
      "cadres": 3577,
      "ively": 3578,
      "filed": 3579,
      "doesn": 3580,
      "demon": 3581,
      "base": 3582,
      "worship": 3583,
      "prosper": 3584,
      "priority": 3585,
      "rown": 3586,
      "municipality": 3587,
      "entre": 3588,
      "fee": 3589,
      "Service": 3590,
      "Under": 3591,
      "About": 3592,
      "Bhandari": 3593,
      "sou": 3594,
      "rend": 3595,
      "ternal": 3596,
      "infrastructure": 3597,
      "someone": 3598,
      "Club": 3599,
      "isl": 3600,
      "rupees": 3601,
      "insurance": 3602,
      "agers": 3603,
      "card": 3604,
      "understanding": 3605,
      "Corporation": 3606,
      "Sch": 3607,
      "decades": 3608,
      "sleep": 3609,
      "Ti": 3610,
      "Delhi": 3611,
      "ordination": 3612,
      "cement": 3613,
      "huge": 3614,
      "dispute": 3615,
      "white": 3616,
      "Rana": 3617,
      "icians": 3618,
      "enses": 3619,
      "attem": 3620,
      "sun": 3621,
      "constitutional": 3622,
      "customers": 3623,
      "advert": 3624,
      "supply": 3625,
      "aru": 3626,
      "hotel": 3627,
      "Chaudhary": 3628,
      "cate": 3629,
      "eval": 3630,
      "ery": 3631,
      "stress": 3632,
      "reform": 3633,
      "interests": 3634,
      "aya": 3635,
      "ON": 3636,
      "strike": 3637,
      "org": 3638,
      "hood": 3639,
      "Those": 3640,
      "highest": 3641,
      "entreprene": 3642,
      "boy": 3643,
      "aled": 3644,
      "Valley": 3645,
      "weapons": 3646,
      "Lord": 3647,
      "Today": 3648,
      "Cr": 3649,
      "north": 3650,
      "nic": 3651,
      "review": 3652,
      "instead": 3653,
      "shares": 3654,
      "crowd": 3655,
      "ping": 3656,
      "corre": 3657,
      "sad": 3658,
      "kid": 3659,
      "preparing": 3660,
      "mobile": 3661,
      "town": 3662,
      "carry": 3663,
      "hop": 3664,
      "ables": 3665,
      "questions": 3666,
      "books": 3667,
      "Women": 3668,
      "box": 3669,
      "expensive": 3670,
      "thousands": 3671,
      "East": 3672,
      "communication": 3673,
      "identity": 3674,
      "bomb": 3675,
      "Adhik": 3676,
      "succeed": 3677,
      "Lon": 3678,
      "rote": 3679,
      "window": 3680,
      "tests": 3681,
      "debate": 3682,
      "scient": 3683,
      "Tour": 3684,
      "airport": 3685,
      "jan": 3686,
      "eshwar": 3687,
      "temple": 3688,
      "freed": 3689,
      "negot": 3690,
      "attle": 3691,
      "write": 3692,
      "spokesman": 3693,
      "branch": 3694,
      "conducted": 3695,
      "declared": 3696,
      "suit": 3697,
      "san": 3698,
      "acqu": 3699,
      "Where": 3700,
      "despite": 3701,
      "wrote": 3702,
      "steps": 3703,
      "easily": 3704,
      "agricultural": 3705,
      "SA": 3706,
      "carrying": 3707,
      "Adhikari": 3708,
      "skill": 3709,
      "mony": 3710,
      "thus": 3711,
      "lat": 3712,
      "rich": 3713,
      "delay": 3714,
      "opt": 3715,
      "stant": 3716,
      "Union": 3717,
      "independent": 3718,
      "goes": 3719,
      "prim": 3720,
      "songs": 3721,
      "abs": 3722,
      "removed": 3723,
      "altern": 3724,
      "Administr": 3725,
      "Will": 3726,
      "ino": 3727,
      "UK": 3728,
      "Apr": 3729,
      "alone": 3730,
      "approv": 3731,
      "directed": 3732,
      "Ms": 3733,
      "nations": 3734,
      "annual": 3735,
      "Sah": 3736,
      "Chandra": 3737,
      "distribution": 3738,
      "loans": 3739,
      "arrived": 3740,
      "selling": 3741,
      "Finance": 3742,
      "April": 3743,
      "nings": 3744,
      "charges": 3745,
      "Park": 3746,
      "girl": 3747,
      "oking": 3748,
      "Kamal": 3749,
      "tea": 3750,
      "wall": 3751,
      "Hindu": 3752,
      "cricket": 3753,
      "estimated": 3754,
      "remains": 3755,
      "provin": 3756,
      "zer": 3757,
      "veget": 3758,
      "IN": 3759,
      "unders": 3760,
      "Saptari": 3761,
      "web": 3762,
      "comfort": 3763,
      "harel": 3764,
      "reduce": 3765,
      "traditional": 3766,
      "meaning": 3767,
      "Hol": 3768,
      "London": 3769,
      "benefit": 3770,
      "orient": 3771,
      "Che": 3772,
      "explain": 3773,
      "secret": 3774,
      "opening": 3775,
      "reasons": 3776,
      "ila": 3777,
      "Pandey": 3778,
      "iful": 3779,
      "keeping": 3780,
      "ze": 3781,
      "ert": 3782,
      "representatives": 3783,
      "resent": 3784,
      "bringing": 3785,
      "nearly": 3786,
      "conscious": 3787,
      "pair": 3788,
      "cro": 3789,
      "News": 3790,
      "status": 3791,
      "credit": 3792,
      "Russia": 3793,
      "Ste": 3794,
      "cohol": 3795,
      "possibility": 3796,
      "eating": 3797,
      "events": 3798,
      "enge": 3799,
      "protection": 3800,
      "equip": 3801,
      "suffering": 3802,
      "Deputy": 3803,
      "importance": 3804,
      "completely": 3805,
      "................": 3806,
      "avo": 3807,
      "exc": 3808,
      "htt": 3809,
      "lakh": 3810,
      "takes": 3811,
      "Rules": 3812,
      "35": 3813,
      "servation": 3814,
      "wild": 3815,
      "bow": 3816,
      "signed": 3817,
      "damage": 3818,
      "Tal": 3819,
      "cash": 3820,
      "license": 3821,
      "roads": 3822,
      "gent": 3823,
      "average": 3824,
      "hero": 3825,
      "cities": 3826,
      "Pur": 3827,
      "iture": 3828,
      "moved": 3829,
      "leaving": 3830,
      "Tech": 3831,
      "install": 3832,
      "personnel": 3833,
      "andal": 3834,
      "cup": 3835,
      "Britain": 3836,
      "ift": 3837,
      "Who": 3838,
      "pie": 3839,
      "showed": 3840,
      "Rel": 3841,
      "Sal": 3842,
      "Despite": 3843,
      "authorities": 3844,
      "www": 3845,
      "Sm": 3846,
      "establishment": 3847,
      "Democratic": 3848,
      "archy": 3849,
      "network": 3850,
      "comment": 3851,
      "famous": 3852,
      "mobil": 3853,
      "deliver": 3854,
      "assador": 3855,
      "http": 3856,
      "Kir": 3857,
      "proced": 3858,
      "Trump": 3859,
      "everything": 3860,
      "occur": 3861,
      "die": 3862,
      "NA": 3863,
      "fuel": 3864,
      "198": 3865,
      "revolution": 3866,
      "Last": 3867,
      "behavior": 3868,
      "Lam": 3869,
      "ika": 3870,
      "onse": 3871,
      "teachers": 3872,
      "moment": 3873,
      "levels": 3874,
      "stage": 3875,
      "agency": 3876,
      "soldi": 3877,
      "Red": 3878,
      "France": 3879,
      "interview": 3880,
      "operated": 3881,
      "opportun": 3882,
      "eld": 3883,
      "track": 3884,
      "century": 3885,
      "continued": 3886,
      "log": 3887,
      "parliamentary": 3888,
      "television": 3889,
      "za": 3890,
      "victory": 3891,
      "studying": 3892,
      "istics": 3893,
      "wat": 3894,
      "hun": 3895,
      "powers": 3896,
      "settlement": 3897,
      "tend": 3898,
      "ayat": 3899,
      "Dhar": 3900,
      "uled": 3901,
      "receive": 3902,
      "Inc": 3903,
      "markets": 3904,
      "KP": 3905,
      "bot": 3906,
      "Art": 3907,
      "neg": 3908,
      "brand": 3909,
      "bridge": 3910,
      "inde": 3911,
      "lay": 3912,
      "resh": 3913,
      "remove": 3914,
      "holding": 3915,
      "ji": 3916,
      "poll": 3917,
      "winning": 3918,
      "believed": 3919,
      "31": 3920,
      "reports": 3921,
      "struggle": 3922,
      "Asian": 3923,
      "abin": 3924,
      "Its": 3925,
      "cin": 3926,
      "collection": 3927,
      "confidence": 3928,
      "amendment": 3929,
      "Qu": 3930,
      "growing": 3931,
      "Dar": 3932,
      "alcohol": 3933,
      "atever": 3934,
      "accord": 3935,
      "cum": 3936,
      "function": 3937,
      "Trib": 3938,
      "tempor": 3939,
      "ford": 3940,
      "cru": 3941,
      "sched": 3942,
      "industries": 3943,
      "religion": 3944,
      "discussed": 3945,
      "looked": 3946,
      "caused": 3947,
      "Fund": 3948,
      "documents": 3949,
      "computer": 3950,
      "broken": 3951,
      "Gan": 3952,
      "counter": 3953,
      "carried": 3954,
      "lif": 3955,
      "response": 3956,
      "England": 3957,
      "stone": 3958,
      "direction": 3959,
      "communities": 3960,
      "enn": 3961,
      "blockade": 3962,
      "educational": 3963,
      "followed": 3964,
      "claims": 3965,
      "fle": 3966,
      "ami": 3967,
      "turned": 3968,
      "east": 3969,
      "haps": 3970,
      "constructed": 3971,
      "married": 3972,
      "ministers": 3973,
      "pil": 3974,
      "Gaut": 3975,
      "jail": 3976,
      "Three": 3977,
      "amed": 3978,
      "feet": 3979,
      "faith": 3980,
      "Je": 3981,
      "fine": 3982,
      "stra": 3983,
      "sometimes": 3984,
      "Af": 3985,
      "onal": 3986,
      "Khadka": 3987,
      "size": 3988,
      "trust": 3989,
      "reser": 3990,
      "contact": 3991,
      "Organ": 3992,
      "Gautam": 3993,
      "ring": 3994,
      "Tele": 3995,
      "craft": 3996,
      "pon": 3997,
      "table": 3998,
      "instru": 3999,
      "illegal": 4000,
      "consult": 4001,
      "Cur": 4002,
      "iff": 4003,
      "opin": 4004,
      "career": 4005,
      "BS": 4006,
      "45": 4007,
      "survey": 4008,
      "appears": 4009,
      "multi": 4010,
      "Lama": 4011,
      "save": 4012,
      "referred": 4013,
      "CE": 4014,
      "speed": 4015,
      "edule": 4016,
      "icient": 4017,
      "sac": 4018,
      "sides": 4019,
      "Ob": 4020,
      "existing": 4021,
      "proceed": 4022,
      "drinking": 4023,
      "journalists": 4024,
      "true": 4025,
      "istration": 4026,
      "Gorkha": 4027,
      "armed": 4028,
      "spirit": 4029,
      "70": 4030,
      "bag": 4031,
      "dialog": 4032,
      "ampion": 4033,
      "double": 4034,
      "akash": 4035,
      "older": 4036,
      "Security": 4037,
      "offices": 4038,
      "Aff": 4039,
      "caste": 4040,
      "FA": 4041,
      "bably": 4042,
      "etro": 4043,
      "helped": 4044,
      "equal": 4045,
      "films": 4046,
      "normal": 4047,
      "experts": 4048,
      "fem": 4049,
      "perform": 4050,
      "south": 4051,
      "akes": 4052,
      "freedom": 4053,
      "ghan": 4054,
      "capt": 4055,
      "Mahar": 4056,
      "teams": 4057,
      "beautiful": 4058,
      "raf": 4059,
      "Shak": 4060,
      "ilit": 4061,
      "Vill": 4062,
      "stor": 4063,
      "exchange": 4064,
      "doctor": 4065,
      "Sept": 4066,
      "Child": 4067,
      "investors": 4068,
      "fish": 4069,
      "agend": 4070,
      "ja": 4071,
      "arrangements": 4072,
      "Both": 4073,
      "NC": 4074,
      "danger": 4075,
      "gins": 4076,
      "opportunities": 4077,
      "journey": 4078,
      "union": 4079,
      "discrim": 4080,
      "dog": 4081,
      "Administration": 4082,
      "rench": 4083,
      "mine": 4084,
      "sociated": 4085,
      "committed": 4086,
      "Ham": 4087,
      "blind": 4088,
      "lied": 4089,
      "Mark": 4090,
      "sense": 4091,
      "sco": 4092,
      "Chitwan": 4093,
      "ote": 4094,
      "clothes": 4095,
      "Lim": 4096,
      "setting": 4097,
      "Janak": 4098,
      "goals": 4099,
      "rivers": 4100,
      "Australia": 4101,
      "Ash": 4102,
      "crime": 4103,
      "Bhak": 4104,
      "ded": 4105,
      "Colle": 4106,
      "lin": 4107,
      "surv": 4108,
      "wenty": 4109,
      "challenge": 4110,
      "Arab": 4111,
      "specified": 4112,
      "relief": 4113,
      "Char": 4114,
      "Management": 4115,
      "emphas": 4116,
      "spend": 4117,
      "presence": 4118,
      "ming": 4119,
      "verse": 4120,
      "spoke": 4121,
      "discussions": 4122,
      "tood": 4123,
      "sports": 4124,
      "commitment": 4125,
      "approval": 4126,
      "understood": 4127,
      "cancer": 4128,
      "latest": 4129,
      "ba": 4130,
      "bird": 4131,
      "mental": 4132,
      "monarchy": 4133,
      "emp": 4134,
      "1979": 4135,
      "names": 4136,
      "rates": 4137,
      "reduced": 4138,
      "Cap": 4139,
      "Social": 4140,
      "locals": 4141,
      "Lab": 4142,
      "Acharya": 4143,
      "Whether": 4144,
      "huvan": 4145,
      "knew": 4146,
      "Intern": 4147,
      "reaching": 4148,
      "Bel": 4149,
      "jun": 4150,
      "Face": 4151,
      "article": 4152,
      "raising": 4153,
      "planning": 4154,
      "participate": 4155,
      "desire": 4156,
      "Afghan": 4157,
      "ker": 4158,
      "Lt": 4159,
      "Modi": 4160,
      "Federal": 4161,
      "range": 4162,
      "candidate": 4163,
      "gur": 4164,
      "probably": 4165,
      "programme": 4166,
      "reading": 4167,
      "oriented": 4168,
      "ked": 4169,
      "pick": 4170,
      "lling": 4171,
      "assy": 4172,
      "Justice": 4173,
      "scheduled": 4174,
      "Bl": 4175,
      "itage": 4176,
      "earch": 4177,
      "sky": 4178,
      "notice": 4179,
      "inton": 4180,
      "Also": 4181,
      "Wal": 4182,
      "dance": 4183,
      "professional": 4184,
      "session": 4185,
      "sitting": 4186,
      "Commer": 4187,
      "happen": 4188,
      "biggest": 4189,
      "ladesh": 4190,
      "infe": 4191,
      "?\"": 4192,
      "icial": 4193,
      "remained": 4194,
      "Malays": 4195,
      "adopted": 4196,
      "god": 4197,
      "types": 4198,
      "sound": 4199,
      "promotion": 4200,
      "Bangladesh": 4201,
      "Internet": 4202,
      "achieve": 4203,
      "bey": 4204,
      "lands": 4205,
      "missed": 4206,
      "limit": 4207,
      "launch": 4208,
      "ots": 4209,
      "Phil": 4210,
      "atnagar": 4211,
      "effort": 4212,
      "kil": 4213,
      "milk": 4214,
      "esty": 4215,
      "Royal": 4216,
      "astic": 4217,
      "couple": 4218,
      "expend": 4219,
      "Law": 4220,
      "ancy": 4221,
      "benefits": 4222,
      "Western": 4223,
      "doctors": 4224,
      "depos": 4225,
      "phase": 4226,
      "ulated": 4227,
      "receiving": 4228,
      "trou": 4229,
      "cooperation": 4230,
      "household": 4231,
      "Gul": 4232,
      "Gre": 4233,
      "measures": 4234,
      "original": 4235,
      "iet": 4236,
      "Institute": 4237,
      "Biratnagar": 4238,
      "bound": 4239,
      "duty": 4240,
      "millions": 4241,
      "Jour": 4242,
      "Forum": 4243,
      "oute": 4244,
      "items": 4245,
      "judge": 4246,
      "youths": 4247,
      "participation": 4248,
      "demonstr": 4249,
      "hearing": 4250,
      "belief": 4251,
      "certificate": 4252,
      "division": 4253,
      "Dharan": 4254,
      "climate": 4255,
      "stream": 4256,
      "gry": 4257,
      "spending": 4258,
      "served": 4259,
      "bid": 4260,
      "Dhak": 4261,
      "Ever": 4262,
      "hill": 4263,
      "sequ": 4264,
      "ivity": 4265,
      "strategy": 4266,
      "yourself": 4267,
      "serve": 4268,
      "western": 4269,
      "Sp": 4270,
      "hung": 4271,
      "profession": 4272,
      "chi": 4273,
      "princ": 4274,
      "grant": 4275,
      "iation": 4276,
      "ops": 4277,
      "mechan": 4278,
      "Tamang": 4279,
      "quickly": 4280,
      "believes": 4281,
      "Gold": 4282,
      "resign": 4283,
      "basic": 4284,
      "collected": 4285,
      "ko": 4286,
      "approach": 4287,
      "atures": 4288,
      "gets": 4289,
      "feeling": 4290,
      "glass": 4291,
      "seeing": 4292,
      "attacks": 4293,
      "igence": 4294,
      "suffered": 4295,
      "Pun": 4296,
      "imag": 4297,
      "Affairs": 4298,
      "alleged": 4299,
      "race": 4300,
      "planned": 4301,
      "Bill": 4302,
      "driver": 4303,
      "mir": 4304,
      "approved": 4305,
      "ensure": 4306,
      "compens": 4307,
      "Second": 4308,
      "surround": 4309,
      "determined": 4310,
      "loan": 4311,
      "French": 4312,
      "icate": 4313,
      "dream": 4314,
      "science": 4315,
      "vail": 4316,
      "corporate": 4317,
      "oting": 4318,
      "damaged": 4319,
      "till": 4320,
      "studies": 4321,
      "ID": 4322,
      "Represent": 4323,
      "cript": 4324,
      "erc": 4325,
      "scene": 4326,
      "costs": 4327,
      "schol": 4328,
      "healthy": 4329,
      "wid": 4330,
      "Rastra": 4331,
      "gather": 4332,
      "SP": 4333,
      "deploy": 4334,
      "Road": 4335,
      "hang": 4336,
      "relating": 4337,
      "Div": 4338,
      "eastern": 4339,
      "chance": 4340,
      "transfer": 4341,
      "cere": 4342,
      "wait": 4343,
      "nuclear": 4344,
      "pover": 4345,
      "agriculture": 4346,
      "sacr": 4347,
      "Instead": 4348,
      "college": 4349,
      "ansion": 4350,
      "showing": 4351,
      "Rights": 4352,
      "examination": 4353,
      "destroyed": 4354,
      "radio": 4355,
      "laugh": 4356,
      "Deep": 4357,
      "oth": 4358,
      "ses": 4359,
      "temporary": 4360,
      "Ang": 4361,
      "appointment": 4362,
      "calls": 4363,
      "2005": 4364,
      "Communist": 4365,
      "longer": 4366,
      "Front": 4367,
      "Muk": 4368,
      "ikram": 4369,
      "monitoring": 4370,
      "reve": 4371,
      "Muslim": 4372,
      "mountains": 4373,
      "consumers": 4374,
      "governance": 4375,
      "Ben": 4376,
      "cks": 4377,
      "audience": 4378,
      "agenda": 4379,
      "Tarai": 4380,
      "ademy": 4381,
      "ethnic": 4382,
      "liber": 4383,
      "iven": 4384,
      "solution": 4385,
      "migration": 4386,
      "writer": 4387,
      "compl": 4388,
      "honor": 4389,
      "jung": 4390,
      "Sol": 4391,
      "ilater": 4392,
      "km": 4393,
      "accordance": 4394,
      "restaur": 4395,
      "fees": 4396,
      "programmes": 4397,
      "customs": 4398,
      "Journal": 4399,
      "solve": 4400,
      "missing": 4401,
      "drawn": 4402,
      "either": 4403,
      "looks": 4404,
      "concern": 4405,
      "graphy": 4406,
      "equipment": 4407,
      "require": 4408,
      "homes": 4409,
      "hum": 4410,
      "mot": 4411,
      "powerful": 4412,
      "fighting": 4413,
      "ona": 4414,
      "handed": 4415,
      "sets": 4416,
      "2008": 4417,
      "Hill": 4418,
      "essential": 4419,
      "Ltd": 4420,
      "Jer": 4421,
      "eye": 4422,
      "dozen": 4423,
      "Camp": 4424,
      "manent": 4425,
      "lawy": 4426,
      "arms": 4427,
      "Former": 4428,
      "difference": 4429,
      "Facebook": 4430,
      "Li": 4431,
      "len": 4432,
      "station": 4433,
      "rail": 4434,
      "punish": 4435,
      "passengers": 4436,
      "teaching": 4437,
      "tomor": 4438,
      "minute": 4439,
      "mitted": 4440,
      "pul": 4441,
      "talking": 4442,
      "tomorrow": 4443,
      "arry": 4444,
      "saf": 4445,
      "killing": 4446,
      "truth": 4447,
      "cli": 4448,
      "changing": 4449,
      "comfortable": 4450,
      "manner": 4451,
      "inspe": 4452,
      "learn": 4453,
      "uri": 4454,
      "Ghim": 4455,
      "tsman": 4456,
      "clearly": 4457,
      "cold": 4458,
      "route": 4459,
      "iter": 4460,
      "upon": 4461,
      "strateg": 4462,
      "suggested": 4463,
      "Which": 4464,
      "produce": 4465,
      "filled": 4466,
      "extreme": 4467,
      "pression": 4468,
      "Ghimire": 4469,
      "users": 4470,
      "pra": 4471,
      "expansion": 4472,
      "suffer": 4473,
      "picture": 4474,
      "medicines": 4475,
      "developing": 4476,
      "screen": 4477,
      "correct": 4478,
      "balance": 4479,
      "Clinton": 4480,
      "alternative": 4481,
      "operations": 4482,
      "lor": 4483,
      "abled": 4484,
      "ifying": 4485,
      "mic": 4486,
      "heavy": 4487,
      "Thom": 4488,
      "bi": 4489,
      "store": 4490,
      "Das": 4491,
      "decisions": 4492,
      "NO": 4493,
      "complaint": 4494,
      "uge": 4495,
      "officers": 4496,
      "White": 4497,
      "speaking": 4498,
      "noon": 4499,
      "guaran": 4500,
      "repeatedly": 4501,
      "mail": 4502,
      "intel": 4503,
      "influence": 4504,
      "Dan": 4505,
      "rice": 4506,
      "council": 4507,
      "includes": 4508,
      "kh": 4509,
      "ufact": 4510,
      "overall": 4511,
      "Human": 4512,
      "Four": 4513,
      "Stating": 4514,
      "Pokharel": 4515,
      "nia": 4516,
      "icide": 4517,
      "bear": 4518,
      "ology": 4519,
      "trip": 4520,
      "wak": 4521,
      "feed": 4522,
      "opinion": 4523,
      "Industry": 4524,
      "negoti": 4525,
      "dark": 4526,
      "page": 4527,
      "citizenship": 4528,
      "plat": 4529,
      "confir": 4530,
      "funds": 4531,
      "zone": 4532,
      "psy": 4533,
      "ideas": 4534,
      "unit": 4535,
      "Project": 4536,
      "Yes": 4537,
      "demanding": 4538,
      "wearing": 4539,
      "province": 4540,
      "Germany": 4541,
      "poverty": 4542,
      "anta": 4543,
      "Bus": 4544,
      "atri": 4545,
      "Web": 4546,
      "gradually": 4547,
      "origin": 4548,
      "decade": 4549,
      "Mahendra": 4550,
      "remaining": 4551,
      "Here": 4552,
      "curren": 4553,
      "collap": 4554,
      "Maj": 4555,
      "sons": 4556,
      "poet": 4557,
      "ston": 4558,
      "sud": 4559,
      "Mart": 4560,
      "alys": 4561,
      "Islam": 4562,
      "Agr": 4563,
      "Tem": 4564,
      "bon": 4565,
      "Cam": 4566,
      "Bur": 4567,
      "politan": 4568,
      "coordinator": 4569,
      "continues": 4570,
      "emergency": 4571,
      "calling": 4572,
      "ico": 4573,
      "prepare": 4574,
      "animals": 4575,
      "waste": 4576,
      "supported": 4577,
      "vation": 4578,
      "interested": 4579,
      "75": 4580,
      "Ber": 4581,
      "Ele": 4582,
      "trend": 4583,
      "Sw": 4584,
      "begins": 4585,
      "ships": 4586,
      "farming": 4587,
      "College": 4588,
      "inno": 4589,
      "seed": 4590,
      "trib": 4591,
      "comed": 4592,
      "tourist": 4593,
      "Nir": 4594,
      "anced": 4595,
      "numbers": 4596,
      "reality": 4597,
      "ista": 4598,
      "Lalit": 4599,
      "announcement": 4600,
      "inner": 4601,
      "determination": 4602,
      "literary": 4603,
      "Prakash": 4604,
      "hydro": 4605,
      "treated": 4606,
      "defense": 4607,
      "rot": 4608,
      "da": 4609,
      "Tribhuvan": 4610,
      "reconstruction": 4611,
      "Constitution": 4612,
      "ols": 4613,
      "Employ": 4614,
      "Khanal": 4615,
      "toms": 4616,
      "standard": 4617,
      "Lead": 4618,
      "IT": 4619,
      "regarding": 4620,
      "lectual": 4621,
      "oti": 4622,
      "prevail": 4623,
      "tees": 4624,
      "holders": 4625,
      "Rule": 4626,
      "Baj": 4627,
      "Buddha": 4628,
      "skills": 4629,
      "fit": 4630,
      "Stud": 4631,
      "seemed": 4632,
      "concerns": 4633,
      "returning": 4634,
      "Bu": 4635,
      "Nations": 4636,
      "becomes": 4637,
      "artist": 4638,
      "River": 4639,
      "bing": 4640,
      "shut": 4641,
      "defeated": 4642,
      "Ran": 4643,
      "205": 4644,
      "rigation": 4645,
      "tree": 4646,
      "statements": 4647,
      "Sush": 4648,
      "urban": 4649,
      "awal": 4650,
      "consumer": 4651,
      "straight": 4652,
      "bel": 4653,
      "coal": 4654,
      "starting": 4655,
      "dollars": 4656,
      "clock": 4657,
      "soldiers": 4658,
      "female": 4659,
      "Lu": 4660,
      "va": 4661,
      "inqu": 4662,
      "registration": 4663,
      "activity": 4664,
      "PR": 4665,
      "apers": 4666,
      "palace": 4667,
      "stick": 4668,
      "Sa": 4669,
      "Rom": 4670,
      "weight": 4671,
      "orders": 4672,
      "expenses": 4673,
      "stuck": 4674,
      "expenditure": 4675,
      "summer": 4676,
      "friendly": 4677,
      "remote": 4678,
      "Village": 4679,
      "sites": 4680,
      "ilateral": 4681,
      "Min": 4682,
      "anc": 4683,
      "enjoy": 4684,
      "saving": 4685,
      "plays": 4686,
      "finally": 4687,
      "Agricult": 4688,
      "33": 4689,
      "habit": 4690,
      "governments": 4691,
      "Member": 4692,
      "gives": 4693,
      "Before": 4694,
      "stances": 4695,
      "permanent": 4696,
      "rank": 4697,
      "aka": 4698,
      "Forest": 4699,
      "votes": 4700,
      "valley": 4701,
      "wear": 4702,
      "historical": 4703,
      "iger": 4704,
      "max": 4705,
      "emb": 4706,
      "connected": 4707,
      "Vir": 4708,
      "divided": 4709,
      "index": 4710,
      "uries": 4711,
      "sn": 4712,
      "heat": 4713,
      "earned": 4714,
      "Elect": 4715,
      "prosperity": 4716,
      "concept": 4717,
      "Jes": 4718,
      "edi": 4719,
      "increases": 4720,
      "Sri": 4721,
      "sister": 4722,
      "Ministers": 4723,
      "method": 4724,
      "Open": 4725,
      "platform": 4726,
      "Super": 4727,
      "awareness": 4728,
      "Mall": 4729,
      "Times": 4730,
      "ande": 4731,
      "burn": 4732,
      "maker": 4733,
      "teacher": 4734,
      "Foot": 4735,
      "broadcast": 4736,
      "Durbar": 4737,
      "Push": 4738,
      "itude": 4739,
      "urch": 4740,
      "vac": 4741,
      "aspects": 4742,
      "Bhar": 4743,
      "alysis": 4744,
      "jobs": 4745,
      "asing": 4746,
      "Ann": 4747,
      "iry": 4748,
      "paying": 4749,
      "abinet": 4750,
      "Set": 4751,
      "coordination": 4752,
      "Stre": 4753,
      "custom": 4754,
      "ately": 4755,
      "Africa": 4756,
      "asi": 4757,
      "refer": 4758,
      "root": 4759,
      "ower": 4760,
      "focused": 4761,
      "assess": 4762,
      "subs": 4763,
      "apped": 4764,
      "offering": 4765,
      "candidates": 4766,
      "avoid": 4767,
      "Land": 4768,
      "Amb": 4769,
      "exerc": 4770,
      "provisions": 4771,
      "classes": 4772,
      "neither": 4773,
      "arian": 4774,
      "Malaysia": 4775,
      "Bish": 4776,
      "phil": 4777,
      "refuge": 4778,
      "conven": 4779,
      "cycle": 4780,
      "sale": 4781,
      "hundreds": 4782,
      "prin": 4783,
      "seeking": 4784,
      "Dol": 4785,
      "consum": 4786,
      "sectors": 4787,
      "Academy": 4788,
      "Russian": 4789,
      "Commerce": 4790,
      "NR": 4791,
      "Cali": 4792,
      "obl": 4793,
      "ians": 4794,
      "sam": 4795,
      "below": 4796,
      "sudden": 4797,
      "mort": 4798,
      "simple": 4799,
      "ickets": 4800,
      "abababababababababababababababab": 4801,
      "nar": 4802,
      "kers": 4803,
      "afternoon": 4804,
      "primary": 4805,
      "Water": 4806,
      "safety": 4807,
      "intellectual": 4808,
      "Sil": 4809,
      "mut": 4810,
      "conclud": 4811,
      "Japanese": 4812,
      "tom": 4813,
      "Ve": 4814,
      "map": 4815,
      "housing": 4816,
      "ugg": 4817,
      "Executive": 4818,
      "adjust": 4819,
      "detain": 4820,
      "folk": 4821,
      "Giri": 4822,
      "manufact": 4823,
      "uters": 4824,
      "sugar": 4825,
      "purchase": 4826,
      "Ganesh": 4827,
      "arrang": 4828,
      "walking": 4829,
      "villages": 4830,
      "facing": 4831,
      "particular": 4832,
      "Rup": 4833,
      "Program": 4834,
      "selection": 4835,
      "compensation": 4836,
      "stories": 4837,
      "deput": 4838,
      "Califor": 4839,
      "complex": 4840,
      "facility": 4841,
      "payment": 4842,
      "reject": 4843,
      "Joshi": 4844,
      "obtained": 4845,
      "ceremony": 4846,
      "enous": 4847,
      "distributed": 4848,
      "afr": 4849,
      "inau": 4850,
      "losing": 4851,
      "lose": 4852,
      "charged": 4853,
      "NE": 4854,
      "baby": 4855,
      "SC": 4856,
      "thr": 4857,
      "thusi": 4858,
      "Civil": 4859,
      "witness": 4860,
      "aband": 4861,
      "linked": 4862,
      "analyst": 4863,
      "48": 4864,
      "thered": 4865,
      "circum": 4866,
      "cel": 4867,
      "Information": 4868,
      "ipal": 4869,
      "dialogue": 4870,
      "Er": 4871,
      "meat": 4872,
      "Polit": 4873,
      "empty": 4874,
      "enthusi": 4875,
      "ankar": 4876,
      "32": 4877,
      "La": 4878,
      "identified": 4879,
      "afraid": 4880,
      "strengthe": 4881,
      "inary": 4882,
      "busy": 4883,
      "Black": 4884,
      "streets": 4885,
      "Prof": 4886,
      "content": 4887,
      "version": 4888,
      "waiting": 4889,
      "newspaper": 4890,
      "participated": 4891,
      "tin": 4892,
      "plants": 4893,
      "manpower": 4894,
      "artists": 4895,
      "Dhakal": 4896,
      "rose": 4897,
      "meant": 4898,
      "Thus": 4899,
      "aircraft": 4900,
      "mas": 4901,
      "warned": 4902,
      "Could": 4903,
      "Lok": 4904,
      "governmental": 4905,
      "err": 4906,
      "offered": 4907,
      "definite": 4908,
      "orge": 4909,
      "volun": 4910,
      "Everest": 4911,
      "whom": 4912,
      "curities": 4913,
      "Himalayan": 4914,
      "owk": 4915,
      "eases": 4916,
      "suicide": 4917,
      "sher": 4918,
      "attend": 4919,
      "happiness": 4920,
      "draf": 4921,
      "Consu": 4922,
      "patient": 4923,
      "thi": 4924,
      "connection": 4925,
      "ivals": 4926,
      "pret": 4927,
      "Area": 4928,
      "UR": 4929,
      "exhib": 4930,
      "easier": 4931,
      "copy": 4932,
      "Cal": 4933,
      "rock": 4934,
      "representative": 4935,
      "defeat": 4936,
      "ost": 4937,
      "diseases": 4938,
      "dry": 4939,
      "bum": 4940,
      "legisl": 4941,
      "failure": 4942,
      "flood": 4943,
      "38": 4944,
      "satisfied": 4945,
      "maintained": 4946,
      "icy": 4947,
      "Basnet": 4948,
      "Football": 4949,
      "drama": 4950,
      "confirmed": 4951,
      "constant": 4952,
      "ciples": 4953,
      "matters": 4954,
      "Birgunj": 4955,
      "specific": 4956,
      "ites": 4957,
      "negative": 4958,
      "California": 4959,
      "hil": 4960,
      "sought": 4961,
      "2004": 4962,
      "singer": 4963,
      "Jhapa": 4964,
      "doubt": 4965,
      "beyond": 4966,
      "geo": 4967,
      "UCPN": 4968,
      "records": 4969,
      "brothers": 4970,
      "OR": 4971,
      "university": 4972,
      "soil": 4973,
      "aked": 4974,
      "otherwise": 4975,
      "symb": 4976,
      "journalist": 4977,
      "Sto": 4978,
      "uties": 4979,
      "count": 4980,
      "debt": 4981,
      "Nav": 4982,
      "captain": 4983,
      "shocked": 4984,
      "provides": 4985,
      "cue": 4986,
      "zy": 4987,
      "ause": 4988,
      "equally": 4989,
      "Afghanistan": 4990,
      "happens": 4991,
      "ema": 4992,
      "drink": 4993,
      "Lalitpur": 4994,
      "ably": 4995,
      "aki": 4996,
      "anka": 4997,
      "drugs": 4998,
      "extra": 4999,
      "spot": 5000,
      "36": 5001,
      "Bhakt": 5002,
      "girls": 5003,
      "Tibet": 5004,
      "Di": 5005,
      "UP": 5006,
      "salary": 5007,
      "Children": 5008,
      "extr": 5009,
      "raw": 5010,
      "Airport": 5011,
      "flight": 5012,
      "categ": 5013,
      "prop": 5014,
      "bond": 5015,
      "yr": 5016,
      "criminal": 5017,
      "beauty": 5018,
      "gree": 5019,
      "connect": 5020,
      "troops": 5021,
      "voc": 5022,
      "Research": 5023,
      "advantages": 5024,
      "uram": 5025,
      "toward": 5026,
      "throw": 5027,
      "edge": 5028,
      "although": 5029,
      "behalf": 5030,
      "Over": 5031,
      "lah": 5032,
      "manage": 5033,
      "hall": 5034,
      "terr": 5035,
      "PP": 5036,
      "joined": 5037,
      "Karn": 5038,
      "Metro": 5039,
      "statistics": 5040,
      "II": 5041,
      "ularly": 5042,
      "advance": 5043,
      "Bhutan": 5044,
      "scal": 5045,
      "sured": 5046,
      "Chap": 5047,
      "sweet": 5048,
      "Cham": 5049,
      "discrimination": 5050,
      "renew": 5051,
      "iment": 5052,
      "resolved": 5053,
      "challenges": 5054,
      "Mak": 5055,
      "Rev": 5056,
      "Sud": 5057,
      "osop": 5058,
      "ov": 5059,
      "presidential": 5060,
      "sari": 5061,
      "penal": 5062,
      "Str": 5063,
      "mortg": 5064,
      "lease": 5065,
      "creation": 5066,
      "Thak": 5067,
      "Ku": 5068,
      "marks": 5069,
      "accepted": 5070,
      "ashion": 5071,
      "trading": 5072,
      "49": 5073,
      "ordered": 5074,
      "Paul": 5075,
      "usive": 5076,
      "recommendation": 5077,
      "Current": 5078,
      "SE": 5079,
      "uate": 5080,
      "improved": 5081,
      "knows": 5082,
      "actually": 5083,
      "clar": 5084,
      "formal": 5085,
      "join": 5086,
      "usal": 5087,
      "lived": 5088,
      "els": 5089,
      "Your": 5090,
      "ding": 5091,
      "hair": 5092,
      "relatives": 5093,
      "Division": 5094,
      "Dam": 5095,
      "flag": 5096,
      "vin": 5097,
      "ronic": 5098,
      "Representatives": 5099,
      "Iraqi": 5100,
      "Tourism": 5101,
      "mechanism": 5102,
      "ille": 5103,
      "evi": 5104,
      "functions": 5105,
      "earn": 5106,
      "gypt": 5107,
      "Hy": 5108,
      "tware": 5109,
      "Madhesh": 5110,
      "restrict": 5111,
      "gra": 5112,
      "businessmen": 5113,
      "promote": 5114,
      "Looking": 5115,
      "Transport": 5116,
      "Street": 5117,
      "Sad": 5118,
      "choose": 5119,
      "Pash": 5120,
      "sche": 5121,
      "Leg": 5122,
      "letters": 5123,
      "unable": 5124,
      "frame": 5125,
      "Mag": 5126,
      "fortun": 5127,
      "environmental": 5128,
      "philosop": 5129,
      "Bhaktapur": 5130,
      "leaves": 5131,
      "sec": 5132,
      "soft": 5133,
      "Five": 5134,
      "tack": 5135,
      "yam": 5136,
      "idespread": 5137,
      "occup": 5138,
      "dependence": 5139,
      "prevailing": 5140,
      "Year": 5141,
      "expert": 5142,
      "Dalit": 5143,
      "finance": 5144,
      "tim": 5145,
      "icit": 5146,
      "wishes": 5147,
      "fal": 5148,
      "floor": 5149,
      "Egypt": 5150,
      "Any": 5151,
      "fifth": 5152,
      "ugh": 5153,
      "Terai": 5154,
      "bs": 5155,
      "hael": 5156,
      "minor": 5157,
      "minimum": 5158,
      "posts": 5159,
      "Speaking": 5160,
      "Sir": 5161,
      "rew": 5162,
      "het": 5163,
      "worried": 5164,
      "Tharu": 5165,
      "Bista": 5166,
      "lywood": 5167,
      "irty": 5168,
      "ows": 5169,
      "permission": 5170,
      "dign": 5171,
      "entry": 5172,
      "Tra": 5173,
      "Their": 5174,
      "pm": 5175,
      "ancient": 5176,
      "strengthen": 5177,
      "weakness": 5178,
      "animal": 5179,
      "asking": 5180,
      "courage": 5181,
      "Six": 5182,
      "winter": 5183,
      "ider": 5184,
      "creating": 5185,
      "ently": 5186,
      "landsl": 5187,
      "atra": 5188,
      "arp": 5189,
      "falling": 5190,
      "appeal": 5191,
      "Gand": 5192,
      "wound": 5193,
      "administrative": 5194,
      "73": 5195,
      "fixed": 5196,
      "Republican": 5197,
      "systems": 5198,
      "currency": 5199,
      "drive": 5200,
      "northern": 5201,
      "Willi": 5202,
      "weather": 5203,
      "bought": 5204,
      "holiday": 5205,
      "useum": 5206,
      "Janakpur": 5207,
      "Karnali": 5208,
      "dece": 5209,
      "managed": 5210,
      "asp": 5211,
      "Youth": 5212,
      "lock": 5213,
      "watching": 5214,
      "iraha": 5215,
      "succeeded": 5216,
      "bert": 5217,
      "Speaker": 5218,
      "Hari": 5219,
      "affili": 5220,
      "German": 5221,
      "ented": 5222,
      "apo": 5223,
      "widespread": 5224,
      "abuse": 5225,
      "meetings": 5226,
      "bha": 5227,
      "ously": 5228,
      "unicipal": 5229,
      "Medical": 5230,
      "existence": 5231,
      "LC": 5232,
      "Raut": 5233,
      "gate": 5234,
      "select": 5235,
      "format": 5236,
      "lawmakers": 5237,
      "fake": 5238,
      "decide": 5239,
      "Among": 5240,
      "quant": 5241,
      "telephone": 5242,
      "sis": 5243,
      "Ken": 5244,
      "fat": 5245,
      "Sports": 5246,
      "hurt": 5247,
      "objective": 5248,
      "ght": 5249,
      "diplomatic": 5250,
      "Temple": 5251,
      "location": 5252,
      "aji": 5253,
      "operative": 5254,
      "adhan": 5255,
      "هههه": 5256,
      "El": 5257,
      "Sik": 5258,
      "caught": 5259,
      "values": 5260,
      "feature": 5261,
      "myself": 5262,
      "ima": 5263,
      "tes": 5264,
      "cultiv": 5265,
      "refused": 5266,
      "Fil": 5267,
      "mical": 5268,
      "gi": 5269,
      "lake": 5270,
      "indig": 5271,
      "2001": 5272,
      "Gov": 5273,
      "Jesus": 5274,
      "Special": 5275,
      "34": 5276,
      "300": 5277,
      "Bad": 5278,
      "hot": 5279,
      "Bro": 5280,
      "GO": 5281,
      "gathered": 5282,
      "Panchayat": 5283,
      "arranged": 5284,
      "wari": 5285,
      "adhi": 5286,
      "Organization": 5287,
      "cul": 5288,
      "ayas": 5289,
      "relative": 5290,
      "05": 5291,
      "analysis": 5292,
      "Morang": 5293,
      "emotion": 5294,
      "dish": 5295,
      "umn": 5296,
      "Cit": 5297,
      "background": 5298,
      "Gaz": 5299,
      "certainly": 5300,
      "elder": 5301,
      "maximum": 5302,
      "mad": 5303,
      "brief": 5304,
      "actor": 5305,
      "participating": 5306,
      "compuls": 5307,
      "preci": 5308,
      "metro": 5309,
      "Bol": 5310,
      "atar": 5311,
      "nament": 5312,
      "twenty": 5313,
      "particularly": 5314,
      "pi": 5315,
      "display": 5316,
      "meters": 5317,
      "itions": 5318,
      "adium": 5319,
      "Lak": 5320,
      "Miss": 5321,
      "sending": 5322,
      "Econom": 5323,
      "shared": 5324,
      "achieved": 5325,
      "rapid": 5326,
      "institutional": 5327,
      "scr": 5328,
      "everywhere": 5329,
      "Soci": 5330,
      "ako": 5331,
      "Bhim": 5332,
      "medium": 5333,
      "pressed": 5334,
      "deleg": 5335,
      "execut": 5336,
      "neighb": 5337,
      "eria": 5338,
      "highway": 5339,
      "enem": 5340,
      "species": 5341,
      "Michael": 5342,
      "IM": 5343,
      "Ke": 5344,
      "smart": 5345,
      "entrepreneurs": 5346,
      "addy": 5347,
      "Vish": 5348,
      "user": 5349,
      "DR": 5350,
      "196": 5351,
      "advantage": 5352,
      "lu": 5353,
      "roll": 5354,
      "indigenous": 5355,
      "surprised": 5356,
      "ancing": 5357,
      "respectively": 5358,
      "etry": 5359,
      "206": 5360,
      "definitely": 5361,
      "convers": 5362,
      "miles": 5363,
      "Bre": 5364,
      "ases": 5365,
      "util": 5366,
      "Nepalgunj": 5367,
      "ilty": 5368,
      "phones": 5369,
      "Kur": 5370,
      "Pashup": 5371,
      "note": 5372,
      "master": 5373,
      "expression": 5374,
      "arily": 5375,
      "opal": 5376,
      "draft": 5377,
      "traders": 5378,
      "Net": 5379,
      "memory": 5380,
      "excell": 5381,
      "cry": 5382,
      "campus": 5383,
      "entering": 5384,
      "satisfaction": 5385,
      "Mil": 5386,
      "ariat": 5387,
      "gender": 5388,
      "terrorism": 5389,
      "prosecut": 5390,
      "disrup": 5391,
      "entertain": 5392,
      "George": 5393,
      "struction": 5394,
      "determine": 5395,
      "Rich": 5396,
      "forget": 5397,
      "EU": 5398,
      "Sind": 5399,
      "champion": 5400,
      "willing": 5401,
      "seriously": 5402,
      "Sum": 5403,
      "shooting": 5404,
      "Dang": 5405,
      "onom": 5406,
      "symbol": 5407,
      "Kat": 5408,
      "ordinary": 5409,
      "corner": 5410,
      "explos": 5411,
      "valid": 5412,
      "pregn": 5413,
      "Out": 5414,
      "Pan": 5415,
      "cipl": 5416,
      "deployed": 5417,
      "Hong": 5418,
      "slo": 5419,
      "telligence": 5420,
      "contribution": 5421,
      "accounts": 5422,
      "Found": 5423,
      "55": 5424,
      "Americans": 5425,
      "topic": 5426,
      "confident": 5427,
      "Jag": 5428,
      "duties": 5429,
      "measure": 5430,
      "owned": 5431,
      "winner": 5432,
      "contained": 5433,
      "sensitive": 5434,
      "pace": 5435,
      "academ": 5436,
      "consist": 5437,
      "mod": 5438,
      "factory": 5439,
      "Brown": 5440,
      "centers": 5441,
      "Malla": 5442,
      "ito": 5443,
      "distance": 5444,
      "IS": 5445,
      "ida": 5446,
      "imposed": 5447,
      "republic": 5448,
      "writers": 5449,
      "provincial": 5450,
      "singing": 5451,
      "federalism": 5452,
      "accidentally": 5453,
      "yards": 5454,
      "2015": 5455,
      "guilty": 5456,
      "attacked": 5457,
      "fruit": 5458,
      "Scot": 5459,
      "stressed": 5460,
      "Senate": 5461,
      "repair": 5462,
      "iring": 5463,
      "Mohan": 5464,
      "plane": 5465,
      "gery": 5466,
      "Tu": 5467,
      "ureau": 5468,
      "dropped": 5469,
      "exceed": 5470,
      "brain": 5471,
      "consumption": 5472,
      "absence": 5473,
      "Saudi": 5474,
      "memor": 5475,
      "editor": 5476,
      "Award": 5477,
      "Sim": 5478,
      "tic": 5479,
      "Gyan": 5480,
      "snow": 5481,
      "astern": 5482,
      "conducting": 5483,
      "kar": 5484,
      "symp": 5485,
      "album": 5486,
      "proport": 5487,
      "indic": 5488,
      "serving": 5489,
      "activists": 5490,
      "skin": 5491,
      "website": 5492,
      "figh": 5493,
      "rare": 5494,
      "isation": 5495,
      "league": 5496,
      "usually": 5497,
      "wealth": 5498,
      "experienced": 5499,
      "Schedule": 5500,
      "Cricket": 5501,
      "anga": 5502,
      "faced": 5503,
      "resist": 5504,
      "iced": 5505,
      "licop": 5506,
      "spring": 5507,
      "characters": 5508,
      "automat": 5509,
      "iled": 5510,
      "Ale": 5511,
      "iest": 5512,
      "fresh": 5513,
      "ER": 5514,
      "Sab": 5515,
      "withdraw": 5516,
      "taxes": 5517,
      "twice": 5518,
      "upper": 5519,
      "described": 5520,
      "2003": 5521,
      "vegetables": 5522,
      "Def": 5523,
      "fashion": 5524,
      "Chairperson": 5525,
      "correspond": 5526,
      "preparations": 5527,
      "Everyone": 5528,
      "rout": 5529,
      "unch": 5530,
      "Pradhan": 5531,
      "buildings": 5532,
      "simp": 5533,
      "grade": 5534,
      "47": 5535,
      "software": 5536,
      "ny": 5537,
      "Gen": 5538,
      "Pad": 5539,
      "divers": 5540,
      "businesses": 5541,
      "inals": 5542,
      "fraud": 5543,
      "reflect": 5544,
      "learned": 5545,
      "false": 5546,
      "figure": 5547,
      "ume": 5548,
      "abandon": 5549,
      "HI": 5550,
      "Mer": 5551,
      "demol": 5552,
      "stake": 5553,
      "properly": 5554,
      "chairperson": 5555,
      "Dhan": 5556,
      "adequ": 5557,
      "cutting": 5558,
      "nergy": 5559,
      "Trade": 5560,
      "37": 5561,
      "DA": 5562,
      "Rol": 5563,
      "voters": 5564,
      "broke": 5565,
      "aste": 5566,
      "association": 5567,
      "Kail": 5568,
      "dia": 5569,
      "worker": 5570,
      "Society": 5571,
      "Jose": 5572,
      "grain": 5573,
      "male": 5574,
      "tight": 5575,
      "tired": 5576,
      "heritage": 5577,
      "Until": 5578,
      "Green": 5579,
      "mix": 5580,
      "forth": 5581,
      "anywhere": 5582,
      "follows": 5583,
      "peaceful": 5584,
      "contributed": 5585,
      "assembly": 5586,
      "practices": 5587,
      "idden": 5588,
      "Newsw": 5589,
      "declar": 5590,
      "criteria": 5591,
      "destination": 5592,
      "parent": 5593,
      "criticism": 5594,
      "kota": 5595,
      "ahar": 5596,
      "politicians": 5597,
      "Seven": 5598,
      "banking": 5599,
      "Oly": 5600,
      "iron": 5601,
      "Business": 5602,
      "units": 5603,
      "sphere": 5604,
      "punishment": 5605,
      "Cop": 5606,
      "Kanch": 5607,
      "performed": 5608,
      "files": 5609,
      "southern": 5610,
      "Pushpa": 5611,
      "Mill": 5612,
      "trial": 5613,
      "aves": 5614,
      "hospitals": 5615,
      "procedures": 5616,
      "suspect": 5617,
      "Bharat": 5618,
      "Apple": 5619,
      "tun": 5620,
      "warm": 5621,
      "promise": 5622,
      "controlled": 5623,
      "attempt": 5624,
      "Kash": 5625,
      "aught": 5626,
      "mier": 5627,
      "Madhav": 5628,
      "mun": 5629,
      "shops": 5630,
      "Olymp": 5631,
      "Lumb": 5632,
      "improvement": 5633,
      "Emb": 5634,
      "Life": 5635,
      "helicop": 5636,
      "therefore": 5637,
      ":-": 5638,
      "Kong": 5639,
      "chemical": 5640,
      "critical": 5641,
      "frustr": 5642,
      "Newswire": 5643,
      "celebrated": 5644,
      "Again": 5645,
      "Lumbini": 5646,
      "hote": 5647,
      "sett": 5648,
      "shr": 5649,
      "Magar": 5650,
      "rac": 5651,
      "intend": 5652,
      "confusion": 5653,
      "flying": 5654,
      "ician": 5655,
      "earnings": 5656,
      "Tan": 5657,
      "scholar": 5658,
      "Power": 5659,
      "nur": 5660,
      "cles": 5661,
      "liqu": 5662,
      "39": 5663,
      "Korean": 5664,
      "Energy": 5665,
      "excess": 5666,
      "acknow": 5667,
      "introduced": 5668,
      "circumstances": 5669,
      "Apart": 5670,
      "individuals": 5671,
      "AS": 5672,
      "ki": 5673,
      "Ramesh": 5674,
      "Mush": 5675,
      "agon": 5676,
      "tournament": 5677,
      "Ved": 5678,
      "villagers": 5679,
      "Shiva": 5680,
      "mutual": 5681,
      "consciousness": 5682,
      "PM": 5683,
      "underway": 5684,
      "ette": 5685,
      "Investigation": 5686,
      "tendency": 5687,
      "sover": 5688,
      "trees": 5689,
      "terrorist": 5690,
      "diction": 5691,
      "Kha": 5692,
      "greater": 5693,
      "46": 5694,
      "intention": 5695,
      "corporation": 5696,
      "score": 5697,
      "Zone": 5698,
      "Subedi": 5699,
      "fix": 5700,
      "ald": 5701,
      "kick": 5702,
      "crash": 5703,
      "8th": 5704,
      "facilit": 5705,
      "suddenly": 5706,
      "inch": 5707,
      "saved": 5708,
      "buying": 5709,
      "learning": 5710,
      "jur": 5711,
      "distur": 5712,
      "advertising": 5713,
      "options": 5714,
      "BBC": 5715,
      "visited": 5716,
      "Goog": 5717,
      "Writ": 5718,
      "error": 5719,
      "features": 5720,
      "Enter": 5721,
      "ox": 5722,
      "Paris": 5723,
      "concluded": 5724,
      "rescue": 5725,
      "disaster": 5726,
      "AE": 5727,
      "Inspe": 5728,
      "principles": 5729,
      "MPs": 5730,
      "code": 5731,
      "corrupt": 5732,
      "Ambassador": 5733,
      "deputy": 5734,
      "Mess": 5735,
      "poems": 5736,
      "fly": 5737,
      "ongoing": 5738,
      "arden": 5739,
      "advice": 5740,
      "eing": 5741,
      "seat": 5742,
      "viation": 5743,
      "declaration": 5744,
      "owners": 5745,
      "Tom": 5746,
      "attered": 5747,
      "UPI": 5748,
      "Currently": 5749,
      "admitted": 5750,
      "recognized": 5751,
      "Agriculture": 5752,
      "irrigation": 5753,
      "driving": 5754,
      "discipl": 5755,
      "revealed": 5756,
      "wasn": 5757,
      "yan": 5758,
      "sharp": 5759,
      "battle": 5760,
      "slight": 5761,
      "issions": 5762,
      "standards": 5763,
      "pictures": 5764,
      "interesting": 5765,
      "visiting": 5766,
      "nominated": 5767,
      "James": 5768,
      "Wel": 5769,
      "lung": 5770,
      "fans": 5771,
      "poetry": 5772,
      "choice": 5773,
      "cription": 5774,
      "Google": 5775,
      "mixed": 5776,
      "grat": 5777,
      "requires": 5778,
      "atmo": 5779,
      "aram": 5780,
      "awali": 5781,
      "Scott": 5782,
      "Jay": 5783,
      "recovered": 5784,
      "Produ": 5785,
      "County": 5786,
      "via": 5787,
      "violent": 5788,
      "99": 5789,
      "ria": 5790,
      "mainly": 5791,
      "retire": 5792,
      "Angel": 5793,
      "Jam": 5794,
      "crete": 5795,
      "identify": 5796,
      "achievement": 5797,
      "Obama": 5798,
      "Metropolitan": 5799,
      "ibe": 5800,
      "script": 5801,
      "external": 5802,
      "Real": 5803,
      "seventh": 5804,
      "ares": 5805,
      "entr": 5806,
      "Later": 5807,
      "isn": 5808,
      "Democrats": 5809,
      "44": 5810,
      "mart": 5811,
      "univers": 5812,
      "treaty": 5813,
      "imately": 5814,
      "stood": 5815,
      "listen": 5816,
      "CC": 5817,
      "Ass": 5818,
      "Embassy": 5819,
      "pping": 5820,
      "Mushar": 5821,
      "incidents": 5822,
      "Labor": 5823,
      "hydropower": 5824,
      "hari": 5825,
      "jump": 5826,
      "Port": 5827,
      "insp": 5828,
      "ifice": 5829,
      "offers": 5830,
      "residence": 5831,
      "flour": 5832,
      "roof": 5833,
      "Select": 5834,
      "Rock": 5835,
      "hunger": 5836,
      "protests": 5837,
      "putting": 5838,
      "drop": 5839,
      "lets": 5840,
      "shed": 5841,
      "deem": 5842,
      "Turkey": 5843,
      "Cle": 5844,
      "Fal": 5845,
      "rol": 5846,
      "extent": 5847,
      "replace": 5848,
      "Oct": 5849,
      "quite": 5850,
      "Tex": 5851,
      "Baburam": 5852,
      "Musharraf": 5853,
      "stability": 5854,
      "banned": 5855,
      "scen": 5856,
      "elderly": 5857,
      "angry": 5858,
      "perhaps": 5859,
      "Force": 5860,
      "guarantee": 5861,
      "compar": 5862,
      "Please": 5863,
      "Hotel": 5864,
      "guide": 5865,
      "alive": 5866,
      "Singapo": 5867,
      "Singapore": 5868,
      "Mac": 5869,
      "harm": 5870,
      "foreigners": 5871,
      "dismissed": 5872,
      "excellent": 5873,
      "cabinet": 5874,
      "retail": 5875,
      "dim": 5876,
      "stolen": 5877,
      "honored": 5878,
      "Tim": 5879,
      "publication": 5880,
      "eign": 5881,
      "exact": 5882,
      "dust": 5883,
      "berg": 5884,
      "smooth": 5885,
      "unique": 5886,
      "iance": 5887,
      "fulfilled": 5888,
      "mistake": 5889,
      "curement": 5890,
      "sacrifice": 5891,
      "domin": 5892,
      "evaluation": 5893,
      "Hal": 5894,
      "EC": 5895,
      "Scotland": 5896,
      "quot": 5897,
      "Cus": 5898,
      "rian": 5899,
      "pts": 5900,
      "IP": 5901,
      "drag": 5902,
      "tort": 5903,
      "eleph": 5904,
      "bio": 5905,
      "Province": 5906,
      "occurred": 5907,
      "agit": 5908,
      "gathering": 5909,
      "whatever": 5910,
      "ijing": 5911,
      "inaugur": 5912,
      "tough": 5913,
      "fields": 5914,
      "paddy": 5915,
      "zil": 5916,
      "65": 5917,
      "Himalayas": 5918,
      "Ah": 5919,
      "Mot": 5920,
      "concrete": 5921,
      "----": 5922,
      "fect": 5923,
      "Stand": 5924,
      "Sherpa": 5925,
      "bac": 5926,
      "initially": 5927,
      "associated": 5928,
      "Contro": 5929,
      "square": 5930,
      "CN": 5931,
      "Time": 5932,
      "cers": 5933,
      "tray": 5934,
      "finished": 5935,
      "2017": 5936,
      "usual": 5937,
      "exercise": 5938,
      "heads": 5939,
      "supporters": 5940,
      "Kant": 5941,
      "iti": 5942,
      "walked": 5943,
      "Jack": 5944,
      "complaints": 5945,
      "Smith": 5946,
      "ishing": 5947,
      "listening": 5948,
      "Play": 5949,
      "bottom": 5950,
      "ena": 5951,
      "ura": 5952,
      "uted": 5953,
      "Majesty": 5954,
      "disabled": 5955,
      "ibilities": 5956,
      "server": 5957,
      "cars": 5958,
      "customer": 5959,
      "committees": 5960,
      "Brah": 5961,
      "detained": 5962,
      "skilled": 5963,
      "loved": 5964,
      "ighth": 5965,
      "Call": 5966,
      "Mex": 5967,
      "plastic": 5968,
      "forming": 5969,
      "micro": 5970,
      "previously": 5971,
      "breaking": 5972,
      "atmosphere": 5973,
      "taught": 5974,
      "inger": 5975,
      "syn": 5976,
      "Show": 5977,
      "competitive": 5978,
      "summit": 5979,
      "Deepak": 5980,
      "Bor": 5981,
      "iciary": 5982,
      "dad": 5983,
      "reput": 5984,
      "scor": 5985,
      "termin": 5986,
      "cents": 5987,
      "2000": 5988,
      "Kap": 5989,
      "ees": 5990,
      "rab": 5991,
      "coalition": 5992,
      "sufficient": 5993,
      "rad": 5994,
      "Thousand": 5995,
      "poses": 5996,
      "Devi": 5997,
      "Palest": 5998,
      "elsewhere": 5999,
      "Sindh": 6000,
      "eting": 6001,
      "strik": 6002,
      "wonder": 6003,
      "injury": 6004,
      "Vij": 6005,
      "umla": 6006,
      "annually": 6007,
      "decreased": 6008,
      "Kun": 6009,
      "yo": 6010,
      "height": 6011,
      "initial": 6012,
      "honest": 6013,
      "AM": 6014,
      "Without": 6015,
      "cook": 6016,
      "piece": 6017,
      "street": 6018,
      "uated": 6019,
      "forms": 6020,
      "rooms": 6021,
      "material": 6022,
      "guard": 6023,
      "gotten": 6024,
      "productive": 6025,
      "sovereign": 6026,
      "Rem": 6027,
      "belong": 6028,
      "excl": 6029,
      "scientific": 6030,
      "machine": 6031,
      "Bah": 6032,
      "pting": 6033,
      "legally": 6034,
      "attractive": 6035,
      "zero": 6036,
      "pollution": 6037,
      "Insurance": 6038,
      "couldn": 6039,
      "decline": 6040,
      "sustainable": 6041,
      "Beijing": 6042,
      "Yu": 6043,
      "ardi": 6044,
      "Rajendra": 6045,
      "bilateral": 6046,
      "promised": 6047,
      "neighboring": 6048,
      "embr": 6049,
      "unless": 6050,
      "pse": 6051,
      "erve": 6052,
      "appreci": 6053,
      "itional": 6054,
      "businessman": 6055,
      "Election": 6056,
      "semin": 6057,
      "foundation": 6058,
      "strategic": 6059,
      "rig": 6060,
      "positions": 6061,
      "BA": 6062,
      "inations": 6063,
      "wash": 6064,
      "Ten": 6065,
      "ucky": 6066,
      "Photo": 6067,
      "cheap": 6068,
      "ING": 6069,
      "Butwal": 6070,
      "Add": 6071,
      "mortgage": 6072,
      "vacc": 6073,
      "stated": 6074,
      "upcoming": 6075,
      "principle": 6076,
      "BP": 6077,
      "nearby": 6078,
      "Technology": 6079,
      "actress": 6080,
      "Virgin": 6081,
      "Bikram": 6082,
      "Sans": 6083,
      "sin": 6084,
      "avi": 6085,
      "affiliated": 6086,
      "Ur": 6087,
      "exit": 6088,
      "exem": 6089,
      "adequate": 6090,
      "shad": 6091,
      "entrepreneur": 6092,
      "Italy": 6093,
      "Far": 6094,
      "lob": 6095,
      "ky": 6096,
      "kim": 6097,
      "surgery": 6098,
      "wire": 6099,
      "igno": 6100,
      "restaurant": 6101,
      "ST": 6102,
      "erson": 6103,
      "injuries": 6104,
      "Pac": 6105,
      "centre": 6106,
      "eling": 6107,
      "Once": 6108,
      "hain": 6109,
      "Johnson": 6110,
      "vast": 6111,
      "iling": 6112,
      "burden": 6113,
      "Gi": 6114,
      "falls": 6115,
      "penalty": 6116,
      "Put": 6117,
      "hilly": 6118,
      "5th": 6119,
      "Gopal": 6120,
      "kg": 6121,
      "Financial": 6122,
      "ARC": 6123,
      "Brazil": 6124,
      "African": 6125,
      "Name": 6126,
      "opposed": 6127,
      "Well": 6128,
      "1990": 6129,
      "suitable": 6130,
      "dignity": 6131,
      "bath": 6132,
      "boys": 6133,
      "Oper": 6134,
      "sey": 6135,
      "rehab": 6136,
      "Sham": 6137,
      "considering": 6138,
      "tons": 6139,
      "pled": 6140,
      "achment": 6141,
      "flowers": 6142,
      "strain": 6143,
      "clin": 6144,
      "philosophy": 6145,
      "Inspector": 6146,
      "pitch": 6147,
      "aming": 6148,
      "urer": 6149,
      "attended": 6150,
      "proving": 6151,
      "fundament": 6152,
      "anpur": 6153,
      "una": 6154,
      "lawyer": 6155,
      "municipal": 6156,
      "spoken": 6157,
      "recommended": 6158,
      "painting": 6159,
      "Dub": 6160,
      "cards": 6161,
      "imported": 6162,
      "bright": 6163,
      "2002": 6164,
      "ownership": 6165,
      "emotional": 6166,
      "custody": 6167,
      "protected": 6168,
      "messages": 6169,
      "Food": 6170,
      "Biren": 6171,
      "scale": 6172,
      "izes": 6173,
      "signs": 6174,
      "Mur": 6175,
      "suspended": 6176,
      "olution": 6177,
      "grew": 6178,
      "88": 6179,
      "yard": 6180,
      "designed": 6181,
      "Girij": 6182,
      "CI": 6183,
      "Middle": 6184,
      "Parsa": 6185,
      "requested": 6186,
      "pool": 6187,
      "Campus": 6188,
      "sch": 6189,
      "uwa": 6190,
      "newly": 6191,
      "vt": 6192,
      "oration": 6193,
      "device": 6194,
      "pleas": 6195,
      "transferred": 6196,
      "helps": 6197,
      "Sit": 6198,
      "Vin": 6199,
      "llor": 6200,
      "academic": 6201,
      "trouble": 6202,
      "Sushil": 6203,
      "wati": 6204,
      "McC": 6205,
      "rejected": 6206,
      "eventually": 6207,
      "Provided": 6208,
      "Rural": 6209,
      "2016": 6210,
      "abilities": 6211,
      "shel": 6212,
      "Senior": 6213,
      "offee": 6214,
      "attor": 6215,
      "knowing": 6216,
      "producer": 6217,
      "collecting": 6218,
      "ambassador": 6219,
      "cinema": 6220,
      "producing": 6221,
      "iciency": 6222,
      "digital": 6223,
      "Dashain": 6224,
      "vessel": 6225,
      "awa": 6226,
      "beaten": 6227,
      "terrible": 6228,
      "ips": 6229,
      "faces": 6230,
      "aggress": 6231,
      "regions": 6232,
      "Paraj": 6233,
      "Gyawali": 6234,
      "deemed": 6235,
      "fertil": 6236,
      "slogan": 6237,
      "Sita": 6238,
      "catch": 6239,
      "ours": 6240,
      "adhy": 6241,
      "Shakya": 6242,
      "42": 6243,
      "Son": 6244,
      "solid": 6245,
      "DE": 6246,
      "mode": 6247,
      "gment": 6248,
      "rom": 6249,
      "2018": 6250,
      "inquiry": 6251,
      "secure": 6252,
      "personality": 6253,
      "effects": 6254,
      "400": 6255,
      "Kim": 6256,
      "ws": 6257,
      "intelligence": 6258,
      "allegations": 6259,
      ".)": 6260,
      "seats": 6261,
      "rape": 6262,
      "languages": 6263,
      "printed": 6264,
      "Mat": 6265,
      "rier": 6266,
      "ware": 6267,
      "rising": 6268,
      "listed": 6269,
      "Conference": 6270,
      "differences": 6271,
      "Aryal": 6272,
      "highlight": 6273,
      "studied": 6274,
      "assistant": 6275,
      "Whatever": 6276,
      "Shri": 6277,
      "conversation": 6278,
      "Flor": 6279,
      "mostly": 6280,
      "figures": 6281,
      "frequ": 6282,
      "vant": 6283,
      "contractor": 6284,
      "silent": 6285,
      "simply": 6286,
      "addressed": 6287,
      "Pvt": 6288,
      "estimate": 6289,
      "strength": 6290,
      "provinces": 6291,
      "Bho": 6292,
      "denied": 6293,
      "hotels": 6294,
      "Eastern": 6295,
      "ni": 6296,
      "servants": 6297,
      "monthly": 6298,
      "Kav": 6299,
      "chest": 6300,
      "uta": 6301,
      "agreements": 6302,
      "marketing": 6303,
      "defend": 6304,
      "Global": 6305,
      "antic": 6306,
      "covering": 6307,
      "Din": 6308,
      "Lanka": 6309,
      "wing": 6310,
      "stac": 6311,
      "ulate": 6312,
      "completion": 6313,
      "rally": 6314,
      "ilitation": 6315,
      "PRNewswire": 6316,
      "Teach": 6317,
      "aling": 6318,
      "ola": 6319,
      "awarded": 6320,
      "ode": 6321,
      "preced": 6322,
      "practical": 6323,
      "Regmi": 6324,
      "panel": 6325,
      "structures": 6326,
      "Mrs": 6327,
      "welcome": 6328,
      "Foundation": 6329,
      "Bay": 6330,
      "flights": 6331,
      "concil": 6332,
      "stable": 6333,
      "itors": 6334,
      "earning": 6335,
      "sick": 6336,
      "alo": 6337,
      "trained": 6338,
      "Ray": 6339,
      "Govern": 6340,
      "liquid": 6341,
      "intens": 6342,
      "losses": 6343,
      "suspic": 6344,
      "edition": 6345,
      "Chapter": 6346,
      "Nu": 6347,
      "toll": 6348,
      "fallen": 6349,
      "birds": 6350,
      "Capital": 6351,
      "electric": 6352,
      "rush": 6353,
      "Tor": 6354,
      "mati": 6355,
      "Ze": 6356,
      "cloud": 6357,
      "complained": 6358,
      "VDCs": 6359,
      "Bagh": 6360,
      "Citiz": 6361,
      "43": 6362,
      "bes": 6363,
      "regime": 6364,
      "ritual": 6365,
      "Team": 6366,
      "investigate": 6367,
      "rep": 6368,
      "iction": 6369,
      "highly": 6370,
      "hidden": 6371,
      "pit": 6372,
      "stomach": 6373,
      "Electricity": 6374,
      "Main": 6375,
      "Nag": 6376,
      "Mid": 6377,
      "iya": 6378,
      "obstac": 6379,
      "allowance": 6380,
      "orial": 6381,
      "conservation": 6382,
      "epis": 6383,
      "iel": 6384,
      "solutions": 6385,
      "defa": 6386,
      "celebrate": 6387,
      "convict": 6388,
      "lip": 6389,
      "hopes": 6390,
      "employed": 6391,
      "telling": 6392,
      "automatically": 6393,
      "dess": 6394,
      "semi": 6395,
      "Good": 6396,
      "temper": 6397,
      "Mel": 6398,
      "seas": 6399,
      "folder": 6400,
      "Gulf": 6401,
      "Cre": 6402,
      "stret": 6403,
      "floods": 6404,
      "Kantipur": 6405,
      "lowing": 6406,
      "elements": 6407,
      "leng": 6408,
      "arrangement": 6409,
      "customary": 6410,
      "iles": 6411,
      "depr": 6412,
      "Chhe": 6413,
      "Mas": 6414,
      "shire": 6415,
      "struck": 6416,
      "ampions": 6417,
      "nolog": 6418,
      "crops": 6419,
      "Jones": 6420,
      "alliance": 6421,
      "risks": 6422,
      "recognition": 6423,
      "liberal": 6424,
      "transportation": 6425,
      "CEO": 6426,
      "fired": 6427,
      "aving": 6428,
      "sight": 6429,
      "promoting": 6430,
      "41": 6431,
      "misconduct": 6432,
      "whe": 6433,
      "poem": 6434,
      "worse": 6435,
      "Star": 6436,
      "Yog": 6437,
      "atin": 6438,
      "column": 6439,
      "extended": 6440,
      "ape": 6441,
      "tender": 6442,
      "remind": 6443,
      "implementing": 6444,
      "Article": 6445,
      "Govind": 6446,
      "upane": 6447,
      "surface": 6448,
      "Syria": 6449,
      "thick": 6450,
      "bery": 6451,
      "Sikkim": 6452,
      "Mit": 6453,
      "remit": 6454,
      "clash": 6455,
      "Bhutto": 6456,
      "wis": 6457,
      "wave": 6458,
      "araj": 6459,
      "camera": 6460,
      "sixth": 6461,
      "sand": 6462,
      "toler": 6463,
      "hap": 6464,
      "ulian": 6465,
      "helping": 6466,
      "involvement": 6467,
      "photos": 6468,
      "rival": 6469,
      "recru": 6470,
      "Myan": 6471,
      "separated": 6472,
      "flu": 6473,
      "appearance": 6474,
      "Profess": 6475,
      "allocated": 6476,
      "aces": 6477,
      "peak": 6478,
      "igned": 6479,
      "Use": 6480,
      "completing": 6481,
      "argued": 6482,
      "encourage": 6483,
      "strongly": 6484,
      "Madan": 6485,
      "ds": 6486,
      "perfect": 6487,
      "Exchange": 6488,
      "labour": 6489,
      "Along": 6490,
      "Radio": 6491,
      "Neupane": 6492,
      "capable": 6493,
      "Book": 6494,
      "Khas": 6495,
      "lie": 6496,
      "ibly": 6497,
      "DP": 6498,
      "furn": 6499,
      "expanded": 6500,
      "Mandal": 6501,
      "alle": 6502,
      "Barcel": 6503,
      "Tar": 6504,
      "ading": 6505,
      "agues": 6506,
      "oppos": 6507,
      "leges": 6508,
      "dangerous": 6509,
      "Ir": 6510,
      "irregular": 6511,
      "attraction": 6512,
      "batt": 6513,
      "mov": 6514,
      "smugg": 6515,
      "Ay": 6516,
      "elim": 6517,
      "weekend": 6518,
      "hane": 6519,
      "silver": 6520,
      "Han": 6521,
      "census": 6522,
      "prising": 6523,
      "supporting": 6524,
      "Regional": 6525,
      "Myanmar": 6526,
      "Barcelona": 6527,
      "borrow": 6528,
      "nutr": 6529,
      "fled": 6530,
      "gift": 6531,
      "preparation": 6532,
      "Centre": 6533,
      "narrow": 6534,
      "Sometimes": 6535,
      "reducing": 6536,
      "Texas": 6537,
      "images": 6538,
      "subsid": 6539,
      "constantly": 6540,
      "grants": 6541,
      "Shankar": 6542,
      "useful": 6543,
      "Reven": 6544,
      "cat": 6545,
      "newspapers": 6546,
      "Cult": 6547,
      "SO": 6548,
      "Prith": 6549,
      "Canada": 6550,
      "Premier": 6551,
      "predict": 6552,
      "deficit": 6553,
      "patri": 6554,
      "Buddhist": 6555,
      "herself": 6556,
      "Science": 6557,
      "chosen": 6558,
      "Perhaps": 6559,
      "lights": 6560,
      "devot": 6561,
      "matches": 6562,
      "resolve": 6563,
      "reporters": 6564,
      "enthusias": 6565,
      "arent": 6566,
      "Abu": 6567,
      "Kes": 6568,
      "emen": 6569,
      "Wall": 6570,
      "Shar": 6571,
      "passing": 6572,
      "storm": 6573,
      "Florida": 6574,
      "Lax": 6575,
      "Serv": 6576,
      "Airlines": 6577,
      "expectations": 6578,
      "acknowled": 6579,
      "tied": 6580,
      "medicine": 6581,
      "smoke": 6582,
      "AL": 6583,
      "haz": 6584,
      "moral": 6585,
      "Sunsari": 6586,
      "applic": 6587,
      "Los": 6588,
      "testers": 6589,
      "Wo": 6590,
      "Address": 6591,
      "breath": 6592,
      "testing": 6593,
      "Ker": 6594,
      "abdu": 6595,
      "slightly": 6596,
      "failing": 6597,
      "Highway": 6598,
      "Chic": 6599,
      "Peace": 6600,
      "truck": 6601,
      "Yet": 6602,
      "tower": 6603,
      "dif": 6604,
      "Reuters": 6605,
      "independence": 6606,
      "sem": 6607,
      "Nepalis": 6608,
      "Bais": 6609,
      "blue": 6610,
      "talked": 6611,
      "CD": 6612,
      "ticket": 6613,
      "assets": 6614,
      "invited": 6615,
      "blocked": 6616,
      "Ilam": 6617,
      "comments": 6618,
      "ails": 6619,
      "eli": 6620,
      "communist": 6621,
      "Journalists": 6622,
      "Rajbir": 6623,
      "AID": 6624,
      "Py": 6625,
      "ids": 6626,
      "oul": 6627,
      "urally": 6628,
      "ulg": 6629,
      "Mahato": 6630,
      "confused": 6631,
      "initiated": 6632,
      "stars": 6633,
      "territ": 6634,
      "DI": 6635,
      "mises": 6636,
      "partnership": 6637,
      "category": 6638,
      "sor": 6639,
      "rev": 6640,
      "notes": 6641,
      "Mahak": 6642,
      "fundamental": 6643,
      "Bhad": 6644,
      "Da": 6645,
      "libr": 6646,
      "intervention": 6647,
      "closure": 6648,
      "reputation": 6649,
      "jam": 6650,
      "multiple": 6651,
      "cher": 6652,
      "Richard": 6653,
      "Alex": 6654,
      "Kumari": 6655,
      "households": 6656,
      "Assist": 6657,
      "Rajbiraj": 6658,
      "Gol": 6659,
      "rein": 6660,
      "lift": 6661,
      "shortage": 6662,
      "onto": 6663,
      "pray": 6664,
      "cket": 6665,
      "seeds": 6666,
      "formula": 6667,
      "Argent": 6668,
      "kinds": 6669,
      "oring": 6670,
      "toile": 6671,
      "integrated": 6672,
      "iar": 6673,
      "zz": 6674,
      "agent": 6675,
      "colleges": 6676,
      "…………": 6677,
      "kilome": 6678,
      "convin": 6679,
      "akar": 6680,
      "declined": 6681,
      "deterior": 6682,
      "Shamsher": 6683,
      "Spain": 6684,
      "hect": 6685,
      "Though": 6686,
      "tenure": 6687,
      "premises": 6688,
      "dram": 6689,
      "Pacific": 6690,
      "regularly": 6691,
      "Judge": 6692,
      "kids": 6693,
      "Gar": 6694,
      "tank": 6695,
      "invested": 6696,
      "Ut": 6697,
      "insu": 6698,
      "discovered": 6699,
      "pointed": 6700,
      "Shahi": 6701,
      "Investment": 6702,
      "tact": 6703,
      "Prad": 6704,
      "Robert": 6705,
      "Gyanendra": 6706,
      "managing": 6707,
      "SAARC": 6708,
      "suspe": 6709,
      "poison": 6710,
      "collabor": 6711,
      "bench": 6712,
      "martyr": 6713,
      "itarian": 6714,
      "detailed": 6715,
      "convinced": 6716,
      "Vis": 6717,
      "modif": 6718,
      "finding": 6719,
      "propag": 6720,
      "adhyay": 6721,
      "pride": 6722,
      "Prince": 6723,
      "Associated": 6724,
      "enty": 6725,
      "Amend": 6726,
      "rebels": 6727,
      "virt": 6728,
      "conspir": 6729,
      "treas": 6730,
      "ads": 6731,
      "grass": 6732,
      "somewhere": 6733,
      "roleum": 6734,
      "Hindi": 6735,
      "negotiations": 6736,
      "Chicago": 6737,
      "accordingly": 6738,
      "establishing": 6739,
      "answered": 6740,
      "exhibition": 6741,
      "prize": 6742,
      "Armed": 6743,
      "Movement": 6744,
      "citing": 6745,
      "advertise": 6746,
      "tribes": 6747,
      "System": 6748,
      "Micro": 6749,
      "length": 6750,
      "Revenue": 6751,
      "deaths": 6752,
      "aughters": 6753,
      "afford": 6754,
      "Que": 6755,
      "ica": 6756,
      "planted": 6757,
      "stance": 6758,
      "displaced": 6759,
      "ords": 6760,
      "electronic": 6761,
      "ICC": 6762,
      "sect": 6763,
      "ensions": 6764,
      "visions": 6765,
      "deprived": 6766,
      "remitt": 6767,
      "56": 6768,
      "Den": 6769,
      "Farm": 6770,
      "resolution": 6771,
      "acharya": 6772,
      "judicial": 6773,
      "stall": 6774,
      "affairs": 6775,
      "blame": 6776,
      "servative": 6777,
      "Lou": 6778,
      "Span": 6779,
      "crimes": 6780,
      "ajaj": 6781,
      "Pashupati": 6782,
      "timely": 6783,
      "arendra": 6784,
      "widely": 6785,
      "Kailali": 6786,
      "holy": 6787,
      "collective": 6788,
      "Thomas": 6789,
      "prohib": 6790,
      "transl": 6791,
      "compete": 6792,
      "journalism": 6793,
      "investigating": 6794,
      "FI": 6795,
      "shmi": 6796,
      "largely": 6797,
      "default": 6798,
      "drafting": 6799,
      "Dil": 6800,
      "Rod": 6801,
      "Chris": 6802,
      "Services": 6803,
      "Test": 6804,
      "proud": 6805,
      "Copy": 6806,
      "UAE": 6807,
      "donor": 6808,
      "Nov": 6809,
      "attracted": 6810,
      "governor": 6811,
      "dete": 6812,
      "List": 6813,
      "bage": 6814,
      "apply": 6815,
      "Chhetri": 6816,
      "Oil": 6817,
      "chain": 6818,
      "younger": 6819,
      "criticized": 6820,
      "confirm": 6821,
      "contest": 6822,
      "procession": 6823,
      "autonom": 6824,
      "Bhag": 6825,
      "intendent": 6826,
      "welcomed": 6827,
      "shout": 6828,
      "margin": 6829,
      "Som": 6830,
      "Van": 6831,
      "bread": 6832,
      "uncomfortable": 6833,
      "Det": 6834,
      "GM": 6835,
      "ano": 6836,
      "ern": 6837,
      "iland": 6838,
      "connecting": 6839,
      "psych": 6840,
      "accus": 6841,
      "adeep": 6842,
      "Construction": 6843,
      "volunte": 6844,
      "Joseph": 6845,
      "controvers": 6846,
      "pieces": 6847,
      "deceased": 6848,
      "HIV": 6849,
      "realistic": 6850,
      "scheme": 6851,
      "Sidd": 6852,
      "shan": 6853,
      "Ok": 6854,
      "presents": 6855,
      "solar": 6856,
      "argument": 6857,
      "pound": 6858,
      "versy": 6859,
      "withstanding": 6860,
      "boost": 6861,
      "Islamic": 6862,
      "uration": 6863,
      "Ital": 6864,
      "targeted": 6865,
      "icles": 6866,
      "Lamich": 6867,
      "Limited": 6868,
      "Legisl": 6869,
      "entertainment": 6870,
      "robbery": 6871,
      "glim": 6872,
      "icon": 6873,
      "protecting": 6874,
      "objectives": 6875,
      "keeper": 6876,
      "allowing": 6877,
      "migrant": 6878,
      "Du": 6879,
      "retired": 6880,
      "daughters": 6881,
      "solute": 6882,
      "migrants": 6883,
      "Spanish": 6884,
      "Fam": 6885,
      "Gaj": 6886,
      "mortal": 6887,
      "feels": 6888,
      "church": 6889,
      "ruled": 6890,
      "maintaining": 6891,
      "Yan": 6892,
      "condem": 6893,
      "Planning": 6894,
      "Birendra": 6895,
      "Ali": 6896,
      "porter": 6897,
      "reliable": 6898,
      "Kingdom": 6899,
      "Bhoj": 6900,
      "Beng": 6901,
      "Cons": 6902,
      "pure": 6903,
      "ortion": 6904,
      "Ronal": 6905,
      "icking": 6906,
      "crying": 6907,
      "jit": 6908,
      "surrounding": 6909,
      "savings": 6910,
      "enemy": 6911,
      "delivery": 6912,
      "Never": 6913,
      "professor": 6914,
      "pond": 6915,
      "jay": 6916,
      "entity": 6917,
      "destru": 6918,
      "suggestions": 6919,
      "scientists": 6920,
      "\".": 6921,
      "stores": 6922,
      "communications": 6923,
      "Limbu": 6924,
      "helicopter": 6925,
      "Giulian": 6926,
      "suspected": 6927,
      "Ty": 6928,
      "united": 6929,
      "Girija": 6930,
      "Lamichhane": 6931,
      "aria": 6932,
      "tenance": 6933,
      "participants": 6934,
      "Upadhyay": 6935,
      "juris": 6936,
      "judges": 6937,
      "pill": 6938,
      "Color": 6939,
      "Angeles": 6940,
      "kne": 6941,
      "improving": 6942,
      "degree": 6943,
      "thereof": 6944,
      "controversy": 6945,
      "Corp": 6946,
      "fertiliz": 6947,
      "Chance": 6948,
      "Environment": 6949,
      "Political": 6950,
      "diversity": 6951,
      "coffee": 6952,
      "threatened": 6953,
      "rebel": 6954,
      "Gl": 6955,
      "Darje": 6956,
      "otic": 6957,
      "atha": 6958,
      "installed": 6959,
      "Dip": 6960,
      "agitation": 6961,
      "aimed": 6962,
      "tu": 6963,
      "igible": 6964,
      "Turk": 6965,
      "retirement": 6966,
      "Giuliani": 6967,
      "Israeli": 6968,
      "package": 6969,
      "Prithvi": 6970,
      "Mary": 6971,
      "Baghdad": 6972,
      "acks": 6973,
      "Christian": 6974,
      "Fol": 6975,
      "theless": 6976,
      "Secret": 6977,
      "Big": 6978,
      "Date": 6979,
      "Daily": 6980,
      "sport": 6981,
      "operator": 6982,
      "transaction": 6983,
      "impossible": 6984,
      "graphic": 6985,
      "encouraged": 6986,
      "organs": 6987,
      "rop": 6988,
      "procurement": 6989,
      "protesters": 6990,
      "Pradeep": 6991,
      "Dec": 6992,
      "significantly": 6993,
      "enthusiasm": 6994,
      "Narendra": 6995,
      "icks": 6996,
      "RPP": 6997,
      "nose": 6998,
      "deadline": 6999,
      "Darjeeling": 7000,
      "Pas": 7001,
      "Young": 7002,
      "ached": 7003,
      "Ra": 7004,
      "oj": 7005,
      "tan": 7006,
      "ellow": 7007,
      "Vari": 7008,
      "please": 7009,
      "Atl": 7010,
      "spl": 7011,
      "scattered": 7012,
      "analysts": 7013,
      "Italian": 7014,
      "noise": 7015,
      "dissatisfaction": 7016,
      "voting": 7017,
      "procedure": 7018,
      "museum": 7019,
      "150": 7020,
      "Phone": 7021,
      "qualification": 7022,
      "oblig": 7023,
      "AC": 7024,
      "Media": 7025,
      "Thailand": 7026,
      "recorded": 7027,
      "TM": 7028,
      "fro": 7029,
      "nin": 7030,
      "feelings": 7031,
      "causes": 7032,
      "imports": 7033,
      "shadow": 7034,
      "Mang": 7035,
      "Say": 7036,
      "dated": 7037,
      "ugu": 7038,
      "troub": 7039,
      "iy": 7040,
      "specially": 7041,
      "relevant": 7042,
      "Error": 7043,
      "estate": 7044,
      "expanding": 7045,
      "pilgr": 7046,
      "settled": 7047,
      "Agency": 7048,
      "Lef": 7049,
      "pris": 7050,
      "worldwide": 7051,
      "settlements": 7052,
      "Non": 7053,
      "rang": 7054,
      "arg": 7055,
      "uncertain": 7056,
      "quiet": 7057,
      "istani": 7058,
      "efficient": 7059,
      "elector": 7060,
      "traveling": 7061,
      "struggling": 7062,
      "Thakur": 7063,
      "Amendment": 7064,
      "58": 7065,
      "happening": 7066,
      "touched": 7067,
      "fan": 7068,
      "neck": 7069,
      "AF": 7070,
      "secondary": 7071,
      "inspired": 7072,
      "itect": 7073,
      "ears": 7074,
      "izon": 7075,
      "responded": 7076,
      "bat": 7077,
      "agan": 7078,
      "reforms": 7079,
      "goddess": 7080,
      "motiv": 7081,
      "fighters": 7082,
      "Mike": 7083,
      "insur": 7084,
      "fel": 7085,
      "flowing": 7086,
      "Arabia": 7087,
      "kitch": 7088,
      "creative": 7089,
      "authorized": 7090,
      "Maharaj": 7091,
      "Earth": 7092,
      "graphical": 7093,
      "evil": 7094,
      "Stu": 7095,
      "inspir": 7096,
      "stands": 7097,
      "attorney": 7098,
      "breast": 7099,
      "apping": 7100,
      "dedicated": 7101,
      "compulsion": 7102,
      "Rolpa": 7103,
      "familiar": 7104,
      "auda": 7105,
      "57": 7106,
      "Qatar": 7107,
      "Ruk": 7108,
      "Staff": 7109,
      "mayor": 7110,
      "tackle": 7111,
      "Control": 7112,
      "episode": 7113,
      "AIDS": 7114,
      "transactions": 7115,
      "Baza": 7116,
      "conciliation": 7117,
      "conver": 7118,
      "discussing": 7119,
      "apparent": 7120,
      "representing": 7121,
      "restruct": 7122,
      "absolute": 7123,
      "surge": 7124,
      "Donald": 7125,
      "Kashmir": 7126,
      "haven": 7127,
      "tric": 7128,
      "founder": 7129,
      "Bazaar": 7130,
      "Iow": 7131,
      "Wind": 7132,
      "chowk": 7133,
      "tears": 7134,
      "Ga": 7135,
      "''": 7136,
      "chester": 7137,
      "consent": 7138,
      "Region": 7139,
      "Hundred": 7140,
      "yn": 7141,
      "plenty": 7142,
      "mandatory": 7143,
      "Students": 7144,
      "allows": 7145,
      "Pakistani": 7146,
      "Philip": 7147,
      "symptoms": 7148,
      "athi": 7149,
      "Bagmati": 7150,
      "Ja": 7151,
      "aland": 7152,
      "illa": 7153,
      "Christmas": 7154,
      "bra": 7155,
      "garden": 7156,
      "securities": 7157,
      "Mahat": 7158,
      "collapse": 7159,
      "sim": 7160,
      "advoc": 7161,
      "commod": 7162,
      "moon": 7163,
      "warning": 7164,
      "Resident": 7165,
      "liked": 7166,
      "dio": 7167,
      "Thank": 7168,
      "Joint": 7169,
      "52": 7170,
      "sharing": 7171,
      "empower": 7172,
      "Trust": 7173,
      "eaten": 7174,
      "inate": 7175,
      "garbage": 7176,
      "Op": 7177,
      "lla": 7178,
      "Singha": 7179,
      "Notwithstanding": 7180,
      "photograph": 7181,
      "dozens": 7182,
      "Hall": 7183,
      "mous": 7184,
      "Officials": 7185,
      "effectively": 7186,
      "sleeping": 7187,
      "landslides": 7188,
      "Defense": 7189,
      "Fif": 7190,
      "Rob": 7191,
      "drow": 7192,
      "nav": 7193,
      "burning": 7194,
      "Liber": 7195,
      "refugees": 7196,
      "amid": 7197,
      "viewers": 7198,
      "jewel": 7199,
      "delayed": 7200,
      "adevi": 7201,
      "endum": 7202,
      "Dham": 7203,
      "krit": 7204,
      "rick": 7205,
      "igan": 7206,
      "Third": 7207,
      "adopt": 7208,
      "controversial": 7209,
      "Mahara": 7210,
      "representation": 7211,
      "Kapil": 7212,
      "Chancellor": 7213,
      "Tap": 7214,
      "welve": 7215,
      "remembered": 7216,
      "rehabilitation": 7217,
      "none": 7218,
      "ount": 7219,
      "factors": 7220,
      "osity": 7221,
      "Mexico": 7222,
      "resto": 7223,
      "Wil": 7224,
      "oo": 7225,
      "oppon": 7226,
      "Step": 7227,
      "clothing": 7228,
      "viewed": 7229,
      "Each": 7230,
      "Xi": 7231,
      "Community": 7232,
      "salt": 7233,
      "Vijay": 7234,
      "800": 7235,
      "Jim": 7236,
      "Boston": 7237,
      "cape": 7238,
      "welfare": 7239,
      "Bishnu": 7240,
      "gam": 7241,
      "theme": 7242,
      "ahari": 7243,
      "forgotten": 7244,
      "shame": 7245,
      "priest": 7246,
      "facts": 7247,
      "beliefs": 7248,
      "scar": 7249,
      "researchers": 7250,
      "khet": 7251,
      "tall": 7252,
      "iram": 7253,
      "tariff": 7254,
      "Economic": 7255,
      "CNN": 7256,
      "ideal": 7257,
      "contains": 7258,
      "printing": 7259,
      "hills": 7260,
      "schedule": 7261,
      "Mountain": 7262,
      "narr": 7263,
      "aiya": 7264,
      "consequ": 7265,
      "dele": 7266,
      "infection": 7267,
      "drivers": 7268,
      "generally": 7269,
      "channel": 7270,
      "Khati": 7271,
      "Left": 7272,
      "backed": 7273,
      "qualified": 7274,
      "plus": 7275,
      "glimpse": 7276,
      "ee": 7277,
      "euro": 7278,
      "presentation": 7279,
      "stones": 7280,
      "distribute": 7281,
      "soul": 7282,
      "forum": 7283,
      "indra": 7284,
      "Still": 7285,
      "decis": 7286,
      "Iowa": 7287,
      "Bin": 7288,
      "erved": 7289,
      "experiences": 7290,
      "referendum": 7291,
      "Short": 7292,
      "thinks": 7293,
      "massive": 7294,
      "Fri": 7295,
      "stayed": 7296,
      "strengthened": 7297,
      "Sanskrit": 7298,
      "tie": 7299,
      "ado": 7300,
      "torture": 7301,
      "Virginia": 7302,
      "66": 7303,
      "courty": 7304,
      "construct": 7305,
      "shape": 7306,
      "Vi": 7307,
      "moves": 7308,
      "partners": 7309,
      "operators": 7310,
      "iversary": 7311,
      "severe": 7312,
      "jurisdiction": 7313,
      "Gh": 7314,
      "maintenance": 7315,
      "polls": 7316,
      "efficiency": 7317,
      "railway": 7318,
      "Sou": 7319,
      "arayan": 7320,
      "aking": 7321,
      "atell": 7322,
      "firms": 7323,
      "colleagues": 7324,
      "Sure": 7325,
      "vocate": 7326,
      "contrary": 7327,
      "methods": 7328,
      "Kanchanpur": 7329,
      "Rice": 7330,
      "prospect": 7331,
      "usalem": 7332,
      "Must": 7333,
      "Otherwise": 7334,
      "Jerusalem": 7335,
      "BI": 7336,
      "entit": 7337,
      "disappeared": 7338,
      "iew": 7339,
      "passenger": 7340,
      "meantime": 7341,
      "AD": 7342,
      "pension": 7343,
      "chap": 7344,
      "lick": 7345,
      "Recent": 7346,
      "continuing": 7347,
      "taste": 7348,
      "promoted": 7349,
      "Ver": 7350,
      "fought": 7351,
      "postpon": 7352,
      "spokesperson": 7353,
      "Sav": 7354,
      "core": 7355,
      "intense": 7356,
      "SLC": 7357,
      "gang": 7358,
      "Love": 7359,
      "bills": 7360,
      "Madrid": 7361,
      "Dalits": 7362,
      "Tuls": 7363,
      "zed": 7364,
      "indicated": 7365,
      "amounts": 7366,
      "tool": 7367,
      "associ": 7368,
      "Priv": 7369,
      "Frank": 7370,
      "Peter": 7371,
      "Khal": 7372,
      "iders": 7373,
      "pushed": 7374,
      "immigration": 7375,
      "noted": 7376,
      "publicity": 7377,
      "closely": 7378,
      "flex": 7379,
      "Maharjan": 7380,
      "Rap": 7381,
      "hen": 7382,
      "escape": 7383,
      "shif": 7384,
      "polis": 7385,
      "subjects": 7386,
      "aspir": 7387,
      "Tube": 7388,
      "Ak": 7389,
      "Bid": 7390,
      "Path": 7391,
      "bless": 7392,
      "cooperative": 7393,
      "transparent": 7394,
      "engineer": 7395,
      "Rud": 7396,
      "unt": 7397,
      "cease": 7398,
      "akha": 7399,
      "activist": 7400,
      "dominated": 7401,
      "meaningful": 7402,
      "wada": 7403,
      "unk": 7404,
      "prefer": 7405,
      "chaired": 7406,
      "Na": 7407,
      "mainstream": 7408,
      "guest": 7409,
      "technolog": 7410,
      "festivals": 7411,
      "climbing": 7412,
      "Parajuli": 7413,
      "electoral": 7414,
      "Mult": 7415,
      "Nawal": 7416,
      "directory": 7417,
      "tickets": 7418,
      "hola": 7419,
      "publishing": 7420,
      "Williams": 7421,
      "anath": 7422,
      "trig": 7423,
      "ull": 7424,
      "enterpr": 7425,
      "Surkhet": 7426,
      "Superintendent": 7427,
      "Falgun": 7428,
      "counts": 7429,
      "equality": 7430,
      "favorite": 7431,
      "touchdown": 7432,
      "Martin": 7433,
      "Rupande": 7434,
      "forever": 7435,
      "exactly": 7436,
      "Het": 7437,
      "Pant": 7438,
      "Rav": 7439,
      "bell": 7440,
      "veter": 7441,
      "plate": 7442,
      "wouldn": 7443,
      "fruits": 7444,
      "Rupandehi": 7445,
      "lected": 7446,
      "arti": 7447,
      "buff": 7448,
      "wana": 7449,
      "iri": 7450,
      "ailed": 7451,
      "Clause": 7452,
      "initiatives": 7453,
      "sanitation": 7454,
      "Talking": 7455,
      "Men": 7456,
      "adverse": 7457,
      "anniversary": 7458,
      "staying": 7459,
      "graduate": 7460,
      "vat": 7461,
      "purposes": 7462,
      "transmission": 7463,
      "percentage": 7464,
      "numer": 7465,
      "laid": 7466,
      "promulg": 7467,
      "valu": 7468,
      "bin": 7469,
      "farmer": 7470,
      "sees": 7471,
      "unknown": 7472,
      "rath": 7473,
      "larger": 7474,
      "cuit": 7475,
      "attract": 7476,
      "Locals": 7477,
      "?'": 7478,
      "NF": 7479,
      "Swit": 7480,
      "Carol": 7481,
      "pipe": 7482,
      "neighbors": 7483,
      "fre": 7484,
      "eration": 7485,
      "ibr": 7486,
      "heaven": 7487,
      "mistakes": 7488,
      "kitchen": 7489,
      "62": 7490,
      "sole": 7491,
      "castes": 7492,
      "inspection": 7493,
      "rum": 7494,
      "dep": 7495,
      "interim": 7496,
      "advanced": 7497,
      "judiciary": 7498,
      "delegation": 7499,
      "600": 7500,
      "config": 7501,
      "starts": 7502,
      "Leader": 7503,
      "slog": 7504,
      "enh": 7505,
      "articles": 7506,
      "Class": 7507,
      "lawyers": 7508,
      "thirty": 7509,
      "talent": 7510,
      "innocent": 7511,
      "Bet": 7512,
      "Body": 7513,
      "posted": 7514,
      "leads": 7515,
      "obstru": 7516,
      "Australian": 7517,
      "embassy": 7518,
      "strengthening": 7519,
      "wickets": 7520,
      "button": 7521,
      "restaurants": 7522,
      "Chamber": 7523,
      "eighth": 7524,
      "wed": 7525,
      "visitors": 7526,
      "rebell": 7527,
      "legislation": 7528,
      "accompl": 7529,
      "cuts": 7530,
      "applied": 7531,
      "Prem": 7532,
      "jack": 7533,
      "51": 7534,
      "forests": 7535,
      "actual": 7536,
      "crack": 7537,
      "horse": 7538,
      "extremely": 7539,
      "kilometers": 7540,
      "900": 7541,
      "Prote": 7542,
      "burnt": 7543,
      "conspiracy": 7544,
      "restructuring": 7545,
      "Sand": 7546,
      "Mayor": 7547,
      "designated": 7548,
      "Zealand": 7549,
      "Nat": 7550,
      "cf": 7551,
      "finger": 7552,
      "loud": 7553,
      "worst": 7554,
      "Through": 7555,
      "Head": 7556,
      "broker": 7557,
      "proposals": 7558,
      "delivered": 7559,
      "rebellion": 7560,
      "renow": 7561,
      "stations": 7562,
      "53": 7563,
      "Patan": 7564,
      "Vo": 7565,
      "excited": 7566,
      "pson": 7567,
      "yog": 7568,
      "assu": 7569,
      "coast": 7570,
      "decisive": 7571,
      "!\"": 7572,
      "fold": 7573,
      "kot": 7574,
      "expl": 7575,
      "producers": 7576,
      "Conservation": 7577,
      "passport": 7578,
      "courtyard": 7579,
      "7glass": 7580,
      "negl": 7581,
      "Sovi": 7582,
      "Baral": 7583,
      "institute": 7584,
      "Republicans": 7585,
      "prisoners": 7586,
      "................................": 7587,
      "stakeholders": 7588,
      "250": 7589,
      "perspect": 7590,
      "headed": 7591,
      "abababababababababababababababababababababababababababababababab": 7592,
      "Hen": 7593,
      "cott": 7594,
      "ahi": 7595,
      "fas": 7596,
      "estimates": 7597,
      "conclusion": 7598,
      "pretty": 7599,
      "Dubai": 7600,
      "aggressive": 7601,
      "optim": 7602,
      "Best": 7603,
      "ulations": 7604,
      "Lee": 7605,
      "vacant": 7606,
      "library": 7607,
      "Pradesh": 7608,
      "slogans": 7609,
      "LE": 7610,
      "inian": 7611,
      "nationality": 7612,
      "seconds": 7613,
      "profile": 7614,
      "Surya": 7615,
      "Rupees": 7616,
      "resource": 7617,
      "petition": 7618,
      "opposite": 7619,
      "endar": 7620,
      "ordan": 7621,
      "Champion": 7622,
      "architect": 7623,
      "acceler": 7624,
      "obligation": 7625,
      "Dinesh": 7626,
      "Vaid": 7627,
      "Manchester": 7628,
      "dogs": 7629,
      "deposit": 7630,
      "engaged": 7631,
      "bigger": 7632,
      "Stock": 7633,
      "Various": 7634,
      "85": 7635,
      "Rat": 7636,
      "ulum": 7637,
      "readers": 7638,
      "musical": 7639,
      "reasonable": 7640,
      "commander": 7641,
      "Bihar": 7642,
      "scoring": 7643,
      "oles": 7644,
      "ahat": 7645,
      "buried": 7646,
      "applications": 7647,
      "acquis": 7648,
      "Turkish": 7649,
      "isha": 7650,
      "ache": 7651,
      "actors": 7652,
      "publicly": 7653,
      "legit": 7654,
      "Lake": 7655,
      "etime": 7656,
      "discipline": 7657,
      "hectares": 7658,
      "assa": 7659,
      "etary": 7660,
      "sentence": 7661,
      "motorcycle": 7662,
      "dynam": 7663,
      "disappointed": 7664,
      "premi": 7665,
      "servant": 7666,
      "prosperous": 7667,
      "collapsed": 7668,
      "Nam": 7669,
      "Dhank": 7670,
      "smuggling": 7671,
      "enforce": 7672,
      "internet": 7673,
      "holds": 7674,
      "funding": 7675,
      "questioned": 7676,
      "contribute": 7677,
      "slowly": 7678,
      "yar": 7679,
      "abund": 7680,
      "disorder": 7681,
      "precedented": 7682,
      "Khatiwada": 7683,
      "atab": 7684,
      "oret": 7685,
      "desc": 7686,
      "purchased": 7687,
      "captured": 7688,
      "Zonal": 7689,
      "rh": 7690,
      "finish": 7691,
      "backward": 7692,
      "sacrific": 7693,
      "Customs": 7694,
      "renowned": 7695,
      "marry": 7696,
      "unfortun": 7697,
      "consecut": 7698,
      "Indra": 7699,
      "integrity": 7700,
      "closing": 7701,
      "accidents": 7702,
      "tribe": 7703,
      "unusual": 7704,
      "marked": 7705,
      "investing": 7706,
      "shock": 7707,
      "Cannot": 7708,
      "island": 7709,
      "chick": 7710,
      "supposed": 7711,
      "contrad": 7712,
      "relatively": 7713,
      "destruction": 7714,
      "Hist": 7715,
      "MS": 7716,
      "kin": 7717,
      "nath": 7718,
      "realized": 7719,
      "municipalities": 7720,
      "Spo": 7721,
      "lucky": 7722,
      "constitu": 7723,
      "organize": 7724,
      "weapon": 7725,
      "stretch": 7726,
      "displayed": 7727,
      "organizing": 7728,
      "cells": 7729,
      "Louis": 7730,
      "postponed": 7731,
      "tock": 7732,
      "abad": 7733,
      "likes": 7734,
      "buses": 7735,
      "Workers": 7736,
      "terrorists": 7737,
      "Heritage": 7738,
      "congrat": 7739,
      "betes": 7740,
      "equival": 7741,
      "smaller": 7742,
      "Dhang": 7743,
      "parking": 7744,
      "Dhad": 7745,
      "Eli": 7746,
      "Kol": 7747,
      "agents": 7748,
      "ario": 7749,
      "passes": 7750,
      "videos": 7751,
      "aining": 7752,
      "challenging": 7753,
      "faction": 7754,
      "intended": 7755,
      "Franc": 7756,
      "trafficking": 7757,
      "lting": 7758,
      "carbon": 7759,
      "Edwards": 7760,
      "laughing": 7761,
      "Governor": 7762,
      "Aud": 7763,
      "string": 7764,
      "Cho": 7765,
      "Soviet": 7766,
      "Qual": 7767,
      "models": 7768,
      "Treas": 7769,
      "arrival": 7770,
      "Banke": 7771,
      "cfm": 7772,
      "consecutive": 7773,
      "yl": 7774,
      "Init": 7775,
      "boat": 7776,
      "increasingly": 7777,
      "decrease": 7778,
      "enhance": 7779,
      "Est": 7780,
      "sung": 7781,
      "assured": 7782,
      "unprecedented": 7783,
      "Securities": 7784,
      "Bara": 7785,
      "Messi": 7786,
      "Lic": 7787,
      "PC": 7788,
      "oms": 7789,
      "acre": 7790,
      "contemporary": 7791,
      "astro": 7792,
      "Hel": 7793,
      "generated": 7794,
      "grown": 7795,
      "Marx": 7796,
      "extend": 7797,
      "drew": 7798,
      "Relating": 7799,
      "Professor": 7800,
      "Jordan": 7801,
      "Os": 7802,
      "igare": 7803,
      "medal": 7804,
      "continent": 7805,
      "factor": 7806,
      "principal": 7807,
      "Hetauda": 7808,
      "\",": 7809,
      "kno": 7810,
      "amaz": 7811,
      "searching": 7812,
      "Communication": 7813,
      "Thompson": 7814,
      "bureau": 7815,
      "tong": 7816,
      "Aviation": 7817,
      "Siraha": 7818,
      "hide": 7819,
      "auction": 7820,
      "interaction": 7821,
      "sheet": 7822,
      "ride": 7823,
      "openly": 7824,
      "spokeswoman": 7825,
      "Tax": 7826,
      "guns": 7827,
      "ero": 7828,
      "emerged": 7829,
      "Mu": 7830,
      "Num": 7831,
      "eted": 7832,
      "provider": 7833,
      "rainfall": 7834,
      "surrounded": 7835,
      "acknowledged": 7836,
      "Mish": 7837,
      "din": 7838,
      "founded": 7839,
      "burned": 7840,
      "spreading": 7841,
      "entitled": 7842,
      "Francis": 7843,
      "Mass": 7844,
      "pressing": 7845,
      "scotsman": 7846,
      "Microsoft": 7847,
      "Bhojpur": 7848,
      "Bes": 7849,
      "Nath": 7850,
      "worry": 7851,
      "calm": 7852,
      "lawmaker": 7853,
      "Memorial": 7854,
      "properties": 7855,
      "pulled": 7856,
      "NEW": 7857,
      "Top": 7858,
      "liance": 7859,
      "prelim": 7860,
      "hani": 7861,
      "Finally": 7862,
      "Supp": 7863,
      "explained": 7864,
      "Repor": 7865,
      "Appe": 7866,
      "Lakshmi": 7867,
      "Secretariat": 7868,
      "Entre": 7869,
      "Engine": 7870,
      "Chel": 7871,
      "Jumla": 7872,
      "cattle": 7873,
      "fant": 7874,
      "beating": 7875,
      "metropolis": 7876,
      "preliminary": 7877,
      "MA": 7878,
      "recalled": 7879,
      "ils": 7880,
      "brings": 7881,
      "hungry": 7882,
      "77": 7883,
      "tiger": 7884,
      "wage": 7885,
      "permit": 7886,
      "donors": 7887,
      "inflation": 7888,
      "pattern": 7889,
      "Entreprene": 7890,
      "Pu": 7891,
      "Vol": 7892,
      "profits": 7893,
      "ception": 7894,
      "favorable": 7895,
      "Palestinian": 7896,
      "wheel": 7897,
      "Games": 7898,
      "Viet": 7899,
      "operatives": 7900,
      "Arjun": 7901,
      "holder": 7902,
      "Auto": 7903,
      "Grand": 7904,
      "dictator": 7905,
      "integration": 7906,
      "ME": 7907,
      "childhood": 7908,
      "Old": 7909,
      "vernight": 7910,
      "reaches": 7911,
      "Chait": 7912,
      "nationwide": 7913,
      "devices": 7914,
      "eda": 7915,
      "nels": 7916,
      "minds": 7917,
      "exploitation": 7918,
      "Hydro": 7919,
      "sovereignty": 7920,
      "Has": 7921,
      "rescu": 7922,
      "Baisakh": 7923,
      "Gal": 7924,
      "Ha": 7925,
      "Haw": 7926,
      "icing": 7927,
      "processing": 7928,
      "Pandit": 7929,
      "juice": 7930,
      "insist": 7931,
      "Ret": 7932,
      "cotsman": 7933,
      "thescotsman": 7934,
      "praised": 7935,
      "Long": 7936,
      "iPhone": 7937,
      "Shyam": 7938,
      "returns": 7939,
      "Immediate": 7940,
      "fier": 7941,
      "Arun": 7942,
      "harmony": 7943,
      "guards": 7944,
      "riculum": 7945,
      "grounds": 7946,
      "glory": 7947,
      "Ka": 7948,
      "praise": 7949,
      "satell": 7950,
      "thro": 7951,
      "debut": 7952,
      "encing": 7953,
      "interrup": 7954,
      "Assistant": 7955,
      "Pau": 7956,
      "waves": 7957,
      "missions": 7958,
      "Durga": 7959,
      "achievements": 7960,
      "irregularities": 7961,
      "Come": 7962,
      "sme": 7963,
      "Revolution": 7964,
      "Pa": 7965,
      "Sho": 7966,
      "plot": 7967,
      "Northern": 7968,
      "crop": 7969,
      "Mahakali": 7970,
      "opol": 7971,
      "Maha": 7972,
      "advent": 7973,
      "goats": 7974,
      "Prom": 7975,
      "donation": 7976,
      "successfully": 7977,
      "difficulties": 7978,
      "suspension": 7979,
      "Palpa": 7980,
      "Secondary": 7981,
      "Cross": 7982,
      "Jon": 7983,
      "depends": 7984,
      "civilization": 7985,
      "geographical": 7986,
      "Legislature": 7987,
      "tered": 7988,
      "reader": 7989,
      "addressing": 7990,
      "Telecom": 7991,
      "54": 7992,
      "Hor": 7993,
      "vul": 7994,
      "lore": 7995,
      "grees": 7996,
      "jection": 7997,
      "Muslims": 7998,
      "Sadbha": 7999,
      "Ward": 8000,
      "stadium": 8001,
      "certificates": 8002,
      "Sund": 8003,
      "ander": 8004,
      "Prat": 8005,
      "myster": 8006,
      "Music": 8007,
      "engineering": 8008,
      "Get": 8009,
      "theast": 8010,
      "diag": 8011,
      "obvious": 8012,
      "handle": 8013,
      "ortions": 8014,
      "Bhairaha": 8015,
      "climbed": 8016,
      "revolutionary": 8017,
      "Queen": 8018,
      "vraj": 8019,
      "incorporate": 8020,
      "keys": 8021,
      "combat": 8022,
      "equivalent": 8023,
      "description": 8024,
      "responsibilities": 8025,
      "excav": 8026,
      "quoted": 8027,
      "batter": 8028,
      "hash": 8029,
      "Naray": 8030,
      "Bollywood": 8031,
      "Dhading": 8032,
      "82": 8033,
      "Mun": 8034,
      "tent": 8035,
      "2010": 8036,
      "Hem": 8037,
      "Policy": 8038,
      "virus": 8039,
      "branches": 8040,
      "weaknesses": 8041,
      "Film": 8042,
      "Vietnam": 8043,
      "67": 8044,
      "borders": 8045,
      "upal": 8046,
      "element": 8047,
      "Dharm": 8048,
      "wildlife": 8049,
      "territory": 8050,
      "Yanke": 8051,
      "Sadbhawana": 8052,
      "innings": 8053,
      "Unable": 8054,
      "devast": 8055,
      "Fest": 8056,
      "harass": 8057,
      "scandal": 8058,
      "punished": 8059,
      "surprise": 8060,
      "inaugurated": 8061,
      "Vict": 8062,
      "gers": 8063,
      "tribut": 8064,
      "visa": 8065,
      "examples": 8066,
      "petroleum": 8067,
      "bags": 8068,
      "Gazette": 8069,
      "jewelry": 8070,
      "rat": 8071,
      "andum": 8072,
      "compon": 8073,
      "iban": 8074,
      "Hollywood": 8075,
      "lifest": 8076,
      "apolog": 8077,
      "dones": 8078,
      "magazines": 8079,
      "Scottish": 8080,
      "Id": 8081,
      "Pen": 8082,
      "Sign": 8083,
      "ville": 8084,
      "Online": 8085,
      "tested": 8086,
      "shoes": 8087,
      "emphasis": 8088,
      "Twenty": 8089,
      "Wild": 8090,
      "iny": 8091,
      "Indones": 8092,
      "eligible": 8093,
      "shortly": 8094,
      "Bhairahawa": 8095,
      "Mi": 8096,
      "Save": 8097,
      "frag": 8098,
      "underground": 8099,
      "Bardi": 8100,
      "circle": 8101,
      "resignation": 8102,
      "minority": 8103,
      "fellow": 8104,
      "credi": 8105,
      "receip": 8106,
      "Farmers": 8107,
      "organizer": 8108,
      "heading": 8109,
      "universities": 8110,
      "Kavre": 8111,
      "Mishra": 8112,
      "Mich": 8113,
      "unnecessary": 8114,
      "substant": 8115,
      "Trip": 8116,
      "proportional": 8117,
      "Gaur": 8118,
      "remun": 8119,
      "Immediately": 8120,
      "item": 8121,
      "colors": 8122,
      "considers": 8123,
      "agitating": 8124,
      "Jung": 8125,
      "Lah": 8126,
      "PS": 8127,
      "bask": 8128,
      "encement": 8129,
      "picked": 8130,
      "assessment": 8131,
      "Ronaldo": 8132,
      "eva": 8133,
      "solved": 8134,
      "fifty": 8135,
      "2019": 8136,
      "crucial": 8137,
      "Charles": 8138,
      "Fur": 8139,
      "bone": 8140,
      "sort": 8141,
      "adj": 8142,
      "causing": 8143,
      "Employees": 8144,
      "Vas": 8145,
      "overnight": 8146,
      "strange": 8147,
      "networks": 8148,
      "Mother": 8149,
      "yes": 8150,
      "consultation": 8151,
      "broadcasting": 8152,
      "correspondent": 8153,
      "tunnel": 8154,
      "Putin": 8155,
      "RI": 8156,
      "amending": 8157,
      "los": 8158,
      "Stadium": 8159,
      "venture": 8160,
      "frustrated": 8161,
      "excessive": 8162,
      "Welfare": 8163,
      "Kan": 8164,
      "SS": 8165,
      "ience": 8166,
      "oma": 8167,
      "shopping": 8168,
      "wang": 8169,
      "degrees": 8170,
      "feud": 8171,
      "Champions": 8172,
      "investments": 8173,
      "zing": 8174,
      "departure": 8175,
      "triya": 8176,
      "demonstration": 8177,
      "Words": 8178,
      "cigare": 8179,
      "Prab": 8180,
      "finals": 8181,
      "cycl": 8182,
      "feas": 8183,
      "Indians": 8184,
      "Guthi": 8185,
      "Hillary": 8186,
      "Dhankuta": 8187,
      "shir": 8188,
      "instance": 8189,
      "cow": 8190,
      "Neither": 8191,
      "difficulty": 8192,
      "dreams": 8193,
      "Argentina": 8194,
      "cean": 8195,
      "Khatri": 8196,
      "MW": 8197,
      "”.": 8198,
      "ller": 8199,
      "contractors": 8200,
      "audio": 8201,
      "voted": 8202,
      "pregnant": 8203,
      "Ish": 8204,
      "TH": 8205,
      "adays": 8206,
      "reland": 8207,
      "Conne": 8208,
      "jointly": 8209,
      "folklore": 8210,
      "abandoned": 8211,
      "Moses": 8212,
      "capture": 8213,
      "convicted": 8214,
      "teeth": 8215,
      "Chelsea": 8216,
      "Pet": 8217,
      "naked": 8218,
      "exports": 8219,
      "interpret": 8220,
      "scow": 8221,
      "semif": 8222,
      "remuneration": 8223,
      "caut": 8224,
      "mour": 8225,
      "twelve": 8226,
      "enders": 8227,
      "curi": 8228,
      "visible": 8229,
      "Saras": 8230,
      "Georg": 8231,
      "walls": 8232,
      "Consumer": 8233,
      "Ireland": 8234,
      "Upend": 8235,
      "amended": 8236,
      "signature": 8237,
      "directors": 8238,
      "appointing": 8239,
      "naturally": 8240,
      "Socialist": 8241,
      "Yuvraj": 8242,
      "ique": 8243,
      "endors": 8244,
      "Chan": 8245,
      "Spokes": 8246,
      "Bis": 8247,
      "gap": 8248,
      "wins": 8249,
      "reaction": 8250,
      "dismiss": 8251,
      "spiritual": 8252,
      "Copyright": 8253,
      "ae": 8254,
      "roots": 8255,
      "asks": 8256,
      "iveness": 8257,
      "Romney": 8258,
      "wine": 8259,
      "illegally": 8260,
      "cot": 8261,
      "ministries": 8262,
      "Employment": 8263,
      "Following": 8264,
      "Bhan": 8265,
      "accessible": 8266,
      "SCO": 8267,
      "Nevertheless": 8268,
      "63": 8269,
      "Til": 8270,
      "angers": 8271,
      "upta": 8272,
      "intent": 8273,
      "1999": 8274,
      "trail": 8275,
      "Liter": 8276,
      "Mand": 8277,
      "gall": 8278,
      "tam": 8279,
      "upset": 8280,
      "inclusive": 8281,
      "historic": 8282,
      "nomination": 8283,
      "ec": 8284,
      "claiming": 8285,
      "sadness": 8286,
      "Blue": 8287,
      "68": 8288,
      "Gang": 8289,
      "Um": 8290,
      "itable": 8291,
      "icked": 8292,
      "Attor": 8293,
      "Leban": 8294,
      "72": 8295,
      "Back": 8296,
      "trapped": 8297,
      "merger": 8298,
      "Exper": 8299,
      "fears": 8300,
      "scholars": 8301,
      "yellow": 8302,
      "amond": 8303,
      "teenagers": 8304,
      "Vaidya": 8305,
      "output": 8306,
      "usted": 8307,
      "joining": 8308,
      "هههههههه": 8309,
      "FIFA": 8310,
      "pher": 8311,
      "Moscow": 8312,
      "reporting": 8313,
      "Leaders": 8314,
      "eral": 8315,
      "tex": 8316,
      "parasi": 8317,
      "realize": 8318,
      "extension": 8319,
      "Sea": 8320,
      "writes": 8321,
      "payments": 8322,
      "bullet": 8323,
      "Az": 8324,
      "anyway": 8325,
      "Max": 8326,
      "aski": 8327,
      "Look": 8328,
      "defined": 8329,
      "curiosity": 8330,
      "tang": 8331,
      "kings": 8332,
      "grams": 8333,
      "Private": 8334,
      "Kish": 8335,
      "Sank": 8336,
      "reconciliation": 8337,
      "enhan": 8338,
      "postal": 8339,
      "aims": 8340,
      "Guru": 8341,
      "pushing": 8342,
      "shelter": 8343,
      "consequences": 8344,
      "MC": 8345,
      "enjo": 8346,
      "monsoon": 8347,
      "YouTube": 8348,
      "reduction": 8349,
      "statue": 8350,
      "criminals": 8351,
      "continuous": 8352,
      "wakot": 8353,
      "diabetes": 8354,
      "prisonment": 8355,
      "tag": 8356,
      "det": 8357,
      "illness": 8358,
      "attitude": 8359,
      "gains": 8360,
      "Samvat": 8361,
      "grandfather": 8362,
      "Especially": 8363,
      "eds": 8364,
      "competitions": 8365,
      "clubs": 8366,
      "Iranian": 8367,
      "quantities": 8368,
      "announce": 8369,
      "approx": 8370,
      "favour": 8371,
      "Sudan": 8372,
      "intercourse": 8373,
      "Small": 8374,
      "Keshav": 8375,
      "Recently": 8376,
      "Nawalparasi": 8377,
      "imprisonment": 8378,
      "surve": 8379,
      "Drug": 8380,
      "involving": 8381,
      "61": 8382,
      "Jeff": 8383,
      "Chang": 8384,
      "Prize": 8385,
      "Cir": 8386,
      "Father": 8387,
      "ourselves": 8388,
      "tonnes": 8389,
      "ipped": 8390,
      "driven": 8391,
      "guests": 8392,
      "flower": 8393,
      "ignored": 8394,
      "blow": 8395,
      "yang": 8396,
      "accompan": 8397,
      "tral": 8398,
      "badly": 8399,
      "URCE": 8400,
      "Uttar": 8401,
      "dil": 8402,
      "threw": 8403,
      "devote": 8404,
      "email": 8405,
      "riers": 8406,
      "Manang": 8407,
      "wanpur": 8408,
      "tongue": 8409,
      "Work": 8410,
      "SOURCE": 8411,
      "Ta": 8412,
      "pages": 8413,
      "formally": 8414,
      "calendar": 8415,
      "flat": 8416,
      "Cra": 8417,
      "Cert": 8418,
      "closer": 8419,
      "bitr": 8420,
      "Relations": 8421,
      "lux": 8422,
      "Ill": 8423,
      "bicy": 8424,
      "honey": 8425,
      "turning": 8426,
      "targeting": 8427,
      "ciences": 8428,
      "invent": 8429,
      "explosion": 8430,
      "locked": 8431,
      "apt": 8432,
      "Bhu": 8433,
      "Sang": 8434,
      "conservative": 8435,
      "abil": 8436,
      "popularity": 8437,
      "routes": 8438,
      "abul": 8439,
      "heroine": 8440,
      "Swed": 8441,
      "argue": 8442,
      "Dor": 8443,
      "sque": 8444,
      "thrown": 8445,
      "plement": 8446,
      "Phys": 8447,
      "golden": 8448,
      "loaded": 8449,
      "exceeding": 8450,
      "descend": 8451,
      "vulner": 8452,
      "lifestyle": 8453,
      "authen": 8454,
      "petrol": 8455,
      "tap": 8456,
      "’.": 8457,
      "concess": 8458,
      "vised": 8459,
      "weekly": 8460,
      "feeding": 8461,
      "jury": 8462,
      "rec": 8463,
      "emissions": 8464,
      "otang": 8465,
      "thanks": 8466,
      "ninth": 8467,
      "oured": 8468,
      "uma": 8469,
      "Koshi": 8470,
      "enez": 8471,
      "Judah": 8472,
      "ceasefire": 8473,
      "Festival": 8474,
      "aced": 8475,
      "thirds": 8476,
      "hoping": 8477,
      "William": 8478,
      "demolished": 8479,
      "Bam": 8480,
      "Rab": 8481,
      "Tik": 8482,
      "oter": 8483,
      "thar": 8484,
      "covery": 8485,
      "distortions": 8486,
      "Taliban": 8487,
      "elephant": 8488,
      "Championship": 8489,
      "Dhangadhi": 8490,
      "Fun": 8491,
      "Mail": 8492,
      "asty": 8493,
      "mining": 8494,
      "membership": 8495,
      "witter": 8496,
      "crossing": 8497,
      "sprink": 8498,
      "complicated": 8499,
      "accompanied": 8500,
      "Tot": 8501,
      "2011": 8502,
      "organis": 8503,
      "Nas": 8504,
      "Manager": 8505,
      "traded": 8506,
      "climb": 8507,
      "Dem": 8508,
      "Have": 8509,
      "hai": 8510,
      "Chak": 8511,
      "Coordination": 8512,
      "emphasized": 8513,
      "lobby": 8514,
      "stuff": 8515,
      "convenience": 8516,
      "Si": 8517,
      "TON": 8518,
      "curriculum": 8519,
      "2014": 8520,
      "taxi": 8521,
      "volume": 8522,
      "Labour": 8523,
      "nutrition": 8524,
      "Fed": 8525,
      "JP": 8526,
      "Pop": 8527,
      "egg": 8528,
      "burgh": 8529,
      "mobilized": 8530,
      "Pass": 8531,
      "apart": 8532,
      "covers": 8533,
      "awak": 8534,
      "engineers": 8535,
      "hole": 8536,
      "recovery": 8537,
      "Thousands": 8538,
      "Attorney": 8539,
      "Gree": 8540,
      "asts": 8541,
      "disas": 8542,
      "Abd": 8543,
      "App": 8544,
      "lan": 8545,
      "urved": 8546,
      "targets": 8547,
      "Ashok": 8548,
      "Based": 8549,
      "vv": 8550,
      "spark": 8551,
      "invitation": 8552,
      "menu": 8553,
      "definition": 8554,
      "storage": 8555,
      "fertilizers": 8556,
      "Initially": 8557,
      "Broad": 8558,
      "Lev": 8559,
      "rati": 8560,
      "tools": 8561,
      "stro": 8562,
      "impe": 8563,
      "iraj": 8564,
      "uresh": 8565,
      "Working": 8566,
      "sanctions": 8567,
      "acquired": 8568,
      "imagination": 8569,
      "pregnancy": 8570,
      "Brahmin": 8571,
      "95": 8572,
      "framed": 8573,
      "render": 8574,
      "tingu": 8575,
      "granted": 8576,
      "remittance": 8577,
      "Jh": 8578,
      "LO": 8579,
      "Sus": 8580,
      "gro": 8581,
      "whel": 8582,
      "Princ": 8583,
      "Rajesh": 8584,
      "acceptable": 8585,
      "Hus": 8586,
      "escap": 8587,
      "issuing": 8588,
      "USA": 8589,
      "Sapkota": 8590,
      "checked": 8591,
      "seeks": 8592,
      "lifetime": 8593,
      "shutdown": 8594,
      "diagno": 8595,
      "Bob": 8596,
      "Dut": 8597,
      "Yam": 8598,
      "Click": 8599,
      "uations": 8600,
      "sty": 8601,
      "sheep": 8602,
      "TA": 8603,
      "replaced": 8604,
      "ikot": 8605,
      "consumed": 8606,
      "critics": 8607,
      "Bengal": 8608,
      "Great": 8609,
      "Rad": 8610,
      "vous": 8611,
      "yield": 8612,
      "Meeting": 8613,
      "rog": 8614,
      "unexpected": 8615,
      "placing": 8616,
      "Compet": 8617,
      "devotion": 8618,
      "Ncell": 8619,
      "kn": 8620,
      "antly": 8621,
      "cribe": 8622,
      "respective": 8623,
      "pilot": 8624,
      "pron": 8625,
      "offence": 8626,
      "):": 8627,
      "Mumb": 8628,
      "alert": 8629,
      "neys": 8630,
      "aspirations": 8631,
      "Ce": 8632,
      "Dom": 8633,
      "loyal": 8634,
      "maybe": 8635,
      "donations": 8636,
      "Network": 8637,
      "memorandum": 8638,
      "Family": 8639,
      "Taple": 8640,
      "Pers": 8641,
      "cable": 8642,
      "eager": 8643,
      "justified": 8644,
      "Subba": 8645,
      "bitter": 8646,
      "Makwanpur": 8647,
      "wisdom": 8648,
      "Sug": 8649,
      "injustice": 8650,
      "immortal": 8651,
      "olf": 8652,
      "usha": 8653,
      "Rastriya": 8654,
      "Baglung": 8655,
      "khari": 8656,
      "Navy": 8657,
      "Yankees": 8658,
      "64": 8659,
      "NCP": 8660,
      "represents": 8661,
      "andhar": 8662,
      "agya": 8663,
      "fever": 8664,
      "solving": 8665,
      "Simp": 8666,
      "doors": 8667,
      "centric": 8668,
      "observed": 8669,
      "lingu": 8670,
      "approve": 8671,
      "novelist": 8672,
      "CA": 8673,
      "Treat": 8674,
      "butter": 8675,
      "ANFA": 8676,
      "performing": 8677,
      "landslide": 8678,
      "obstacles": 8679,
      "Rukum": 8680,
      "eering": 8681,
      "sop": 8682,
      "incorpor": 8683,
      "Advis": 8684,
      "educated": 8685,
      "infected": 8686,
      "Olympic": 8687,
      "Behold": 8688,
      "windows": 8689,
      "Travel": 8690,
      "Penn": 8691,
      "monaster": 8692,
      "ologist": 8693,
      "knee": 8694,
      "Taplejung": 8695,
      "78": 8696,
      "iga": 8697,
      "stronger": 8698,
      "painful": 8699,
      "regarded": 8700,
      "Mumbai": 8701,
      "Major": 8702,
      "aris": 8703,
      "cane": 8704,
      "politically": 8705,
      "publisher": 8706,
      "introduction": 8707,
      "Kaski": 8708,
      "mits": 8709,
      "abortion": 8710,
      "Anil": 8711,
      "overs": 8712,
      "desk": 8713,
      "Training": 8714,
      "shots": 8715,
      "achieving": 8716,
      "Rautahat": 8717,
      "feudal": 8718,
      "Bij": 8719,
      "Run": 8720,
      "gal": 8721,
      "Report": 8722,
      "Dix": 8723,
      "impose": 8724,
      "demar": 8725,
      "mani": 8726,
      "preval": 8727,
      "Citizen": 8728,
      "rak": 8729,
      "decor": 8730,
      "hypo": 8731,
      "blamed": 8732,
      "Nuwakot": 8733,
      "Tok": 8734,
      "asa": 8735,
      "Mahesh": 8736,
      "Commissioner": 8737,
      "tells": 8738,
      "psychological": 8739,
      "satellite": 8740,
      "approximately": 8741,
      "Blo": 8742,
      "Win": 8743,
      "contracts": 8744,
      "seminar": 8745,
      "Take": 8746,
      "adad": 8747,
      "fathers": 8748,
      "distributing": 8749,
      "Teh": 8750,
      "proportion": 8751,
      "entrance": 8752,
      "Jac": 8753,
      "theoret": 8754,
      "compromise": 8755,
      "eping": 8756,
      "expects": 8757,
      "scenes": 8758,
      "focusing": 8759,
      "facilitate": 8760,
      "Carolina": 8761,
      "Chha": 8762,
      "aharu": 8763,
      "overwhel": 8764,
      "encro": 8765,
      "machines": 8766,
      "bull": 8767,
      "Steve": 8768,
      "Die": 8769,
      "Suk": 8770,
      "zen": 8771,
      "allies": 8772,
      "Directors": 8773,
      "wonderful": 8774,
      "FM": 8775,
      "hits": 8776,
      "humanitarian": 8777,
      "Joe": 8778,
      "Industrial": 8779,
      "Belg": 8780,
      "Bureau": 8781,
      "dwell": 8782,
      "portion": 8783,
      "Shuk": 8784,
      "fined": 8785,
      "resigned": 8786,
      "split": 8787,
      "Jal": 8788,
      "barr": 8789,
      "ims": 8790,
      "examine": 8791,
      "exported": 8792,
      "temperature": 8793,
      "acquisition": 8794,
      "engage": 8795,
      "sections": 8796,
      "speaker": 8797,
      "convenient": 8798,
      "atabase": 8799,
      "Upendra": 8800,
      "Ek": 8801,
      "Fire": 8802,
      "ember": 8803,
      "expressing": 8804,
      "Dhun": 8805,
      "warr": 8806,
      "edar": 8807,
      "adds": 8808,
      "vaccine": 8809,
      "Pit": 8810,
      "assigned": 8811,
      "airlines": 8812,
      "Paras": 8813,
      "igers": 8814,
      "essence": 8815,
      "eman": 8816,
      "crush": 8817,
      "generations": 8818,
      "fierce": 8819,
      "immigrants": 8820,
      "voy": 8821,
      "metal": 8822,
      "drafted": 8823,
      "Ren": 8824,
      "rating": 8825,
      "erted": 8826,
      "bridges": 8827,
      "Gupta": 8828,
      "Manandhar": 8829,
      "Shakti": 8830,
      ".-": 8831,
      "Mob": 8832,
      "vow": 8833,
      "arrive": 8834,
      "phy": 8835,
      "militants": 8836,
      "suggests": 8837,
      "amazing": 8838,
      "Dun": 8839,
      "Pres": 8840,
      "Tun": 8841,
      "hatt": 8842,
      "mu": 8843,
      "uprising": 8844,
      "Prior": 8845,
      "controlling": 8846,
      "restrictions": 8847,
      "Lin": 8848,
      "ndra": 8849,
      "adel": 8850,
      "pharm": 8851,
      "backs": 8852,
      "livestock": 8853,
      "industrialists": 8854,
      "Traff": 8855,
      "Born": 8856,
      "papers": 8857,
      "goodwill": 8858,
      "Series": 8859,
      "devotees": 8860,
      "ture": 8861,
      "zo": 8862,
      "istrar": 8863,
      "specialist": 8864,
      "1991": 8865,
      "Remember": 8866,
      "adults": 8867,
      "Change": 8868,
      "equity": 8869,
      "heavily": 8870,
      "fault": 8871,
      "autonomous": 8872,
      "hes": 8873,
      "pelled": 8874,
      "uda": 8875,
      "cycles": 8876,
      "Television": 8877,
      "perspective": 8878,
      "Tul": 8879,
      "ordon": 8880,
      "clients": 8881,
      "hensive": 8882,
      "inher": 8883,
      "adult": 8884,
      "pokhari": 8885,
      "arkot": 8886,
      "trek": 8887,
      "bearers": 8888,
      "Card": 8889,
      "GA": 8890,
      "Liver": 8891,
      "unrealistic": 8892,
      "airy": 8893,
      "Syrian": 8894,
      "Gandaki": 8895,
      "Seventh": 8896,
      "suspects": 8897,
      "Vikram": 8898,
      "anony": 8899,
      "asam": 8900,
      "spons": 8901,
      "iki": 8902,
      "hee": 8903,
      "withdrawn": 8904,
      "boo": 8905,
      "azar": 8906,
      "ambhu": 8907,
      "brands": 8908,
      "Jackson": 8909,
      "receipt": 8910,
      "hasn": 8911,
      "shoot": 8912,
      "influenced": 8913,
      "combination": 8914,
      "Wales": 8915,
      "Hon": 8916,
      "NGO": 8917,
      "gaz": 8918,
      "aga": 8919,
      "Church": 8920,
      "2009": 8921,
      "promin": 8922,
      "metropolitan": 8923,
      "youngest": 8924,
      "attempts": 8925,
      "layer": 8926,
      "intellectuals": 8927,
      "Culture": 8928,
      "numerous": 8929,
      "Sr": 8930,
      "TO": 8931,
      "weigh": 8932,
      "essions": 8933,
      "ignor": 8934,
      "regulations": 8935,
      "hunga": 8936,
      "idhi": 8937,
      "airline": 8938,
      "tenth": 8939,
      "shake": 8940,
      "campaigns": 8941,
      "Vishnu": 8942,
      "Lit": 8943,
      "lined": 8944,
      "trap": 8945,
      "stein": 8946,
      "gained": 8947,
      "robbed": 8948,
      "lahi": 8949,
      "collaboration": 8950,
      "pilgrimage": 8951,
      "Saraswati": 8952,
      "bam": 8953,
      "gif": 8954,
      "betray": 8955,
      "apartment": 8956,
      "Chowk": 8957,
      "sustained": 8958,
      "technologies": 8959,
      "ye": 8960,
      "fulfilling": 8961,
      "reserve": 8962,
      "awards": 8963,
      "represented": 8964,
      "surprising": 8965,
      "NRN": 8966,
      "Ford": 8967,
      "HING": 8968,
      "Pra": 8969,
      "acle": 8970,
      "upgrad": 8971,
      "Unless": 8972,
      "lifted": 8973,
      "EN": 8974,
      "’,": 8975,
      "eries": 8976,
      "chances": 8977,
      "carrier": 8978,
      "Karna": 8979,
      "threatening": 8980,
      "stocks": 8981,
      "Lad": 8982,
      "reward": 8983,
      "leak": 8984,
      "artistic": 8985,
      "1980": 8986,
      "Santo": 8987,
      "deposited": 8988,
      "throwing": 8989,
      "Bharatpur": 8990,
      "Principal": 8991,
      "Twitter": 8992,
      "advocate": 8993,
      "consideration": 8994,
      "Mul": 8995,
      "Form": 8996,
      "Brad": 8997,
      "Mir": 8998,
      "Tai": 8999,
      "turns": 9000,
      "Sever": 9001,
      "puts": 9002,
      "burg": 9003,
      "Buddhis": 9004,
      "protesting": 9005,
      "manufacturing": 9006,
      "assault": 9007,
      "ray": 9008,
      "reign": 9009,
      "beneficial": 9010,
      "ORK": 9011,
      "Kul": 9012,
      "remark": 9013,
      "atel": 9014,
      "Medic": 9015,
      "rapidly": 9016,
      "disrupted": 9017,
      "Addressing": 9018,
      "Om": 9019,
      "dates": 9020,
      "atically": 9021,
      "orious": 9022,
      "stip": 9023,
      "ideological": 9024,
      "Island": 9025,
      "removing": 9026,
      "Jog": 9027,
      "Know": 9028,
      "edited": 9029,
      "politician": 9030,
      "bury": 9031,
      "watched": 9032,
      "quantity": 9033,
      "69": 9034,
      "kan": 9035,
      "idge": 9036,
      "traged": 9037,
      "utility": 9038,
      "ruler": 9039,
      "Bardiya": 9040,
      "Riz": 9041,
      "sang": 9042,
      "ikh": 9043,
      "viewer": 9044,
      "illi": 9045,
      "apy": 9046,
      "counted": 9047,
      "Sindhupal": 9048,
      "Laxman": 9049,
      "obstructed": 9050,
      "Museum": 9051,
      "Tay": 9052,
      "plug": 9053,
      "Appl": 9054,
      "influential": 9055,
      "hearts": 9056,
      "kel": 9057,
      "commencement": 9058,
      "Seeing": 9059,
      "transit": 9060,
      "Devkota": 9061,
      "consultant": 9062,
      "700": 9063,
      "CH": 9064,
      "MB": 9065,
      "Us": 9066,
      "iers": 9067,
      "iah": 9068,
      "stig": 9069,
      "anticip": 9070,
      "rulers": 9071,
      "liveli": 9072,
      "combined": 9073,
      "highlighted": 9074,
      "este": 9075,
      "cooking": 9076,
      "ashi": 9077,
      "Resources": 9078,
      "Create": 9079,
      "cub": 9080,
      "converted": 9081,
      "Free": 9082,
      "shift": 9083,
      "coll": 9084,
      "parency": 9085,
      "deeply": 9086,
      "waters": 9087,
      "Fair": 9088,
      "Fred": 9089,
      "Rish": 9090,
      "mala": 9091,
      "incomplete": 9092,
      "assum": 9093,
      "carries": 9094,
      "governing": 9095,
      "Kiran": 9096,
      "detention": 9097,
      "instability": 9098,
      "investigated": 9099,
      "autocr": 9100,
      "survived": 9101,
      "Vid": 9102,
      "vit": 9103,
      "oked": 9104,
      "gentle": 9105,
      "Market": 9106,
      "innov": 9107,
      "Ev": 9108,
      "dedu": 9109,
      "eternal": 9110,
      "rug": 9111,
      "Convention": 9112,
      "productivity": 9113,
      "titles": 9114,
      "teenager": 9115,
      "Rawal": 9116,
      "greg": 9117,
      "thin": 9118,
      "commissions": 9119,
      "pleasant": 9120,
      "Craig": 9121,
      "lal": 9122,
      "rought": 9123,
      "Accordingly": 9124,
      "Exam": 9125,
      "introduce": 9126,
      "Milan": 9127,
      "Kunwar": 9128,
      "71": 9129,
      "Amar": 9130,
      "hiding": 9131,
      "proof": 9132,
      "endor": 9133,
      "lowest": 9134,
      "Space": 9135,
      "sisters": 9136,
      "Cy": 9137,
      "pig": 9138,
      "incur": 9139,
      "Chat": 9140,
      "answers": 9141,
      "drawing": 9142,
      "Build": 9143,
      "Indonesia": 9144,
      "Dall": 9145,
      "recording": 9146,
      "retain": 9147,
      "ques": 9148,
      "venue": 9149,
      "divine": 9150,
      "shareholders": 9151,
      "soldier": 9152,
      "demarcation": 9153,
      "pin": 9154,
      "ches": 9155,
      "pries": 9156,
      "posing": 9157,
      "Student": 9158,
      "Surendra": 9159,
      "ua": 9160,
      "wake": 9161,
      "trave": 9162,
      "agle": 9163,
      "boundaries": 9164,
      "WAS": 9165,
      "iro": 9166,
      "vic": 9167,
      "uber": 9168,
      "Start": 9169,
      "processes": 9170,
      "scope": 9171,
      "Daniel": 9172,
      "tribal": 9173,
      "YORK": 9174,
      "nis": 9175,
      "Mahab": 9176,
      "sentenced": 9177,
      "vegetable": 9178,
      "throne": 9179,
      "romantic": 9180,
      "Entrepreneurs": 9181,
      "Care": 9182,
      "arbitr": 9183,
      "concent": 9184,
      "offense": 9185,
      "herbs": 9186,
      "Sunil": 9187,
      "Jersey": 9188,
      "Georgia": 9189,
      "Abdul": 9190,
      "76": 9191,
      "Gordon": 9192,
      "Ow": 9193,
      "fate": 9194,
      "idols": 9195,
      "accur": 9196,
      "gana": 9197,
      "runner": 9198,
      "obtaining": 9199,
      "rabit": 9200,
      "File": 9201,
      "nan": 9202,
      "teous": 9203,
      "Inde": 9204,
      "trucks": 9205,
      "Within": 9206,
      "diesel": 9207,
      "vessels": 9208,
      "inspiration": 9209,
      "math": 9210,
      "uct": 9211,
      "stan": 9212,
      "chose": 9213,
      "constit": 9214,
      "norm": 9215,
      "ranked": 9216,
      "RE": 9217,
      "tab": 9218,
      "wheat": 9219,
      "goat": 9220,
      "investor": 9221,
      "barrel": 9222,
      "channels": 9223,
      "regulatory": 9224,
      "hoped": 9225,
      "pounds": 9226,
      "rescued": 9227,
      "Agree": 9228,
      "OP": 9229,
      "Ariz": 9230,
      "Democracy": 9231,
      "audit": 9232,
      "massacre": 9233,
      "drowned": 9234,
      "roles": 9235,
      "morality": 9236,
      "balanced": 9237,
      "fails": 9238,
      "Feb": 9239,
      "witnesses": 9240,
      "vastu": 9241,
      "interrupted": 9242,
      "74": 9243,
      "endran": 9244,
      "minim": 9245,
      "courts": 9246,
      "helpful": 9247,
      "murd": 9248,
      "pledged": 9249,
      "apparently": 9250,
      "opponents": 9251,
      "Tit": 9252,
      "Tri": 9253,
      "coinc": 9254,
      "thoughts": 9255,
      "Read": 9256,
      "neighborhood": 9257,
      "enjoyed": 9258,
      "urge": 9259,
      "uti": 9260,
      "iana": 9261,
      "greatly": 9262,
      "giant": 9263,
      "absolutely": 9264,
      "Stat": 9265,
      "declare": 9266,
      "swim": 9267,
      "celebrating": 9268,
      "Jacob": 9269,
      "lev": 9270,
      "irates": 9271,
      "prec": 9272,
      "engue": 9273,
      "voices": 9274,
      "finalized": 9275,
      "Sarlahi": 9276,
      "2056": 9277,
      "Lokman": 9278,
      "texts": 9279,
      "Hamp": 9280,
      "Mod": 9281,
      "SU": 9282,
      "atan": 9283,
      "unconscious": 9284,
      "ugal": 9285,
      "pending": 9286,
      "attacking": 9287,
      "Suman": 9288,
      "billions": 9289,
      "Techn": 9290,
      "Kapilvastu": 9291,
      "Kharel": 9292,
      "Met": 9293,
      "twe": 9294,
      "imper": 9295,
      "quit": 9296,
      "counsel": 9297,
      "licens": 9298,
      "colon": 9299,
      "threats": 9300,
      "Bow": 9301,
      "mothers": 9302,
      "Reserve": 9303,
      "apurna": 9304,
      "Right": 9305,
      "forty": 9306,
      "unlikely": 9307,
      "relax": 9308,
      "understands": 9309,
      "allegedly": 9310,
      "toilet": 9311,
      "contradict": 9312,
      "Literature": 9313,
      "Ag": 9314,
      "dinner": 9315,
      "insecurity": 9316,
      "computers": 9317,
      "Arch": 9318,
      "hali": 9319,
      "elephants": 9320,
      "recruit": 9321,
      "unaware": 9322,
      "abh": 9323,
      "iko": 9324,
      "transition": 9325,
      "recommendations": 9326,
      "gods": 9327,
      "occupied": 9328,
      "Tanah": 9329,
      "Protection": 9330,
      "Number": 9331,
      "flies": 9332,
      "sir": 9333,
      "onso": 9334,
      "findings": 9335,
      "disputes": 9336,
      "requirements": 9337,
      "strikes": 9338,
      "chicken": 9339,
      "Make": 9340,
      "righ": 9341,
      "composition": 9342,
      "ifies": 9343,
      "upar": 9344,
      "Pram": 9345,
      "rows": 9346,
      "factories": 9347,
      "ambling": 9348,
      "Tiwari": 9349,
      "Hun": 9350,
      "Tony": 9351,
      "stal": 9352,
      "pocket": 9353,
      "Itahari": 9354,
      "bride": 9355,
      "password": 9356,
      "Doti": 9357,
      "oldest": 9358,
      "careful": 9359,
      "Spokesperson": 9360,
      "Patel": 9361,
      "Ind": 9362,
      "undergoing": 9363,
      "secretaries": 9364,
      "01": 9365,
      "Cla": 9366,
      "Kand": 9367,
      "Squ": 9368,
      "Uk": 9369,
      "cave": 9370,
      "hate": 9371,
      "update": 9372,
      "informal": 9373,
      "Moreover": 9374,
      "HINGTON": 9375,
      "hub": 9376,
      "achi": 9377,
      "athlet": 9378,
      "ashed": 9379,
      "nervous": 9380,
      "flows": 9381,
      "attribut": 9382,
      "instruments": 9383,
      "Gandhi": 9384,
      "Tulsi": 9385,
      "WASHINGTON": 9386,
      "92": 9387,
      "Lek": 9388,
      "ales": 9389,
      "acing": 9390,
      "mood": 9391,
      "lia": 9392,
      "Trad": 9393,
      "signing": 9394,
      "greed": 9395,
      "coverage": 9396,
      "accounting": 9397,
      "depth": 9398,
      "Traffic": 9399,
      "Bimal": 9400,
      "thief": 9401,
      "conv": 9402,
      "appearing": 9403,
      "sticks": 9404,
      "DNA": 9405,
[...]
